/**
  ******************************************************************************
  * @file    wine_quality_data_params.c
  * @author  AST Embedded Analytics Research Platform
  * @date    Thu Oct 12 20:39:47 2023
  * @brief   AI Tool Automatic Code Generator for Embedded NN computing
  ******************************************************************************
  * Copyright (c) 2023 STMicroelectronics.
  * All rights reserved.
  *
  * This software is licensed under terms that can be found in the LICENSE file
  * in the root directory of this software component.
  * If no LICENSE file comes with this software, it is provided AS-IS.
  ******************************************************************************
  */

#include "wine_quality_data_params.h"


/**  Activations Section  ****************************************************/
ai_handle g_wine_quality_activations_table[1 + 2] = {
  AI_HANDLE_PTR(AI_MAGIC_MARKER),
  AI_HANDLE_PTR(NULL),
  AI_HANDLE_PTR(AI_MAGIC_MARKER),
};




/**  Weights Section  ********************************************************/
AI_ALIGNED(32)
const ai_u64 s_wine_quality_weights_array_u64[3904] = {
  0x3f3e737f3e83ca9bU, 0xbdce178cbee49fdbU, 0x3f04633d3d1c7303U, 0x3f23f3ffbda1843aU,
  0x3f220d3d3f26b0d1U, 0xbdfbb58abd12f149U, 0x3f08c8efbcab6b99U, 0x3f19b8e1be424a27U,
  0xbd0c92ea3e890ce8U, 0x3f2f82fb3e6fa979U, 0x3f15b5bcbf20e7f1U, 0x3f1ad2333d9c608aU,
  0xc009fe75be01fdd1U, 0x3fc3daef3fd38675U, 0xc02e6715c02d8e58U, 0x3d09c09f3fa592aeU,
  0xc074e1b63fa58769U, 0xbe4c62bfc06158faU, 0x3e3ed7a4bed7fb3cU, 0x3fe164afc065a261U,
  0x3fd1e83ac067d76eU, 0x3f485ece3dccaaffU, 0xbe8294e73fa7fbfdU, 0xc0154744c0649e42U,
  0xc078c7af3fc97a86U, 0x3fc1e357beeed1d2U, 0x3fdaaaebbebe9f02U, 0x3f9cd0e3bfeda5feU,
  0x3fa354d2be0791bdU, 0x3fd390593fc05419U, 0x402a83c1be47b178U, 0x3fd2b9afbe3653e1U,
  0x3fca7519c012ae3eU, 0xbe5abb563f9cfd80U, 0x3fa5b212c0178b79U, 0x3fd2455dbff68a12U,
  0x3fc40efcbfe706daU, 0x3fc28a023f78ea17U, 0x3fcffdc23fcddd35U, 0xbecb61ad3d74b693U,
  0x3eb3104e3f9f711eU, 0x3f984f9d3f986b52U, 0x3ec5b1093fd111d9U, 0x3d6174333f6faab5U,
  0x3eb912313fb8bed2U, 0x3f1f661d3fb16120U, 0x3ef61657be1e5e74U, 0xbf0e628a3fa2d586U,
  0xbe5dd1623fbd6052U, 0xbe7f7db33fbb50d0U, 0x3fad96413fe48587U, 0xbec39e273faa9f7fU,
  0x3f553f613f1551daU, 0x3f7a159e3dd6d612U, 0x3fd6fef73fa5c7f4U, 0x3f01e368bebc0f27U,
  0x3fc6e3483e2f6393U, 0x3fb64d2d3f5d557aU, 0x3e41f8293f3d1bd1U, 0x3f8bcd313ed3cd37U,
  0x3fbd7ab93e856000U, 0x3f96466f3f0bb57cU, 0x3fe66934bef01799U, 0xbd6f04bd3f86368bU,
  0x3f6911c4bfc0c507U, 0xbe8bbb713e34b871U, 0x3fa9d14e3ed8f01aU, 0xbe521d223fd20dc2U,
  0x3ebbbbacbf81ece4U, 0x3f8edbbb3fbf897bU, 0x3f3b359d3fbc8d4cU, 0x3e1f73a53e89372bU,
  0x3e1794363f24a5a8U, 0x3f7b52443fc78a4eU, 0xbe0eeb393f192bb3U, 0xbfd4d0d340069eb3U,
  0x3edf4d6bc0001476U, 0xc016c0ac3f810a1aU, 0xc01090d5bd70fcb3U, 0x3fd71a963fad9e17U,
  0xbd38f6193eb4a1f8U, 0x3fd1ba56bdeb162aU, 0x3fbbb3bb400a7f49U, 0xbe07f010bfec208eU,
  0xbffb910b3f69131cU, 0x3fcd7575bee295afU, 0xbfd5508a3f943529U, 0xc06b91953fb41215U,
  0xc00f18fac091c3eeU, 0x3fa389e23fad088cU, 0x3d60f109c0346417U, 0xc08a4706c03ada89U,
  0xbebe1613c082d2b7U, 0x3d98a039c040d0c0U, 0xc08a426ac084f452U, 0xc05e2202c08a111cU,
  0xbf28166c3e2a8035U, 0x40374a5ec041ab57U, 0x3fa63d2fc083d07dU, 0x400ec710c09eb8b5U,
  0xc02644e63fddd46fU, 0xbf9f6bc8bfe2680fU, 0xbf25bc0cbf02863aU, 0x3e5b15e940a12a2fU,
  0x3ff7f49b3ee47dfaU, 0x40296d7a3feddba3U, 0x3f9ea11c4002d000U, 0xbf522c313f3e8477U,
  0xbf9be9fa3ec0e7ddU, 0x3ed5bbea3f1d02a7U, 0xbfa8ff94bf5a76d3U, 0xbf445ffd3f6c52f4U,
  0x3f28a4bec0461cb1U, 0xbdc32664c01dcb71U, 0x40b2f7c13bccb67fU, 0x3f30e045bf8b4b82U,
  0x3d5ac96a400167b3U, 0x3fac6cbdbf77c235U, 0x3f17d92dbea7ba0fU, 0x3f5ffb7a3e85f2a4U,
  0x3f768c0240006f0aU, 0x3da24ae8c05e32a6U, 0xbdcbdc87bfe7ff0dU, 0x3ffd4f613f649877U,
  0xbf41cba6bfafd6dbU, 0x3f631edabf6ab6efU, 0x3f09c4a93f34bbdaU, 0xbf25b2e23e77f37fU,
  0xbff213abbfcfaa1fU, 0x3eba3deebeea856aU, 0x3f2cbf6b3ff63239U, 0x3f4013853ead1bccU,
  0xbfbdbe853faed75cU, 0xbf5d163d3f4dc7d0U, 0xbebf4be1bfa9a195U, 0x3f494265bf13a925U,
  0xc015f908408928bcU, 0x403427283fa4723fU, 0xc04a968ebee2aa03U, 0xbef5ce5f3f5f868eU,
  0x40089f7c4010548eU, 0xc01abfea3fa8a801U, 0xc09a5e2dbf5c1dafU, 0x3f6bf1f5bf80e14eU,
  0x3e97e610bff69c30U, 0xbebce511bee76a72U, 0xbe0b8098c010cae3U, 0xbc5554cf4025f4a0U,
  0x4001db66c064ae0dU, 0xbc171908bf9b8bc6U, 0x40495424bfd4de7dU, 0xbfcb53c5bf9e1215U,
  0xbf01343f3f0a3ef4U, 0x400a0a3bbfd1e7cdU, 0x3f73f3dec0a2a76fU, 0xbf209174bf859f96U,
  0x3f415285bfc80cfaU, 0xbfd22303401bb5f8U, 0x3ec3a3e9c08852f2U, 0xbe43f7593f85b6afU,
  0x3fce96993e50cae1U, 0x3fa2ee7a3f05ba15U, 0x3cbe9d9dbfbcee94U, 0x3f3ad4f53fac58abU,
  0xc03e2b3c403568aaU, 0x3fa5f7d3403454edU, 0xbebf305ac04d1994U, 0xc006b82840543787U,
  0xc023c0ae3f5ddb6aU, 0xbfa38f543ef805edU, 0x400e4c74bfc720b6U, 0x3f3ffd08beca1d5eU,
  0x3f78d38c3f138af0U, 0x3fccda8e40641d4eU, 0xbfc905393fb22664U, 0xbfefb4ebc057f269U,
  0xc08671883f42292aU, 0x3f5331ed3eb18383U, 0x407da55f3e182db9U, 0x3fa067b5bfcc3660U,
  0x400e98ba3f782f69U, 0xbe814cbfbfe67c9bU, 0xbfba7fb23f33875cU, 0xbe06520a3fbcc9e7U,
  0x3f498753bf37a2d5U, 0xbeb04faf3fc0e646U, 0x3dd3328dbee0e6c4U, 0xbe851d9bbf892beeU,
  0x3dab557e3eb7d0a0U, 0x3f3c37fac0278234U, 0xbfc8ec3a3f03d785U, 0x3fdd6c0fbd1473c2U,
  0x3ecaf26ebfbf516eU, 0x3fa51cb23fb95077U, 0x3fe784eebfdc01dbU, 0x3f2b132cbd39ea52U,
  0x3a2ea63c3ed53efdU, 0xbf7885323fabbabfU, 0xbefe961abedfd376U, 0x3f8291363f9d54a3U,
  0x403af0ce3f85a5ceU, 0x3ffeeaa8bf0d6e34U, 0x400bf2e13fad3422U, 0x3bd4833dbfb51e59U,
  0x3ff3ddc0bf8fa3caU, 0xbeaf308b3f142e05U, 0xbd8c05873f950e35U, 0x3f3ec968c032e454U,
  0x40116c0d3ea3bd85U, 0x3ff00c32bf11cf3bU, 0xbf47b87a3ee9bbbdU, 0xbfd8742ac06292a0U,
  0x3f85b0894073d381U, 0x3fe6bd1d3e504e3aU, 0x3eb66acbbfecc625U, 0xc0252bc63f31de2aU,
  0xbf9147243ff01063U, 0xbeeda0fc3fc76974U, 0x3ed1364ebff4107eU, 0x3fe5257ebf36fb71U,
  0x4002041dbf32cadaU, 0xbfd29e8c403f07a4U, 0x3f519bc83f96ab0bU, 0xbf4ca6383feee344U,
  0xc006119a3f56b57bU, 0x3e0d646cbf367c09U, 0x3f891c37be923e38U, 0xbf44fa213fef8b5bU,
  0x3e81dc9d3daa63fcU, 0xbfe5045dbdb9ebfaU, 0xbf8a486c3ea0c3ebU, 0xbf86d471bf3418a6U,
  0xbe6b0dcdbf4ccf12U, 0xbf637f313fac3393U, 0xbf2a57fdc00431c0U, 0x3f93da594033075aU,
  0x3fcf04dd40035a00U, 0xbf9a5dca3e66097bU, 0xc04d103cbf0a4281U, 0x3fa506713f644687U,
  0x404beb6e3e9c1f9aU, 0x3fcd4e30c051d9afU, 0x3e8020d0bf343e7eU, 0x402f169ebe739e4eU,
  0x40328ea9c06970c1U, 0xbfc520693e8f4fdaU, 0xbeb54e563fb21f11U, 0x3e455992bff2f43bU,
  0x4016eb773d53ce70U, 0xbf4091a13f1cafddU, 0xbee150173fba091fU, 0xbfa6dc213fd4e7b9U,
  0xbfcde21c4004b3feU, 0x3f25bd7a3e4738feU, 0xbf8c6f6e4051d0c2U, 0xbee95ddb3f19953bU,
  0x3fe24569c061724dU, 0xc050d9f2bead48c4U, 0x3e470999be0eecc7U, 0xbe253343be87c06fU,
  0x4082c6bf3f80d55eU, 0xbf84c6793ecab3a7U, 0xbf9c115b3f160dffU, 0x3fb270c8baad967bU,
  0x3f2bc59cbf355e84U, 0xbf4f0edec035a4a1U, 0xbef76cdfbfc78787U, 0x3f359a8d3f3a851cU,
  0x3e5e39fcc02647bdU, 0x3f3a01e8be41a9f8U, 0x3f2f1779bfddaf05U, 0xbf8e58413dfefeeaU,
  0x3f0bb6bfbfb559c4U, 0x3f316acb3f85f63dU, 0x40233395bfc51879U, 0xbecc5f023e2f13a6U,
  0x3f6bb79e3e3779e8U, 0x3ec60c2d3ef46da7U, 0x4051419fbed601c7U, 0xbe1b37cabf3f6883U,
  0xbf80b55f3f772a8bU, 0xbf4603233fbe1e52U, 0xbffd8e0d402f9c83U, 0x3f0465433e8e04efU,
  0xbfd556fb3effc1dcU, 0xc0216571bed05e92U, 0xbf8b8deabfcf9502U, 0xbe0aee40c00d839eU,
  0xbef8303bbf85a3e3U, 0xbf5ba982bfdc27cfU, 0xbfd536793e811f6fU, 0xbb49a75b3fe6826fU,
  0x405381a2be89b32cU, 0xbfc201ab3fae0f37U, 0x3f8b7808bf334cb3U, 0x3e07acbd3f314208U,
  0x3fd4f618c036ba2eU, 0x3f9bf253c01d31a8U, 0x3e9003fe3fdd8428U, 0x3fb662d33faaf1f3U,
  0x3f3a6c913fd2d467U, 0x3d434b893f8dd186U, 0x4027528f3f5ab689U, 0xbfe37c01bee26dc1U,
  0xbfc9b923bdcb082cU, 0xbfc75147400102dbU, 0x3f24c69c3f80d0a5U, 0x3fae5461be85ab90U,
  0x3f9565283e86a1beU, 0xbfd09bd2bf27d6ebU, 0xc0a3a9c03f367b30U, 0x3f7d1e8ebf6999feU,
  0xbde0f738c01ffef8U, 0xbecfecc9b9df6826U, 0x3e07812f3fe39a95U, 0xbf9f7384be36bfffU,
  0xbf5b76a03e578c9eU, 0xbfbf1995401a33eaU, 0xc02b6867be4042c5U, 0x3ffccf2f3eb098ffU,
  0x3ffaccc9c08a23a7U, 0xbe747cddbd4a00a5U, 0xbf054f01be399e09U, 0xbf5009babf08443bU,
  0x3db41ccc3fe1d9e8U, 0x3ed3714640634dcdU, 0xc02bcf3e402f25f2U, 0x400b1b7cbdf293bbU,
  0x3e8427a3bfeea430U, 0xbf980ff2bfe23240U, 0xbe50cbc03f0f76fbU, 0xbed1d2e53f6ddcfdU,
  0xbf2094143fff7bf6U, 0xbf15888ebf493977U, 0xbf2d2ba7bf4c3785U, 0xbd45d76ebe19e54aU,
  0x400426cd3f52b655U, 0xbf4811a5bf2415d7U, 0xc0027b55bf9f5874U, 0x3e04d798c032b834U,
  0x3fb60c28c07162feU, 0xbe8d9fc03f6ab4bfU, 0x3f4d4336bf9f108cU, 0x3eb9652c3f582717U,
  0x3fa8c6ab400feb83U, 0x3ee93557bfbeb36eU, 0xbfb73a80bedfeee2U, 0xbf446a83bf441a4aU,
  0x3f539864bfc22f71U, 0xbf262bb540171a88U, 0xbd9f7f213fc73b67U, 0x3fc161f140055105U,
  0xbfd50764bfb00cdeU, 0x3d0c7218bec2875bU, 0xbfab98863fea7e39U, 0x400bd68ebf352104U,
  0xbf26b139c01b7148U, 0x4048e2c0bf2c328fU, 0x4095a058c057b558U, 0xc000926b3ee7d1b1U,
  0xbf968e18401506e9U, 0x3ef0e52fc00d69ccU, 0x3f8796a1bdb0457eU, 0xbf4fa120400e2d99U,
  0x3f66fdeec01f5a99U, 0xbfc91460bd03574eU, 0xbfd31b543fc159dbU, 0xbd515e96bfebd140U,
  0x3fd3df46bf204b6eU, 0x3ebc3bd0bea5aa8dU, 0x40008410bfc8ad5dU, 0xbe5a1b8d3f96a604U,
  0x3f4f2f48400abc93U, 0x3eeebe94bf762926U, 0x3ebfff9e4008c95bU, 0x3fe9d214bdebd097U,
  0xc014b7ccbea7d8edU, 0x3fab5759bfc7af38U, 0x3faada863ee83468U, 0xbd5b9cbebf21a060U,
  0xbee292ec3f31a029U, 0xbe3376f13ecbb961U, 0xbf9fd52a4037db49U, 0x3fe22c023f048e8eU,
  0xbe51fb1dbfa27971U, 0xbdb70bd03eef5071U, 0xc01f7058402408ccU, 0xbede8661bee5621cU,
  0xbf406b8dc001cba6U, 0xc00b78c0c004d9e2U, 0xbf25c653bfbedaf9U, 0xbcfa204e40257fb6U,
  0xbe3e598a3f5fad23U, 0xbef1dc3fbed5e64cU, 0xbef16684bfc46d5cU, 0xbf88f119bf9fc805U,
  0x3f3cd7f8bf63affbU, 0x3e8df15d3f4d867cU, 0xbf82e92f3ec42b50U, 0xc0206f85bf99b2e6U,
  0x4041de83bfee2743U, 0xbfa2fcb13db86e86U, 0x3f8c602d3feff0e7U, 0xbfed5c8ec00a4845U,
  0xc06f2b14bfba4eccU, 0xbd62796a3e544847U, 0x3f29c1013f533051U, 0x3fe13f69405436d3U,
  0x3f158ce3bf217f8fU, 0x3f37f206bff17abdU, 0xbe7b999f3fe1b5c1U, 0x3ec3f2fe3f900d2dU,
  0x3ffebfe340245011U, 0x3fcbfd6040111816U, 0x404c11373f7ecbe3U, 0x3f6e5b12c0832b41U,
  0xbf68dd243f2279c1U, 0xbff22c653faf3c65U, 0xbf2c6c243fe44ae1U, 0x3f3ec3074069f2c0U,
  0x3fb9d5d2bf5340c0U, 0x3f9781b8c0251791U, 0xbf7859acbf1c48d2U, 0x3f6bdbcebe6340baU,
  0xbf7fbd8cbd864399U, 0x3dfbb54dbf2d0565U, 0xbfb280883f8261a9U, 0x3ff6b363bf4d9e1aU,
  0xbf75c6184010a513U, 0xbdda703ebf1d2adfU, 0xbfd10aa1bfad01eeU, 0xbfd521abbee2682fU,
  0x3f7609c54001b9e6U, 0x3f3fd30f3f8ea75eU, 0xbfdced31bfea2f40U, 0xc004aa613fbf8310U,
  0xbfd8438cbfd928a6U, 0xbfad867abfc16759U, 0x3eb972a040a53bceU, 0x3f20ae8fbfdf1df8U,
  0xc01257bb3f9d3f27U, 0xbf469b92befb90f1U, 0x3eebb63dbe23808bU, 0xbea46ff4bf79b0feU,
  0x40434c523f2255b3U, 0x3f9c81823eb31bcdU, 0x400ed13bbec9413bU, 0xbe9ca227bf2e046bU,
  0xc00dcb873f6aa06eU, 0x400ae872be88e3a4U, 0x3f42e6c63fbe3f10U, 0xbff17ed0c08a5fb2U,
  0xbd4edaa83efa8395U, 0xbf221ad3be91221aU, 0x4028550f3f46b34eU, 0xbf865d5d3f9401a7U,
  0xbe8e9cdbbdd5813eU, 0x3d7d57963fce1163U, 0xc0428496c0978487U, 0xbeeae9abbfa3f923U,
  0x3faeac3ec014dacbU, 0xbf19beadc05e43d0U, 0x3ea7df9640495be7U, 0xbe8e96ed401c8e5fU,
  0xbfb0e6d340123af2U, 0x3f86dc9e3fea943bU, 0x3ea089813fbe3cb7U, 0xbe18277d3d2f0337U,
  0x3ea5a419bdfb9b55U, 0x3f1524f33f656205U, 0x402e0e544047d27dU, 0x3f23c6003ef1d8c0U,
  0xbef57815bfc2bfe9U, 0xc008f471400f9f98U, 0xbd1c13bcbf50c018U, 0x3f43cce3bd525b6fU,
  0xc002f409bf0ab6e6U, 0x3e85962740582a2cU, 0x4067baf6bf18506bU, 0xbfc461ddbef61046U,
  0x3e67e43cc0169ed4U, 0x3f1749a33f4ebe13U, 0x40168f6ec02d897aU, 0xc005b44ec00c1412U,
  0xbdf072c4bf4561deU, 0xbf405c44bf7c55b1U, 0xbe5c35fabfc1f85dU, 0xbf71ec493fa44588U,
  0x3f4969f13fd0611fU, 0xbf6b9eb64038891dU, 0x3fb60ce9bf63ac4bU, 0x3e5539dabf26b8d5U,
  0x3f6078bbbf5f7f27U, 0x3f21b8c2c01cc56fU, 0x3f58217f3f2a1f6bU, 0xbedac14a3fc73ed0U,
  0x3fbc8c554022b6f9U, 0xbd545d4a404473a2U, 0x3ef34f1a4017f152U, 0xbf3bd9efbfa39156U,
  0x3f9b5e8a404ea364U, 0xbf19b808403fabbdU, 0xbfdf4a30bf98429aU, 0x3faac240c03118a2U,
  0x3e6ac824bf7298efU, 0xbf9b9e51bf1cd2ceU, 0xbfa9d294bd8c05a1U, 0x3f37930ec03bea8fU,
  0xbf3f48393e981ea1U, 0x3fdea1173f7c88abU, 0x3f80fc83bec8149eU, 0xbddeb2b03de876eeU,
  0xbf8c652dbf0806e7U, 0x3f71525bc0005f75U, 0x3fee70c03fb2e8b7U, 0x3fca04593ecfe1d2U,
  0x400a95d2c0233878U, 0x3f9fdbe4bf3de325U, 0xbfedddea40023990U, 0xbf1623b0bef9db87U,
  0xbf8c3652bf4498b9U, 0xbf6d53f13f2f888dU, 0x3f3177083fad8d22U, 0x3e9c2d2fbff0b9ffU,
  0xbf81077e40937238U, 0xbde7d9c5c05438e1U, 0x40706a6ac06c3012U, 0xbff02fbe3fc14f8eU,
  0x3fbebd0fc0597983U, 0x3fdcd87dbfe9267bU, 0xc098d96ebff5810bU, 0xbea066ecbf9f0625U,
  0x3ee4485f3fa4a04fU, 0x3f7257fb3fc2059bU, 0x406e9129bf2db4f7U, 0xbf10ba6cbf236047U,
  0xbf9a16133f42964bU, 0x3f09a094bfb3abacU, 0xbfb71a1cbfcc2483U, 0xbf04cb394017626aU,
  0x4035d20e3f02c21bU, 0x3f67c95b3fa571cbU, 0x400ef1833f2d2f07U, 0xbfa6f5814023d939U,
  0x3f32e66bbc013304U, 0xbfdc8e83bf338119U, 0xc01f9aa13fc2146eU, 0x3fb64c52bf59c3a6U,
  0xbfb14ef63f2c4c24U, 0x406af12a3f3b75a0U, 0x3fa2aa1b3f910570U, 0x3edd102abf9b9063U,
  0xc091c28fc02a4260U, 0x3e953a46bf11a5ddU, 0xc0091790bfc79b3dU, 0x3e1e145cbe73b2eeU,
  0x3fa92ca1bfc07243U, 0xbd17bbbc3df81d1bU, 0x3f2ba737bf95d588U, 0x3ef65760bfe8090aU,
  0x3c60a12d3fa4828cU, 0xbf9f45513f450bdfU, 0x3f957a88c003a86aU, 0xc0549fe0bff42618U,
  0x4057e1213fceeeabU, 0xbf5aa77640320c1fU, 0x40c5b26fbfe7c929U, 0x3f44d9adbf762d55U,
  0x4024738cbf7c58a2U, 0xbe03b1c5bfa0e161U, 0xc01affc53f0e22d9U, 0xbfddc436bfbfb934U,
  0x3ea90694bf76d265U, 0x3f796c8c3f2e154fU, 0x405fa5034059d8e7U, 0x3fc4e13e4001b478U,
  0x405911a340b1d811U, 0xbf272eb3c0152860U, 0x3ef791c1404db662U, 0x3fde7555be1f37b1U,
  0x4015e6fbbbf58517U, 0xbf6f4518bf98469fU, 0x3f5c7d82bf1bc473U, 0x3f08edbb3fe00389U,
  0xbf83bc63be9894f4U, 0xbf270882bf80a6ebU, 0xbaea04c73eeb3c30U, 0x3f45ea45c002c946U,
  0x3f2efb3d3f2529a6U, 0x3f002c703d75f2edU, 0x3f7bfbfb407a1b56U, 0x3f431ec33fab3356U,
  0xc02b625ebf9c3fa1U, 0xbf849393c0cda286U, 0xbf4de0983f8cd700U, 0xbd193c7bbe28a5e8U,
  0x3f993f6bc0445c7aU, 0xbf388a85bfec9d7bU, 0xc04402a63f4daf37U, 0x3fce4a3f3f97e45eU,
  0xc0371a37bfd72c7cU, 0xbf5a87ae3fb57f84U, 0xbfd413294001df96U, 0x3ed654d63fca3626U,
  0x3dcbe0a53fc98d08U, 0x3e059f013fad01eaU, 0xbf7f818fbf895800U, 0x3f5b7af0bd94da59U,
  0xbfa37165bf206ab4U, 0xbfc64aa3bcde72d9U, 0xc03e9cb7403a38feU, 0x3fe3536cbe84ea50U,
  0xbf9bfa73bf6fd491U, 0x3f55d0e2bf973f41U, 0x3f3748ffc02d37efU, 0xbed8566fbf10136dU,
  0x3f0094cc40201fbbU, 0x3f33fb583eed96dcU, 0xbf6a30653f522a85U, 0x3f3092b1bd660015U,
  0x3fd4e206bffb77bbU, 0x3e2c8809bf9db47aU, 0x3fe98ad33fa30a75U, 0xbfac11b13f983105U,
  0x3e57302cbf12a613U, 0xbe9ce7b93f870691U, 0xbf8ecd7e3f8976bdU, 0xc042e69cbfad5569U,
  0x3ddb8c233ea2a2f4U, 0x3e866978be4181bdU, 0x3f40a560c00aae65U, 0x3e1cd792bea49135U,
  0x3e1decfbbf9be3b2U, 0x3f7c7f44bdda1e2cU, 0xbec8fc133ddacfc2U, 0x3ebb4645beb262a4U,
  0x3fb7be71bea99e5dU, 0xbf4098403f87d3f9U, 0xc0afcc3f3f680389U, 0x406596893f12b208U,
  0x3fa71f93c06eae0bU, 0xc00898bb3dbd5c6cU, 0xbec50e344061d91fU, 0x3fbbcfe63fae5ed9U,
  0x3fc830fd3f02219bU, 0x3da047f83fceeec3U, 0xc00097ecbf74d056U, 0xbe9f7903be848dd3U,
  0xbec4cbf1404fabf7U, 0xbf5498e0c021b057U, 0xc020169b3f9ede92U, 0xbfba90b03fcdbc41U,
  0x3f185067bfe2608eU, 0xbfeccad1bf725517U, 0xbf3668a03f9f5f32U, 0xbca98c8e3ca16e56U,
  0xbf9e9237c0185d30U, 0xc0384196be3355baU, 0x3e103447be45d05dU, 0x3ebcd035bef96c7cU,
  0xbeb59f7dbe63cd4cU, 0x4010c330bfa637d2U, 0xc0821910c054e016U, 0xbf2860fcbee8e24dU,
  0x400102054055a517U, 0xbf587365c05c2decU, 0xbfd4d4003ed96423U, 0x3e8b0e24beb3e540U,
  0x4011b2ad3fbeb9b6U, 0xbf0f3c0d3e4747cbU, 0x400bd43d3dc207c9U, 0xc000b870bfc529bdU,
  0x4002dfad3ec775ceU, 0x3f197c243f3dc864U, 0xc0055800c03e2dcfU, 0x4018bb963e8342aaU,
  0x40391596bf75ac32U, 0xbddb24acbeaf05dbU, 0x3e87c56a3e5d8a49U, 0x3f215079bfe60be8U,
  0x3ff743bdbfd72b67U, 0xbed8609540637cfdU, 0x40386bd0c0169ff3U, 0xc026b54abf9d5b92U,
  0x3ff73b65bf898d56U, 0xbf16dccc3e936b22U, 0x400597d9be6c1e58U, 0xbfb3ef2c3dabc247U,
  0x3da82b74be51205cU, 0xbf2e450b3ed8f892U, 0xbf6f8028bf0c8863U, 0xbf0bba953f28cf68U,
  0x3fe947243f664d0fU, 0xbf1ee6e0be9500baU, 0xbfa43794c01dd212U, 0xbfeddfb3c02d88d8U,
  0xbf5722353f915045U, 0xbfc9fdd4409a458dU, 0xbf922449bef619b5U, 0xbe2bd3d4c0158f44U,
  0x3ff3c9d03fbc29bdU, 0xbdaa3b583fdb28e2U, 0x3e1ed204c01ef828U, 0xbffa0eeb40142750U,
  0xbcc69cf23f2599a9U, 0x3f48e6f8be4d943cU, 0x3f9787ee3f37ee5bU, 0x3fc51f203fcfff72U,
  0xc037c80a3fe6f9eaU, 0x3fc6f41abeb41f2aU, 0x3e96d4a73f4fd1ceU, 0xbfafdd6cbfd090b6U,
  0xbef85b223f43971dU, 0x3efaf18bbf8ab439U, 0xc0040f313f59febdU, 0xbfb59914bf947d37U,
  0x3e07f85bbf684ef6U, 0x3e79ba373fdcd08cU, 0x3fd924e2bfc7b747U, 0xbfc500973f4a7aaeU,
  0xbdc54e38bfa577d1U, 0xbfc7ce9a3dacb073U, 0x3d7b7705bf5fde98U, 0xbf3495dc400fa9f6U,
  0xbf61dbb0bf29268aU, 0xbf96bc9a3e3795c9U, 0xbcbea44bbf5fccddU, 0x3e7058d03f742810U,
  0x3fd831b73e972f7cU, 0xbfe37895bf15525cU, 0xc04c181a3f117fabU, 0xbf4729a73f11b540U,
  0x3eca5314bf586e62U, 0xbf48b5533f75a8e3U, 0x3d976b0fbfee95bfU, 0xbdb961983f0ac391U,
  0x3f582b51c03cbb7dU, 0x3f8973ad3fb861bdU, 0x3f1489bfbfca9befU, 0xbee3640bbf598f7dU,
  0xbe1ff317bf56ca85U, 0xc036e4ca3fa15c42U, 0xbf97f1663fdeb58bU, 0xbd5f1c56bfb62b6dU,
  0x3f982633bf900e0fU, 0x3f6b66e7bde8794fU, 0xbf5d0633beaffaf4U, 0xbf055d803fb97cf0U,
  0xbfa80352bf7b7cf7U, 0x3fd9970e3ecbbd97U, 0xbfde395f3de2b9dcU, 0xbf11b5133ed24a72U,
  0xbfa910be3f0c0737U, 0x3cb38e633f5a5dbcU, 0x3f511200be37bdbcU, 0x3ec69b42beb97f46U,
  0x3c14b1333f583620U, 0xbf97ca13bf9998d3U, 0x3e26afb3bf8c5f91U, 0x3f018bae3cd50ea5U,
  0x3e465a79bf0e8e1cU, 0x3e8ef770beb8053eU, 0xbd4cc7a73ed53516U, 0x3d13d27ebf0589d4U,
  0xbd8de047bee16568U, 0x3d9a069dbd673f83U, 0xbe955039be1d0f8dU, 0xbf2df104bf892771U,
  0x3c8a4f1d3d9ff9c6U, 0xbcb6456abf3a04a9U, 0x3ec1cbff3e8a23e5U, 0x3f5937083bae74faU,
  0x3ec14fd53e8239c1U, 0x3e41b180bf889869U, 0xbe4681a63e7de636U, 0xbdfcfc33bf0d2340U,
  0x3f07bba23f102871U, 0xbe42ca6dbdeffb9bU, 0x3f850ecabeebf3d8U, 0x3f4a4f9e3e676998U,
  0x3f107f773eac9679U, 0x3ef05e4c3f82429cU, 0xbe9704a43efe38fcU, 0x3f270d433f4ea48eU,
  0xbf5bbafbbec4736bU, 0xbf7b60f4bf1e941bU, 0xbd810d023ec30f91U, 0x3ca099bd3ebf7f4cU,
  0xbe9f3f743f97d684U, 0xbe1050eb3f4ee7eeU, 0xbe41cbf73dbb7e58U, 0xbe0c17c7bce31742U,
  0xbd6f7f3dbecd6856U, 0x3eb5fb2bbbac076bU, 0x3dbc56183ff90b69U, 0x3f04adb83df217b1U,
  0xbe8cdcc73f041c4aU, 0xbe26d4f9be6bc6caU, 0x3eeed5d23ea21e8aU, 0xbe4aec11bdcef7a0U,
  0x3e7e42143f5019c6U, 0xbfd2465abdb374a8U, 0xbe6c6083bee7c8bfU, 0x3e2d4707bea7fcaeU,
  0xbf178adebd2c7c3dU, 0xbf912ce9be724c85U, 0x3fc89a6fbf018163U, 0x3f4a536dbf5bc682U,
  0x3f0896b0bf555634U, 0xbfb518acbf8e500eU, 0x3f54a7f0bf8e1f4fU, 0x3f9e665a3de18813U,
  0x3f925650be9f72c3U, 0xbf62fc22bf63c4ffU, 0x3f1afca43e83ffdeU, 0xbcfee30dbf323b84U,
  0x3f5263b13e5e680dU, 0xbf1b9c96bee4779eU, 0x3e5c26103d529f2aU, 0xbeac3c05bf4a4a41U,
  0x3fb6285a3eb67973U, 0x3e543fa93e90d618U, 0xbe167c393f5ee273U, 0x3fda84a7bf51f39eU,
  0xbfa235d53e7be57eU, 0xbf25843cbee1902aU, 0x3dfb71463f8a4b38U, 0x3f6c29343f510e90U,
  0xbffd6974bf948b44U, 0xbea6c5f7bfa43354U, 0x3f82316dbeacff23U, 0xbd51043ebec97a68U,
  0x3e1444e03eb2c7c6U, 0xbe7ab4c2bfb55dcdU, 0xbf5eda943f514e33U, 0x3df72bc33fad886dU,
  0x3f81626dbf4f28a0U, 0xbeec83ccbf115ba4U, 0x3eb37bdbbe032a23U, 0xbe540febbfd15d6fU,
  0x3f4fb86a3ecd0389U, 0x3f686fe2bf834b32U, 0xbfef5c203ebe398bU, 0x3e8ef05d3f9a69afU,
  0x3ea966c23ffdd2ecU, 0xbea62cf2bd8052deU, 0xbe293142bf3895b3U, 0x3e840eda3dba5816U,
  0x3e0591aabf0011ecU, 0xbf8859b5becde0cfU, 0x3f99e834bf6d89caU, 0xbd5123c0bfbf0528U,
  0x3f87014e3f0eb913U, 0xbdb1b94fbe9634f2U, 0x3f83431ebe19f15eU, 0x3dbfbee03e9726e1U,
  0x3f40f8cd3f8612c4U, 0xbf56f5e73e810137U, 0xbef961ce3e2978d9U, 0x3e5adbde3f3980fbU,
  0xbdba8fbb3efe0bffU, 0xbda927dabef565b0U, 0xbf06f69e3eedfdb6U, 0xbee104f7bf81996aU,
  0x3e56649ebf67f411U, 0xbdde18323e7abfa9U, 0x3ee45850bf69fe8cU, 0xbe053d2f3e2f81beU,
  0x3ebffba7be993ba7U, 0xbef15bcebdb48025U, 0x3f3b75ffbe614ab9U, 0xbeff100e3d029c60U,
  0x3db4d5f6beb16b5eU, 0xbf3776e1be9ca4cbU, 0xbef651903ecb857dU, 0x3d196da13ec522f9U,
  0x3eb0e48f3ef4e307U, 0xbf473d46bef0059eU, 0x3f3e9dbfbd800f8cU, 0x3e9f56fc3fb727acU,
  0xbf7ddcef3e3a4841U, 0xbef4e149be4167f7U, 0xbf287b233ea56971U, 0x3f0e5ee6bfad88fcU,
  0x3f17cc3fbdeb85a4U, 0x3f0527b5bf8ab216U, 0x3f5906263dea1e2eU, 0xbe4bd94f3e2264a5U,
  0xbead334c3deb6a18U, 0xbf596bcebdbc27fcU, 0x3ef8b4fc3ed0abe7U, 0xbfc6dda23ec02106U,
  0xbea254563b9ce986U, 0xbe84dc6ebf2ce86cU, 0xbebf8ea13dbf57b4U, 0x3f1dfd743e693274U,
  0xbf326f3f3ccbc106U, 0xbf3ff392bde696ffU, 0x3f0c4db6bd90d337U, 0x3e7084ef3d160abdU,
  0xbf8707763e2d52a2U, 0xbf21496a3eba14e9U, 0xbfcd35e3be5d23b6U, 0xbe4b8345bf45365eU,
  0x3ed0fbf5bfb82283U, 0x3efaa439bf2d3129U, 0x3ea7c0ae3f6fad43U, 0xbf6c1f18bfcb6756U,
  0xbec8dd49bf6641a9U, 0xbf4374fd3dbc3468U, 0x3f0e03ad3eab3c03U, 0xbf2244953ecafdd2U,
  0xbf8d89abbe2c2448U, 0x3ee759a5bd7d3262U, 0x3f35dead3ead484fU, 0xbde34cc7bef45989U,
  0x3f09a422bec859f3U, 0xbf8cb730bed37530U, 0x3eb36e283dfac9e2U, 0x3ed43d4ebe72420eU,
  0x3f8c775a3e92681cU, 0xbeed31d33f3d82f2U, 0xbe25fdc6bbf0d58cU, 0xbeb3c9e3bd1fdfc3U,
  0xbf1c8fddbeabe6d0U, 0xbf363e0ebf240dcaU, 0x3f30e32c3d70da21U, 0xbd5196f1bee16701U,
  0x3e9aa68f3d82b246U, 0x3f09d19f3f5b0d1bU, 0xbe7bec983f189022U, 0x3e1ad8d4bf8c0a3fU,
  0xbeafb07b3ed9324eU, 0x3de3600bbf836e80U, 0xbe99b9ebbd978f06U, 0x3e22071fbf0c5ad8U,
  0xbf062b43be46a528U, 0x3f06ea313f53f5f1U, 0x3f055336be83a588U, 0x3f173962be32a544U,
  0x3ef29079bf2da783U, 0xbe08d822be6fffc1U, 0xbe4bdc96bef165a6U, 0xbcc1c13dbfa91da6U,
  0x3f59eb90bf879a09U, 0x3f6678a23f55b27dU, 0x3d40e3813f1c8dadU, 0xbdba006f3f5b349fU,
  0xbe25a101bf514be7U, 0x3ee2662dbe21c808U, 0xbf83ddaebeb4cd90U, 0xbf932881beb0fc7eU,
  0xbe9c6ca93cbad52cU, 0x3e55fda03f3e645aU, 0x3f671d783f88aad8U, 0xbf06d6043f3a49f3U,
  0xbec0d925bf1e75a5U, 0x3e792f4c3f81cee4U, 0xbd4765653d9d1176U, 0x3f10d55fbf3ba84eU,
  0xbd97b4a2be83603cU, 0x3f60400ebedf1282U, 0xbdcc068e3e45f74cU, 0xbf3f0acf3dba4330U,
  0x3dc38322bf7f15d1U, 0xbefcd09a3ea8f81dU, 0xbe063cf53e9c79b8U, 0x3ea68f563eebdefeU,
  0x3e946e783d565907U, 0xbcd94cbbbf2cfe67U, 0x3e835a40bde6ce8eU, 0xbec9ee21bf7940f9U,
  0x3eb5abd23ef8c0f8U, 0xbc857d71bf539ed9U, 0xbe37696a3f241549U, 0x3ea26c223e302ec8U,
  0xbed5ce8d3f73d5fcU, 0xbca7b73fbf417b40U, 0xbfab85cd3e24577aU, 0xbf679bdc3fb84f54U,
  0x3f1c0d2abdc389ffU, 0x3efa24cd3e90e808U, 0xbe2d00f83e9440fcU, 0xbe9addd43f222f78U,
  0xbeb3df45bd85bb70U, 0x3f42e381bbb139d8U, 0xbe9e0b45bec01286U, 0xbe893af4bcc83503U,
  0xbf885fbc3eca138eU, 0xbe8e9dad3fc51860U, 0xbe4fc7823edf69a2U, 0x3e8fefdb3eaec0ffU,
  0x3f051ea3bef2dfdcU, 0x3eab61953e300bb2U, 0xbf1f12f23f9558faU, 0xbf0ccadbbf194730U,
  0xbe9a802dbf0af035U, 0x3e2016ccbee35c7dU, 0x3f2527353f548cdbU, 0xbdb12b97bd91e9ccU,
  0x3f0c2e263f80d984U, 0xbd8022e73efa80c3U, 0xbf6b6ed9bec57f1eU, 0x3f858a10bf9280f7U,
  0x3f87d5253eeaaf6fU, 0x3e37367a3ee76caaU, 0xbfad0846bde2ad29U, 0xbf72487fbe8c6015U,
  0x3e422e05bf674d75U, 0x3e898d073f027dd0U, 0xbe97392a3da2c116U, 0x3f1479e0bd9d0202U,
  0x3e3c20133e03ff4dU, 0xbd99e3773f91993bU, 0x3fa73c85bf972f43U, 0x3f3cfa263efc4843U,
  0xbf3432acbf1af5e7U, 0x3eb80c6bbf35fc17U, 0xbfc34e483f3f229fU, 0x3f905abc3d2837b0U,
  0xbf97ba403f134ab8U, 0x3f8f7f53bee6967aU, 0x3f3d8930be63a7c9U, 0xbe3bb2dfbf87bdc3U,
  0x3f4f20893ec433aaU, 0x3f985259bcb7b76aU, 0xbdc39a893eed56dcU, 0xbf4165cfbfbb42e0U,
  0xbe847e103ee7cc73U, 0x3f10afb73f62f48eU, 0x3f6130f0be8d37ffU, 0x3f1828603ed661b6U,
  0x3e55ea1f3f9ae680U, 0x3ee5ff173f90bff8U, 0xbf19011d3ec42ec9U, 0xbc62bfc1bf90a335U,
  0xbf8fe32d3fe5b474U, 0xbecd483f3e3d12fbU, 0xbff3d34b3db76fc6U, 0x3eef4c303f90f928U,
  0xbf872a663eda51a2U, 0x3f5a0866bf17032aU, 0x40492b11bede774cU, 0xbc36d8fc3f0427c6U,
  0xbf9f5882bf0bb3b0U, 0xbf399253bea4e987U, 0x3e86b4043d8d96bdU, 0x3d9e987bbfac37f7U,
  0x3fbdc0c93fcfd9a4U, 0xbf85a41fbec45363U, 0x3f1607af3f272b85U, 0xbf0aedcd3ead7783U,
  0xbe79c698bedf6bd2U, 0xbe947f06bf8afe4cU, 0xbf3ee78fbec06a82U, 0x3e764619be7664d1U,
  0x3ea922f53caf1983U, 0xbf47c87cbf2b688aU, 0x3d1c87f6beebfca8U, 0xbfc2bfe5befa88ceU,
  0xbf0f700fbcaf8cb6U, 0xbf3dee763f1d038bU, 0xbeae9ae5bfec02a1U, 0xbd93e3923e14ef01U,
  0xbf323b9abe93e1c5U, 0x3f901fd7bf865df6U, 0xbf14245b3e8c557cU, 0xbe8857c5bf2ce7faU,
  0x3e61b5b83f90e8c5U, 0x3e1c12e5be41062fU, 0x3f62e12b3f8f2ba0U, 0x3fd78f3f3ecd4efbU,
  0xbe936979bdced71dU, 0xbe1c3ae0bef58c11U, 0xbf9492d2bc4a0a21U, 0xbdc0e42d3ee5a7e1U,
  0xbedf360bbf6ceba8U, 0x3e4e14923de0acc7U, 0xbf45ea39beaf5985U, 0xbe0086a83e2c33f6U,
  0x3f70cfee3e33a241U, 0x3eba7c3c3c77fe05U, 0xbec661e3bdfe6cbaU, 0xbccebaca3f730c35U,
  0xbf699b2dbd843ce0U, 0xbefeed5d3ea727b3U, 0xbf1f1c973f304972U, 0xbf79c426bf448475U,
  0xbfc4d7af3e2480acU, 0x3e8729363eef28d6U, 0x3d0164723f614135U, 0x3f86aebdbf192ae8U,
  0xbd359380bf69b0e3U, 0x3e6180aebf625774U, 0x3ea55007bccace52U, 0x3ec74515bed649dfU,
  0x3e8f48a93eb70a2cU, 0x3ba4f876be4f8b16U, 0x3f3efdbbbdf3a653U, 0x3ed447b93f1fc09aU,
  0x3e4eddd33f9d44a3U, 0x3ef1bb4dbf2834c1U, 0x3e501c6e3e89f965U, 0xbe099a51bf0e99a8U,
  0xbec803e4bf3b773bU, 0x3f049b01bf33f3b8U, 0xbf23d4543ec37018U, 0xbeae18edbea590f4U,
  0x3dd75cdfbe2ab819U, 0xbe99afe93e9965b3U, 0xbee9004e3e770a16U, 0xbe676b083df27944U,
  0x3eed905c3d9ce87aU, 0x3e82a7593e2cd19dU, 0xbf3e89eb3f41d478U, 0x3f0ec546be6fe8e4U,
  0x3dc4d11c3dec33e7U, 0xbe668b97beb20bd0U, 0x3e43e8a73f19bcdcU, 0xbf66f4e33f54c9f0U,
  0xbf3c21b73eca82f9U, 0x3ea5b1b13f52a2faU, 0xbe2edde0be96ae83U, 0xbe33668bbe4cfb11U,
  0x3f0eea17bd53cb30U, 0xbeaccd09be7a22fbU, 0x3eb174fabf69102bU, 0x3e2a496e3ee9981dU,
  0xbf4495df3f66b91dU, 0xbee63bc03f979e77U, 0x3ed5ee96bef43683U, 0xbd4aca43be669cd5U,
  0x3f43fe843c6ad162U, 0x3e85a625bfb61017U, 0x3e7b79ba3dbdcae7U, 0x3ea6f35dbea1a949U,
  0xbf1d89473ee11ccbU, 0xbf33a52abe6348e7U, 0xbf325d933eae4a7aU, 0xbd2aebc13ece55b0U,
  0x3dd720603eab213bU, 0x3fe09adbbd92155bU, 0x3f65195c3e54c10fU, 0x3d4f44613eca1dd5U,
  0xbe9b52663ea8e347U, 0x3ee0f4953e8947b3U, 0x3e4163353e8fc01dU, 0xbe82d88b3f04d8ceU,
  0xbf16ee93bfb73fe2U, 0x3ed66bb63ec7d093U, 0x3eacfe133e36fb29U, 0xbe34f23e3dd5dc6fU,
  0x3edc10823eef31adU, 0x3e11a5853f2371a4U, 0x3f2962bbbf7d0ab8U, 0x3eec1328be82fedeU,
  0xbfb792f73d82b8bfU, 0xbd1c990bbfacde1aU, 0xbf188054bf24b09aU, 0x3f1c0195bf36ce83U,
  0x3ef8a372be098dc7U, 0x3d2aef89bf23c2cfU, 0x3f837f89be3ac06cU, 0x3e7c3e803f4272efU,
  0xbf2aefd63edc860fU, 0x3ed16de2bf2224daU, 0xbf5f36b73ca4fcbcU, 0xbe2ae9a9bf1dda13U,
  0xbea5e7923e9e1270U, 0x3f927a95bddae26aU, 0xbec6b6ee3e08f1d1U, 0xbf7677fe3f34c6dcU,
  0x3f1eaf583f53253fU, 0x3f40bfe73e67df59U, 0x3d24e63f3e46f97bU, 0xbe489f3bbf53a8d4U,
  0x3e0c3175bda19101U, 0x3e787eb63ea5029fU, 0xbfacfef73ddc150aU, 0xbf4ec5053f3b4a18U,
  0x3f4d5859bdf1c53bU, 0x3e766d23bf8779bdU, 0x3f40ff9fbf735916U, 0x3f10da1dbd914d54U,
  0xbf1448743efb751cU, 0xbe9d4df2bf6914c0U, 0xbf8398193e19cd88U, 0xbe73cdbc3f07fb08U,
  0x3e9244e53edfa2d4U, 0x3ee6eb733d1eab98U, 0x3dd7c66cbe007609U, 0x3f2edd5abf5f9d6eU,
  0x3f5f822cbf2b99f3U, 0x3eb483023f68c233U, 0xbe4ea34f3fad92b8U, 0xbf04a9e43dd1f211U,
  0xbe00e1c3be63aa82U, 0xbec8a6aa3cdebc94U, 0xbe40ecb23f849853U, 0xbef24e443f71a829U,
  0x3e9fdf923f025253U, 0xbf9acb09be723332U, 0x3e8c024cbe4c5073U, 0x3f4b0cac3ed4304fU,
  0x3eb75f653d31735aU, 0x3ef8dd9b3f0ec5afU, 0xbeba15ff3f803e37U, 0xbe4ee1893e8a99bdU,
  0x3ecdf93c3ef1029aU, 0x3de070acbf444a3aU, 0x3f20331abeb18cadU, 0xbe5334fc3edc0be4U,
  0x3e08e02ebf4c9590U, 0xbe1a54eb3e6a80b9U, 0xbf8a6b6a3ec68715U, 0xbe0a6b7abf163d22U,
  0xbf34b3bcbf83c8f6U, 0x3d77be6f3e1379b0U, 0xbf8c06f9be73090cU, 0x3ef53e5a3d2026e7U,
  0x3f0356a2bf1e4b75U, 0x3f117b46bf00e8d2U, 0xbd0ada47be3e1835U, 0xbec6d459bef5e305U,
  0xbf7c608f3d2f2dacU, 0xbe3453efbf85bc60U, 0x3eb30eef3dd7f9ffU, 0xbe47a832bf588fb5U,
  0x3f47f5d3bf96172fU, 0xbe1e9d153db01739U, 0x3ee0f8cebe0598ccU, 0x3e0273a5c0463828U,
  0x3e0c2835bf09e566U, 0x3f1c47493f5ea3d7U, 0x3f6d0a4fbef23225U, 0xbe39757e3dfa414bU,
  0xbed00d8f3f57f03bU, 0x3cb39c813ec637d9U, 0xc003d943be3ec67fU, 0x3eafc6033e930561U,
  0x3e9ecd2cbf49e717U, 0xbf881125be962bc5U, 0x4029dc05be81f615U, 0x3e653dc93f0ff24aU,
  0x3e4548ed3db34269U, 0x3e728d593ed4dc41U, 0x3dffc95f3e8e6374U, 0x3ee9b7d8bf0281aeU,
  0xbf82644c3f816631U, 0xbf1fa99cbd46152aU, 0xbf07cb77bf2d1c33U, 0xbf1ff49b3e221c0fU,
  0xbf19b665bed23dcbU, 0x3e749e4e3f2a70f0U, 0xbe950a973f3ee9ddU, 0xbd211d433f462b14U,
  0x3e744764bf934b27U, 0x3fdd6cdf3f17eca4U, 0xbca0d0e8be498b7aU, 0xbbcf79ebbf6504b4U,
  0x3dbadd6bbe841232U, 0x3db599c33caa6612U, 0x3f562ca1bf5d758bU, 0xbe893d443e8108abU,
  0xbf3742bb3e374499U, 0xbf2a7b9b3f049520U, 0xbf0250993f480482U, 0x3f182b8a3f1c4968U,
  0x3de05301bf0d11c6U, 0xbf1c6087be414eaaU, 0xbefd1081bf57d670U, 0x3ebe5bc5bf1e4ae1U,
  0xbd305c873fb95c58U, 0x3e61ebe13f1f4d12U, 0x3e0140fd3f3368adU, 0x3ddc26813ee7cdb8U,
  0xbf69c8b53e2d465bU, 0x3eeb778c3f947768U, 0xbf8b2760bd994171U, 0xbf9c0ec4bf8d7eccU,
  0x3f3bf4b03dbd5c1cU, 0x3e1a80f43efd636fU, 0x3df32354bf62b3d9U, 0xbe65795b3f94a26cU,
  0x3d44a0383ded1238U, 0x3d1376b2bdc24c5bU, 0x3f21a7b1bf8d0137U, 0xbf33c3d2beb7e13aU,
  0x3f6ee55cbbd067e5U, 0x3e0d51b1bf952facU, 0x3eb951ed3dd0c0b1U, 0x3f770ec93e123cb0U,
  0xbf2556cb3f1a0812U, 0x3e7350a03f2499f4U, 0xbf5223373f4dcab1U, 0xbf5c6c15be701327U,
  0xbea20abcbf6d7409U, 0x3e36b67dbf24584cU, 0x3d86a04b3f5a1c51U, 0xbeb423163f437e45U,
  0x3e8fecf8bde0535bU, 0x3f41f9aa3e0bc515U, 0x3fa4dc57bd26ff4eU, 0x3e1ee0b7bf03a68eU,
  0x3f0701a9be22b4b1U, 0x3e3f4b62be217a06U, 0x3e595e4a3d06c2e5U, 0xbe4c0fe3be100e50U,
  0x3db0d764be048fe1U, 0x3d564d38be3f1d2fU, 0x3dc88516bdb45125U, 0x3e8b8d973d8ddbddU,
  0x3c276734be5b0680U, 0x3dd3f68ebecd2133U, 0x3ddc6853bf0a3f2aU, 0x3d3c8481bc075e58U,
  0xbeaa0d303cbe580aU, 0x3e1f2ed1be64c941U, 0x3d4de469be698cc9U, 0x3e8c393fbebf3aecU,
  0x3e492f503de8550cU, 0xbeb29445bd80d3bbU, 0x3d92bc0ebd8e6241U, 0x3edcc3243b51155fU,
  0x3d6e13ecbe168879U, 0x3e3d4536bdfc0517U, 0xbe048510bd0b8221U, 0xbe868051bca9259fU,
  0x3ebfc8723dfed5ceU, 0x3ee818c4bea7803aU, 0x3cd6a64a39aa3406U, 0x3d151c993e60759aU,
  0x3ddb109fbec8bd62U, 0xbdd5cd173f2a95a1U, 0xbe18d203be1a3535U, 0xbd9a126abe23f409U,
  0x3d24a2903bcbc5b1U, 0x3e272915bdf819b8U, 0x3ebd425bbe02bfc1U, 0xbe3436ef3d41177eU,
  0xbe35c2b1be433d9fU, 0xbe4ce2cfbd66dd11U, 0xbe852e5b3edf5fb4U, 0xbcfe1cf43e3bd0afU,
  0xbc9e51a0bdbe95bdU, 0xbe551a8f3e161213U, 0xbd6fc5f4bcf3afcdU, 0xbe05e0b3be2b8ac8U,
  0x3d810d3abd986b85U, 0x3dc9f4433e07170dU, 0x3e8e4d913a041e59U, 0x3db7a862be171cebU,
  0x3c5d1a2b3d07f1c8U, 0x3f0ea7923dd2b28fU, 0xbe9f7942bf2751f3U, 0x3f0e3f45bebc19a0U,
  0xbfae6bf73d74430eU, 0xbedc37f7bd926d42U, 0xbfaa98733f676000U, 0x3f8316dfbee4289aU,
  0xbec96c703e3c02d8U, 0x3f6f17c83ee72607U, 0x3e9856863dd55671U, 0x3eadb5fc3e802370U,
  0xbfa6e31a3f40a99fU, 0xbd3dc3d93fc2e9abU, 0xbecace07bec3f918U, 0x3f00dc43bdda5af0U,
  0xbe83bec03ce2b62aU, 0xbebedb203f62ddebU, 0xbf84b764bf15f038U, 0xbe77fbecbe133ebeU,
  0xbe87e7a4bf1eb71dU, 0xbf022cd3bdd2370eU, 0x3ff3c1fdbf37b755U, 0xbd406fe1bd29f420U,
  0x3daec89bbf04abc5U, 0xbef7743fbe1aa1b7U, 0x3e1d9dd93ebfde5aU, 0xbf662a233f7e57abU,
  0xbf38e210bf37e61bU, 0x3badeccfbf80184aU, 0x3f888bd0bf85452dU, 0x3e68fb043ed93791U,
  0x3fbeb25fbf021f41U, 0x3f4cc8fbbd0f3008U, 0xbf4c400f3f427307U, 0x3f49b400be112b3bU,
  0x3e10090abf23c119U, 0xbe633c51beef330dU, 0x3f2904cebed1d2a6U, 0x3ec572a13eb55af2U,
  0x3ef702d24012434eU, 0xbe00b56f3f146980U, 0xbec0d096bf5f2a6cU, 0xbdac50f43d7e90a7U,
  0x3f71adc43eef0d5bU, 0xbdace7223eb80a1cU, 0xbf958d52bf49b85bU, 0x3e3dfe76bed023bdU,
  0x3f18babd3fa16589U, 0x3fa34ae23fdc4562U, 0xbf1dcbddbd682bacU, 0xbe1eada73fb27dafU,
  0xbe875b393eddf736U, 0xbea1f3243e3e47a0U, 0xbded805dbf2d52e4U, 0x3f810f2dbece2842U,
  0xbd8b00c9beeb21fbU, 0xbfaeb1f53d7e0799U, 0x3f1f5997bf67294aU, 0x3ec9f4893efb1400U,
  0x3f16521cbde537b4U, 0xbe79c11e3ee03896U, 0xbf000665bd7c0cf9U, 0x3e9ead5c3edfbec4U,
  0xbe36371c3e88926bU, 0x3e2b75bdbead7d13U, 0xbe74851d3f87315dU, 0x3f7d6acabf610796U,
  0x3e3003ef3edfe494U, 0x3f843416bed6c750U, 0xbcafc6183ee80979U, 0x3f6f2af83f093f2bU,
  0xbd8da07c3da9bed6U, 0x3eedf0d3be08c830U, 0xbf50e9aabd38ececU, 0x3f336dfe3e055c32U,
  0xbfe43b8a3e1bf96dU, 0xbf8e8d76bf1e3450U, 0x3fb8ba6cbd369b4bU, 0x3d4cffa33eda4b45U,
  0x3d968fcbbdfa961fU, 0xbf3468163fbd8965U, 0xbf9300173e015438U, 0xbf1b35323f7181d0U,
  0xbf06d858bdc927b1U, 0xbec3d4af3e63a063U, 0xbecdbcddbecb86b0U, 0x3f22ae01bee6ce93U,
  0xbf59aeb3bec19ee7U, 0x3fa2f060bf30b533U, 0x3e996a833e583210U, 0x3ebd83ee3ead6fadU,
  0x3e7410293ee76f9dU, 0xbf20f4dcbf9f25d2U, 0x3e6a53e23dd3dd45U, 0x3f2ade91becbbda8U,
  0x3f29efce3efae884U, 0xbe6cc80fbe4fbeb0U, 0x3f4f498c3d7f0841U, 0x3e5d6396bec79eb3U,
  0x3fb93f193bd2ff38U, 0x3f3c96c8bee78765U, 0x3f4d7e423edac289U, 0xbf2f594c3eb73cd4U,
  0x3fab86c53f6c8c50U, 0xbf29e97f3e0146aeU, 0xbfa90ecf3e386d48U, 0xbfa919ce3f5ca979U,
  0x3ec1c103bea2d22eU, 0x3f1d38573f07a934U, 0xbf5abd15bdf5b5f9U, 0xbf41bab2be1b4a82U,
  0x3f2ed776bf1f640eU, 0x3f02b119be6a59e1U, 0x3f9d74b8bf982cf1U, 0x3de2f3f13e1da260U,
  0xbf6c797f3e9d9bb1U, 0x3f84b521bfa2323bU, 0x3f771ea23f5e6f86U, 0x3f2a996ebdababf2U,
  0x3e27b080bf592d00U, 0x3e84c2c8bf7508e1U, 0xbf25367b3e6a3803U, 0x3ecc4a62bddbbc7cU,
  0x3ec54ca83f442bb4U, 0xbe53a350bf905e22U, 0xbf657d3fbeb749abU, 0xbd6575ab3fbdf23aU,
  0x3e061752bf1e90e1U, 0xbf4c47c4bf12b846U, 0xbecc0dd83f6f9030U, 0xbf24a135bf891e60U,
  0xbfb6b7853f1b4f33U, 0x3e470dfa3e410e63U, 0x3f602b583e77cd7dU, 0xbe8cb1623c90b4a8U,
  0xbf04d12bbf0a36b5U, 0xbe65190ebe8f7a5eU, 0xbfcd7e4f3dffafa9U, 0xbf841114bf3a7259U,
  0x3e12ea773f67227aU, 0xbebc1330beb4e96eU, 0x3eba9e123f094baeU, 0xbe36ab32be8808feU,
  0x3e5571033e8712c2U, 0x3e97987fbdc09810U, 0x3f6858e8bfa90eaeU, 0xbefca6c1bf89f13aU,
  0xbe1328aebf8e9086U, 0xbe6887fabeb576efU, 0xbf08560f3e9c75f8U, 0xbf0882bebf0fc2a4U,
  0xbe4a9def3fa6f963U, 0xbea72bb93e1cb0f5U, 0x3e855a74bf3f5eadU, 0x3f67490e3ebb6f50U,
  0xbe44171ebd8a9a7eU, 0x3d2578ccbf4b762fU, 0x3ed053d2be75314cU, 0x3f1c09893ce5c174U,
  0xbed4eab43e04d89cU, 0xbd4db87dbd488f77U, 0x3fb3d456bdbee13fU, 0xbf1c38883f64a7f3U,
  0x3e99d0a53e9267edU, 0x3cb4cd993e2d0affU, 0xbb937f54beeb803fU, 0x3f134e85bed4dc97U,
  0x3e1c23413edd4d72U, 0xbf1fa8e9bf1eae1fU, 0x3f1a541fbda71ceaU, 0x3f7660013eb531e9U,
  0x3f7c5300bea7da99U, 0x3eb106adbefb245aU, 0x3e57fe693f19631aU, 0x3e1de4f23e2a302fU,
  0xbedbc8cc3df86499U, 0x3c14d28bbe10ac46U, 0x3e957fe5bdc56266U, 0x3f32cff53f826c74U,
  0xbea163323f15dccdU, 0xbe8c5f67bf1d38b2U, 0x3e69a1d83ec1aee1U, 0xbed958a13f149458U,
  0xbcd76a393d2e1d84U, 0x3f0710aa3ec30c26U, 0xbe7f6ad63e7be18cU, 0x3f987d5c3ee4794eU,
  0xbf8a7c73bf69dcc6U, 0x3fbb99963e93cee1U, 0x3d4e55a0bf328ca5U, 0x3d860ca63e3a2e9cU,
  0xbdb067cdbf931656U, 0xbcfe02d3bef950ddU, 0xbdf57775be0c519cU, 0x3ea68b5ebc956251U,
  0x3eb98ea9bec208feU, 0xbefb50eabf44fddeU, 0x3f19671ebfa7719cU, 0x3e0e4de13e8084bcU,
  0x3f34ec03be0e7477U, 0xbec4a1e3bf0245d6U, 0x3fb3bfab3fbf3847U, 0xbf0017fb3e95c4b0U,
  0xbf361b3cbfcdf933U, 0x3eb751343fa126efU, 0x3fb1ff0cbee6add0U, 0x3fe44b053fc92e5eU,
  0xbf63f3f43e4b2523U, 0x3d328f02bf18f1faU, 0xbe5315773f8f2bceU, 0x3ec969a3bed01494U,
  0x3fa28891bf7da7fcU, 0xbf385eb53fc64371U, 0x3f30bc133f973d76U, 0x3ee3f33d3d4a98feU,
  0x3f3c9d24bf5326e5U, 0xbcba8de83e675febU, 0xbf367062be8f485fU, 0xbf5822bbbf86f11aU,
  0x3f23ed893f4055c0U, 0xbf776c6b3f4a8348U, 0x3fcf42803e0551f5U, 0x3f8882093f5df102U,
  0xbf8428953ec18367U, 0x3de689afbec642ddU, 0x3f3e3a2a3fc8d51fU, 0x3dc6b7253dd3eca0U,
  0x3f486f573ea8fc32U, 0x3f5da7fe3f7eb679U, 0xbec894a93f551e55U, 0xbe3ecc0f3ff8339cU,
  0x3f1eb190bedafa09U, 0x3f5c6755beafd5c6U, 0xbe518e743eac90c1U, 0x3e77e004beb0e61bU,
  0x3f47e28d3f612279U, 0xbe519d123f681b7fU, 0xbe783f343e69cf10U, 0x3f59ab8a3fa2d3a3U,
  0x3f3fee14be1c924cU, 0x3ec4f03cbf004bb8U, 0xbfdcf8aa3f6d5054U, 0xbf251b89be9390b4U,
  0xbea668ccbea191e0U, 0xbd1663443d23644fU, 0x3f7c1e623fba7b66U, 0x3f43b12b3f1c1eb2U,
  0x3e9a5b273e150c8fU, 0x3f6e5f263fa3a733U, 0x3f0acbb4bf108256U, 0x3f9f669fbf43bc81U,
  0x3e184129bf41c268U, 0x3f05ec4e3f1a206eU, 0x3e8a6c123f0b4878U, 0x3efcfb33bec9cb39U,
  0x3eb01275bf2d32aeU, 0x3f26b698bddccb47U, 0x3d087444be04458dU, 0x3f36b11ebe72a970U,
  0x3ea99ea4be7be86cU, 0xbf053bbbbf07fde0U, 0xbef2f8dfbf4c4036U, 0xbe5b0f82bdb07bebU,
  0xbf83000cbf047c07U, 0xbc78cb123bb35a70U, 0xbe6faafbbe1e8726U, 0xbe8f2c09bd21079aU,
  0xbec432b7bf738900U, 0xbeebed1dbf0df15fU, 0xbe4c62d33faac25aU, 0xbd2e6641bf40e7d8U,
  0x3df5e8433f8d7ef0U, 0xbec1836fbd96b601U, 0x3ef9e99f3f760ce2U, 0xbe0ec1383ea778faU,
  0xbd15fe26bf6ee67fU, 0xbeabe06dbe8b8fceU, 0x3e0c4c843f0a28b4U, 0xbea40afe3e91c4d4U,
  0xbf046e6cbe837d32U, 0x3f6c82663e71bf00U, 0x3f1aacfbbe25a9faU, 0x3e0004e5bfb341c7U,
  0x3f9f1b0bbd000409U, 0xbf053b033e130b96U, 0xbfa66cf2bdcfe650U, 0xbf1f5f2ebde807feU,
  0x3fba09b83ec5d680U, 0x3e037483bee433c9U, 0x3f88e9b5bd023999U, 0x3dec252b3ef65a46U,
  0xbf6598703fa449eaU, 0xbe5e32e33f0f3f52U, 0xbf4e03c3be1c06fbU, 0xbd4fd7dabf8789e4U,
  0x3edc4d223fa5d321U, 0xbf514467be350ed5U, 0xbc2eaa723e1791bcU, 0xbf2e615c3f022ebfU,
  0x3f25d353befcec38U, 0x3f8ac774bf93de5cU, 0x3f09cb4ebf552545U, 0x3a8389c2bd30052cU,
  0xbe6df0e5bec537d4U, 0xbf851e21bf49e1abU, 0x4017ad4bbf7ae2b1U, 0xbe75e8833f4e1300U,
  0xbf75020cbe2c6254U, 0x3f000aa03d0bbf16U, 0x3f2df632be2265a5U, 0xbdf090f73ee49f7dU,
  0x3d4a1491bf329916U, 0x3f93394f3fbd16fcU, 0x3f5ec9573fa506b0U, 0xbc3354e1bf60e208U,
  0xbf14a99a3f812d58U, 0xbeac97d4be18493bU, 0xbf978b1b3f103fddU, 0x3e45374a3e9aedbeU,
  0x3e105dc93f412efaU, 0xbe5e2cfebfbce256U, 0x3fa2c77f3f22bd80U, 0x3f33d5eb3f8dfc60U,
  0xbe87a3d43ead1268U, 0xbee5ef0ebf3cfb44U, 0xbf3c542a3f11f25aU, 0x3eba09a83f8765f0U,
  0x3ed25a683f10aa9aU, 0xbed572783fac01f8U, 0xbd71c1293f751e1fU, 0x3ebe57f9bfa8a54cU,
  0xbe3040f73f5dc3eaU, 0x3d088fe2bf125d83U, 0x3f7e9f5f3fb3fae2U, 0xbf87234abf69a6a1U,
  0xbe715f613f1e7e57U, 0xbf48a006bf823f7aU, 0x3e3f3b093fa4fec2U, 0x3e8956afbeaabddeU,
  0x3e652a703ed659e0U, 0xbecef8d4be3cbbcdU, 0xbf960f413f9e9f28U, 0xbe8b3ad03e819060U,
  0xbd72c55e3e195ec7U, 0xbf1318cdbf802bedU, 0x3f976a623f47e4f1U, 0xbf2903743e46903eU,
  0x3f081ab5c005e1e2U, 0x3f005149bd39016dU, 0x3c04809f3d2f5fa4U, 0x3f68df68bf047071U,
  0x3e5383c3bfe051fcU, 0x3f783c7cbf22f606U, 0xbf7aa7523f40138bU, 0xbdcfe930bf6bc74bU,
  0x3e94f3083e9c4ee8U, 0x3f977b263fb57a90U, 0x3cff059a3f08e1c8U, 0xbeea4769be251206U,
  0x3f25fca93f437fa5U, 0x3f9d5ca23f638b1cU, 0xbf3f30123f328b6fU, 0x3f184c4d3ebb1794U,
  0xbe412affbe1248c6U, 0x3f220523be11628fU, 0xbfa6be9d3ef0f6e3U, 0x3e43392b3e14170aU,
  0xbf8155c93dcb325bU, 0xbf9c0f063f87aa65U, 0xbe08ee5a3ed7c234U, 0xbf5114af3e3b3c16U,
  0x3f09d5193d8208c6U, 0x3eb7747e3d3dd737U, 0xbddbca1dbeb8ac0aU, 0xbe191f10bf4c8716U,
  0x3f85d8713d98362aU, 0x3f0c4168be85c59cU, 0xbe07469fbefb3c92U, 0xbed766a8beb529b0U,
  0x3f6fcea3be866155U, 0x3de06059bf8fd68aU, 0x3e5fef0b3e9a5857U, 0xbbfd408fbfb0efe5U,
  0xbfb13b4e3f2231e1U, 0x3e307f063ef942e6U, 0x3ebbcc52be178cc6U, 0x3e0e78d53f8c0969U,
  0xbf2ed9103dc02328U, 0xbe47ecbb3e24c407U, 0x3fae1b40be34dce3U, 0xbf53c1d03e365238U,
  0xbe4e677f3e2c575bU, 0xbf22b8553f4ee2b1U, 0xbcbafb6e3eabdbd3U, 0xbee3134abe936fb6U,
  0xbf25ea133eb630bfU, 0xbec3855a3ee4bc90U, 0xbe13bb403e9428c9U, 0xbf2e03833f2ad3c2U,
  0x3e730839bc65417cU, 0x3d3a9ac43f7ff45eU, 0x3e15f7bb3e1f74a7U, 0xbf0da310be2af017U,
  0xbddb5c25befbb67fU, 0x3e9a0a703e52181aU, 0xbfe5a1443eb535f0U, 0xbfaabdd53e1c9310U,
  0x3f2c39d6be79a3a4U, 0x3eee754b3f0d94bbU, 0x3eb63a01bed2032bU, 0xbea44f6f3f697796U,
  0x3eeaa91fbd63e9b1U, 0x3f45c7643e23568fU, 0x3e3362dbbe9e144dU, 0x3eac0b9cbd74a4a8U,
  0xbed3da6f3f8008e6U, 0x3ebcdd15be07c02aU, 0x3d0f2da83f8fe877U, 0x3f669feb3d75d19dU,
  0x3e8e681cbf82decfU, 0x3f9132703ee8ca91U, 0x3e1a636bbf6736e6U, 0x3f2ebbc6be013574U,
  0xbedf10cabeb62a1aU, 0xbd475df8bddc451dU, 0xbf4da2683e3e736bU, 0x3e4357f43f2b10d3U,
  0xbe8c7a95bf354c7dU, 0xbe9bbc0d3f1d89ebU, 0x3ec034e4bc9955d3U, 0xbf5f77ea3d2a507aU,
  0xbf7b98aa3f85df87U, 0xbe9dcccb3f2c11d9U, 0xbf19fb5b3eac0299U, 0x3e562d7f3ec951b1U,
  0x3e5bc976bea96fcbU, 0x3edf4c043db6b8c3U, 0xbfc55239bd47a719U, 0x3dcf1eeabf03df92U,
  0xbe293a673f9ef195U, 0xbe850f1e3f117005U, 0x3f02b05cbedd9d91U, 0xbf1f0ababf87d509U,
  0x3f66fb853e2a8fbfU, 0x3dd5f0cabc5f1111U, 0x3d7f520dbfc3534cU, 0xbee2619dbf758557U,
  0x3f33befabfab2523U, 0x3ed5abb0bf46c1caU, 0xbd1cb9a93f2eb37dU, 0xbe6212bd3ed3503cU,
  0xbdefeff83d0c89eeU, 0x3d0cde9d3e854838U, 0x3ed14643bd72129aU, 0x3f0256c1bd158fdeU,
  0x3e835f383e2c27ceU, 0xbe673e8c3da7cb4dU, 0xbe2806ad3e8a73d1U, 0xbeebc53e3e4d4961U,
  0x3d88cada3cb3e08cU, 0x3df1f2933de74a55U, 0x3e662ce33ea63435U, 0x3bababcb3eb59f85U,
  0xbe11c35f3e92dc14U, 0x3e8e21463e760319U, 0x3e3446bc3b432736U, 0xbed30b14be021827U,
  0xbedc2ca03e00a2efU, 0xbe08725d3c98469dU, 0xbe39c832bd2f5180U, 0x3e023f853e793755U,
  0x3f0d2fd53e9ff5a9U, 0x3d27d8293decd342U, 0xbe40434f3e1c7d0fU, 0x3db706c83e47df00U,
  0x3d99542d3df498caU, 0x3e2cb80cbd258554U, 0xbea1d4663e06e544U, 0xbd90a6823f636630U,
  0x3c99c8423ec66102U, 0xbe12c394be8cb6f8U, 0x3c3005bcbd555906U, 0x3d8adbf5bd522b8fU,
  0x3e62fa04be142dc0U, 0xbe792a123d66601aU, 0xbe0cec0b3e591767U, 0x3ee865d9be543b35U,
  0x3c983045be86a834U, 0x3e4c0e0b3e4d1035U, 0xbebde5783a41571dU, 0xbd7986ab3c8ae07dU,
  0x3ea497cc3e14b90dU, 0xbe3f04a6bcb39a3cU, 0xbd94bbbfbd89d1deU, 0x3d1bac09be21f01dU,
  0x3d5b93793e809163U, 0xbe6c06173e275925U, 0xbe9484e8bf09c207U, 0xbd3142a23e4e9a3eU,
  0x3d97c5c0bd43bb14U, 0xbe26138dbe8d8f67U, 0x3f8ef5df3faa9f48U, 0xbeb489ecbd98b9bbU,
  0xbefa77afbfc9d9b8U, 0xbe55adfd3f9a803dU, 0x3fbd4670bf5267d4U, 0x3f12751ebfa19c68U,
  0xbfaaa2d23f189845U, 0x3d697327bf082e63U, 0x3eced042bf14aa7cU, 0x3ea86f9cbecc3045U,
  0x3e6591b1bf40663aU, 0xbf087bd83fc45bb3U, 0xbe21150c3fc5425fU, 0x3c95c2343d79cca6U,
  0x3f5d2b06bf946e2eU, 0xbfbffbfb3f395876U, 0xbf44696ebea30aacU, 0xbf3a499ebe4bf84eU,
  0x3ea121263f534553U, 0xbf1dc0c9bed1d25fU, 0x4016eb4a3f182703U, 0xbdc419f23f6c1b12U,
  0xbf1bb6143e908ba0U, 0x3e732ffb3f70d68bU, 0x3e954f6e3f979386U, 0x3f523c123ea5d439U,
  0x3ee3517c3ef6fb7fU, 0x3f49b125bdf14a14U, 0xbf47a06fbfa47606U, 0x3f068c7bbe40d82cU,
  0x3fb4c7513e8cac1cU, 0x3f77001ebecc1b20U, 0x3f6506813d8203a7U, 0xbe4869bdbf93f2dcU,
  0x3fc9b7b73f748837U, 0xbe72650c3c1da3c5U, 0x3eebb0843f22d3f4U, 0x3f70cdd83f19346dU,
  0xbecd47f13d076675U, 0x3e0af02e3e4d1fd2U, 0xbfeb13b13fdcc8a2U, 0x3dbe30f43f470bb9U,
  0xbf0df0b9bf18f7bcU, 0xbe9fe6793e07985cU, 0x3cfcc52e3f9a21efU, 0x3eff3d7b3f7dd328U,
  0x3e8b1612bdeecc1aU, 0x3fb85d343f3028dfU, 0xbe441fd7bedf9097U, 0x3dc8a4b8bebae24cU,
  0xbf4300f73da6465dU, 0xbd4a62343ea66ec9U, 0xbedc630d3dfd4ef0U, 0x3d6b6c003e662214U,
  0xbe90616b3e3c6b90U, 0x3f1c0da73d3b7217U, 0xbea1dadbbe014143U, 0x3ecff9203dec93d3U,
  0xbe62eefd3ee80bbdU, 0xbe9475933d1ca088U, 0xbeb66a1c3e447debU, 0xbc07ba00be0170cbU,
  0x3ed2ebcdbe358da6U, 0x3dad9c6a3e584c59U, 0xbe1e3163be86b03dU, 0x3b32a98f3ef6090fU,
  0xbeefc199bf0ac203U, 0x3e4d1cc2beedaa53U, 0xbe7b6c3f3db6a9caU, 0xbe88b73dbe36f5d6U,
  0xbea324093e9093c5U, 0x3e00acbe3e3204dbU, 0x3df1d6b7be5ca4c3U, 0x3d41d00bbe9293e0U,
  0xbedeec473d39dd79U, 0xbf68cbd73e88c8a5U, 0x3eeea9c0bc72b5b1U, 0xbcdabe93bf1e00f6U,
  0xbe278a9a3cef102bU, 0xbced0df3bdf21f22U, 0x3e3ae46dbdbf6999U, 0x3f63fd2c3e49d819U,
  0x3e7689ed3e242360U, 0xbe4aa7fcbecb0979U, 0xbee1493cbe83e968U, 0xbea8139cbd6d51eeU,
  0x3ec8ce513ec7be4eU, 0x3e81ddddbe9f5018U, 0x3f0a3ec0be5a8f09U, 0x3e4131b3be0d9e4dU,
  0xbec66077bf0f0397U, 0x3e1576463d654effU, 0xbe666a41bd3a8abeU, 0x3e5b2a5cbd7b0e0bU,
  0xbdb152abbf847f30U, 0xbd92079d3d10bcafU, 0xbe12780b3eefef15U, 0x3f2fd5c83e970860U,
  0x3befd675be869af9U, 0xbf21e487be357ccdU, 0xbe38812e3ec3d001U, 0xbebb1339bf81fbccU,
  0x3f5b2c313d256f5fU, 0xbe4818e9be898984U, 0x3eb777adbefaee68U, 0x3f1ef3a03f707f51U,
  0x3f2ba512bec86b68U, 0x3f19b21dbf8feb69U, 0xbc6f23823fa34fcdU, 0x3f0685d6bf504184U,
  0x3fa6e9863f2106d8U, 0xbeacb201be0be143U, 0x3fb8f19cbe17e905U, 0xbdc2fb66be078d8cU,
  0x3e171beabf56bdb3U, 0xbe16d414bdaacc88U, 0x3ddd22ca3ee9a885U, 0xbfb74d5e3eb50d18U,
  0x3f83a38cbf78ed02U, 0x3f2548253f125bf5U, 0x3d3609e1bedfd4e4U, 0x3eea456ebf34da3bU,
  0x3e82347c3f3b70f0U, 0x3e85649abea583ccU, 0x3f4125633f1a6137U, 0x3f9822e6bf86f4d2U,
  0xbec79430bf7b5832U, 0x3ec12f2abf4b64afU, 0x3e76a2a13f99979fU, 0xbe0667dbbf97f2e2U,
  0xbe6838123edc88a8U, 0x3f13919c3e98438bU, 0xbd0589bc3d5d9e4aU, 0x3f3333323f7b4a85U,
  0x3fe769173f43fefcU, 0x3f524e833fafbc62U, 0xbf4edc5bbf1d8f88U, 0x3ec7735a3ed899e0U,
  0xbde0f3de3d8e47caU, 0x3e90524d3f8e1285U, 0xbe709fb53f8bc2d3U, 0xbf2613c03e53049aU,
  0xbf04ec29beb91603U, 0xbe43c4bd3fab0aaeU, 0xbe944932bff70164U, 0xbe2e8700bf063526U,
  0x3f66beae3d864a83U, 0xbfa44735becb4d7bU, 0x3fa3c63b3e397ad2U, 0xbe39ddd83f237a65U,
  0x3dca332d3f928b45U, 0xbf1345653da55816U, 0x3d81b8943e47656bU, 0x3df1226e3f97f636U,
  0xbfac70d13f67ae68U, 0x3f8b47cbbe99cc15U, 0x3e8c8060bd01e12dU, 0x3fd3d0c73e43f8feU,
  0xc000e24c3f9e12d7U, 0xbeff241fbf0b844eU, 0x3f495a32be8f9706U, 0xbf728ab53f93cd59U,
  0x3f651758bf5ed8e7U, 0x3e6ce7023edc4f4eU, 0x3e3b7cecbf57a4b5U, 0x3e80ff3a3f196da6U,
  0x3f2506e9bf29ddbcU, 0xbe9f6663bf9cf0f6U, 0xbecbb0dfbf3a72f8U, 0x3e8bdffb3ec40a44U,
  0x3fe3d951bf8772bfU, 0xbeeae0e1bf104e11U, 0x3e322f0f3e9885cdU, 0x3e1bef90bf119420U,
  0x3e720f13bea4a440U, 0x3f86526ebe87845bU, 0xbfdb4fa9bcfc0f5eU, 0xbf08e3d8bf89a349U,
  0xbf0853483e30842bU, 0xbe23af8d3ef3b522U, 0x3ed45864bf3e8bc7U, 0xbcd78a423f008d54U,
  0xbea3c2c4bf8be031U, 0x3fc2503dbd4b7726U, 0xbdb6f36bbd34ad56U, 0xbf4736cabeb0c04fU,
  0x3f17bf82bf2eb154U, 0xbfb2c4113f28ec7cU, 0xbf1ebcaf40109041U, 0x3e1abd6e3dc68fa5U,
  0x3ce5e6e2bf6ed19fU, 0x3cf35f95be79fc31U, 0x3f1251113f2fcbe9U, 0x3f08ec173e32fcf0U,
  0xbf8e0903c012c7f4U, 0x3eaaec9dbfa72674U, 0x3e2390403fbbd73bU, 0x3ef591753f6cfef6U,
  0xbecf04a5bc192234U, 0xbe2c2bb43f8a5f5aU, 0xbefa1b073f7d04edU, 0xbf71f2ba3ebc8d10U,
  0x3f633e92bfd5ebdaU, 0x3ec7b45b3f67d6e6U, 0x3f3366bd3dc491e9U, 0xbfa90ed8bf84c7feU,
  0xbe9947cdbdd89535U, 0x3e83a9483efe721eU, 0x3ee83b60bfd08d55U, 0xbebfe3643e8a40daU,
  0x3f414a8cbe96f78dU, 0x3db95157bbd72c21U, 0x3db59a2a3f51e1b7U, 0x3ef8cdb03e100854U,
  0x3d28a313be21bff1U, 0xbea3f3883ea5b097U, 0x3ee5c7833f7a0fbaU, 0x3eb0f22abe9b715aU,
  0x3ed8be60bdabb929U, 0x3eaa5d39bef81d35U, 0xbedd8eb63ea80708U, 0x3ce78a503d966dbdU,
  0xbf04f0fcbe16868eU, 0x3f353efc3ed8de27U, 0xbf8146a4be26e231U, 0xbc033da5bf288260U,
  0x3fca8133beacd2aeU, 0x3f15ec4c3c5261f7U, 0xbee29234bf2073e8U, 0xbcb25a833ebe5819U,
  0x3f59200a3f37824eU, 0x3f4553963eb34bb3U, 0x3f0309143e9a5da2U, 0xbec756b8bf3ee376U,
  0x3e71fa4e3ec7f27bU, 0x3f47355cbfae64d5U, 0xbf3971213e1b6730U, 0x3ff20de4be6540b8U,
  0xbf86ad8c3d6a2d56U, 0xbad430cf3d1f52ffU, 0xbf00c8123ee79bebU, 0xbe123aa3bf50574cU,
  0x3d5d80ecbee915c8U, 0x3f11a161ba7abfbcU, 0x3f2530bcbefe802eU, 0xbd1b4a4e3ec3ad02U,
  0x3f7915debf798e61U, 0x3fed8c2bbf34e8e4U, 0x3f97942c3dfab3f3U, 0x3e210dd9bf0ed9cbU,
  0x3f33833d3f2fd8c2U, 0xbd3ac9dfbe8913ceU, 0xbf541331bf6900bbU, 0xbf21ee093ee53df2U,
  0xbf1e9cd4be2c3163U, 0x3ecf7f1b3f21c266U, 0xbf5136fb3e8ff8efU, 0x3eb43bb53e42fbd2U,
  0xbe7e5db3bcac2f99U, 0xbe5beca53eac5037U, 0x3e034959bf52c70dU, 0x3f700efc3f5f2977U,
  0xbe23cc933f539505U, 0x3e67e76dbee48d8eU, 0xbe4734763f73d08eU, 0xbd940d743e8bc17fU,
  0xbf5faae93f1b92bcU, 0x3e404a44be8cf30bU, 0x3d85a4d6bf3b333cU, 0xbf452669bf19287cU,
  0x3f5b21dcbc8d61caU, 0x3f4f08b43f48520bU, 0xbe30b038bf279507U, 0xbedffd1abef06f7aU,
  0xbe025c103f906e67U, 0x3e1ecb663f86424fU, 0xbcfe60213de20456U, 0x3ec492ab3f61a8c0U,
  0xbded60d13d1983bdU, 0xbe1134f13e67975eU, 0x3edbec1d3e4b5d22U, 0x3ebd61003e41a144U,
  0xbf43447a3f8bf7b5U, 0xbd672329bf0ea012U, 0xbe8ed7843ec3df59U, 0xbe8a88cd3f5dea20U,
  0xbff0229f3f5659c8U, 0x3f202c2d3d7879c8U, 0x3fc5f01c3ebc4191U, 0xbb514ce8bd870e11U,
  0xbf1f8bc5bebac5d5U, 0xbeab64eebeec331fU, 0x3efa80943edcab59U, 0x3c56a482be309d50U,
  0x3f16c6cfbebc2af9U, 0x3ec014023b9017ddU, 0x3f3113203ef67a6cU, 0x3f8bc4f43f471653U,
  0xbdd9ae77bda826c7U, 0xbeee1d02bee5ac41U, 0x3f6e8d873aa3049aU, 0xbf3e5e25bf8c9030U,
  0x3fbdd813bf27eddbU, 0x3ea3eae4bf1143b1U, 0x3be903f2bf93e83dU, 0x3ec72b89beb9c14bU,
  0x3ebf4e423e95a9eaU, 0xbe8d7151bf5ccfd2U, 0x3f966348be22e35eU, 0x3eac7b19bf88e324U,
  0x3df128713ef6be59U, 0xbda4b99cbf3e03f3U, 0x3eea535d3f82be00U, 0xbe7a3d8dbe883aceU,
  0x3f2b5334bee18396U, 0xbfa506113e326948U, 0x3e4f77e73eaf5340U, 0xbfbfcad63f734fa6U,
  0x3f48322f3e9028abU, 0x3f61b6f33d16d084U, 0xbf8f5ada3e5cd63fU, 0xbf114b1fbe84b2e3U,
  0x3ee3866d3f3c8820U, 0x3f0abdab3f8e09c5U, 0xbe9a68023f3a9956U, 0x3f4e2264beeac479U,
  0x3edb5939bf1a4a5dU, 0x3edff4b9bf96e935U, 0x3ea74475bf62cb84U, 0x3efd855dbf4ff4e5U,
  0x3b64cdb83f3e6a6bU, 0x3f874122bf2196d8U, 0x3fb72907be53c84aU, 0xbe93f9d03c91755dU,
  0x3ffc3cd23e9a74ceU, 0x3e801178bf5d53bcU, 0xbf875ecd3ea46056U, 0x3ef64c72bea0917aU,
  0xbee9ca2f3e81035bU, 0xbe00b38e3e9f229cU, 0xbf6325903fc52820U, 0x3e6d3bb83f3a9d09U,
  0xbf5ccab6bf8bba90U, 0xbf3f07b93fa25517U, 0xbe4eed59bf6430eaU, 0xbea2909b3f5690c4U,
  0x3ea33c98bfbc69bbU, 0xbeb17fffbfbeac89U, 0x3f5234633e81fe51U, 0x3f3a34833eb3560eU,
  0xbf86d2cdbeaad968U, 0x3f7ee8203ee3cf23U, 0xbee768193c0122fbU, 0x3ed72eb73f8c46b5U,
  0x3f3180643fe8758cU, 0x3f42dd843ed65fbaU, 0xbe9b5048bdd383f2U, 0x3c25d7ba3e2d80b7U,
  0x3dd836263da2f260U, 0x3d1e5fdf3f582384U, 0xc00c6bbb3e5160b5U, 0xbe1d5741bcbf4993U,
  0xbedce700bd49e946U, 0x3f8b4bf33f319a24U, 0xbf03aa89bf1b94ccU, 0x3e994ab23f5a43daU,
  0xbfb0a61abf814e6eU, 0x3f131bacbea5ba52U, 0xbf8e4b3fbf2c38c8U, 0xbe48176f3f2d9549U,
  0xbe0a2de9be8a1158U, 0xbdc58f233e5285aaU, 0xbd3ba916bfb78c90U, 0xbef7b6393e41f226U,
  0x3f5d8b41befc3b87U, 0xbedd2e04bf714cf8U, 0xbf4074edbe2e36f2U, 0xbf4f9b38bf044c68U,
  0x3f0c3d33bfb24d15U, 0xbe4c16423fb77ac1U, 0x3fdd5d5dbf6154d5U, 0xbe9b443c3f19b208U,
  0x3d5330e4bea53bfdU, 0xbe5e56f2be5f8d09U, 0xbea8a9c2bfac25faU, 0xbf47d738bd3d5de4U,
  0x3e3aea793e9edb10U, 0x3f4962263f2646d8U, 0xbf1ce38f3ee32813U, 0xbe37fd693f1aadf9U,
  0x3f016109bd4b7225U, 0xbef0c168be602e11U, 0x3eb585a33f113b6fU, 0x3dd0bd06bf55c177U,
  0xbf30b2c9be21b86dU, 0xbdc2f27c3ed96bfdU, 0x3e200043bf0321d8U, 0x3fc647623f70c2bbU,
  0x3ffd8d893ebc58e2U, 0xbec4e7513f44f478U, 0x3e8c38d03eeb8a2dU, 0x3e72e9c0bec2abddU,
  0xbf8bafc43d8596c5U, 0x3f11fe5d3dcc913aU, 0xbf995be8bdd00c5aU, 0x3fa13049bf590877U,
  0x3eeeae7c3e524f53U, 0x3ec12941bf9da3cfU, 0x3ec359ea3f38f414U, 0x3e843540bf1bfe1cU,
  0xbe17863f3f078a8aU, 0xbf7b6f81bed7caf7U, 0xbef7895ebe09287cU, 0x3e9698193e62f61bU,
  0x3f25406abfc7ad06U, 0xbf8c8ac03f1d98b4U, 0xbfc31199bf6e33d8U, 0xbfe0a13bbd464c5bU,
  0x3f037f1f3f48d00fU, 0x3e5d0fab3d96f216U, 0x3f0d1a703ea95389U, 0xbe92d062bf14fa8fU,
  0x3f1fb5de3f079b13U, 0x3e2590e53fd33350U, 0xbf6199343f68d7e3U, 0xbf5aa1163f69975cU,
  0xbe8a13b8bef0f79dU, 0x3f0cc981bf49f962U, 0x3f6160ccbf64197aU, 0x3f246268beaa86b1U,
  0x3ef279febe6fdc76U, 0x3f870db7bf6390adU, 0x3e502f95bd812211U, 0xbe01dabf3f124bcfU,
  0x3f5dbe86bee6c831U, 0xbeaf513fbda5ab27U, 0x3f1c437f3d95f3faU, 0xbe7e82cbbba16c27U,
  0x3f1b4539beaa1b60U, 0x3f257f5a3f8c8348U, 0xbf9bf46dbe99683bU, 0xbee452dd3dd70320U,
  0xbf5af8e1bf69af7aU, 0xbef447e03f41c347U, 0xbf8a28813ddac2a1U, 0xbd991bbe3f0bd6d2U,
  0x3ea8b1353fb92017U, 0xbf5efc56be2b992bU, 0xbf208849bd70617eU, 0xbe21f2e13edae7a7U,
  0xbc3e78113f36ad87U, 0x3e6999c63f4f3789U, 0xbf32eb6cbcc8296fU, 0x3f8ef4c43f703c5cU,
  0xbe33dca53f6a188eU, 0x3ea66a74be8993ccU, 0x3f17aadc3df84b4cU, 0xbee1f2383ec17df6U,
  0x3ed5ad343eea4c1fU, 0x3f2f4a103f8fd053U, 0xbe08490a3f417132U, 0xbec88c803ee99929U,
  0xbef3f421bf1e59a6U, 0x3f7996473f4f9a28U, 0xbf33e0c9be882d41U, 0x3f9f439ebe17dbd7U,
  0xbf46a8a5bdf9afbeU, 0x3f94ac9fbf75b200U, 0xbce71273bf02ffdfU, 0xbe9cd66d3f85c0eeU,
  0x3e9d72883cded792U, 0x3f25afafbf72023eU, 0xbe9756313e90830dU, 0xbe438a8ebf050871U,
  0x3f7eed31be095f61U, 0xbf7309b43e5766b5U, 0xbe83649fbf8e2502U, 0x3e0763913cb026cdU,
  0x3f167651bed5cd13U, 0xbeb376373fb3e636U, 0xbf4049c3bec444fcU, 0xbd0e16993e3ade0bU,
  0xbf919b68be37ea0fU, 0x3f40f88f3f87edf2U, 0xbdd776cabe685833U, 0x3fbf8cb93ede389eU,
  0xbfc2b99dbfb09fbfU, 0xbe8fef3c3e8796bcU, 0x3e662a193d90cd80U, 0x3e409ca43effd34fU,
  0x3f52978bbf20f788U, 0xbf896517bf39963aU, 0x3ddd1241be5b841cU, 0x3f4585b0bec7004aU,
  0xbf0a337e3ea56b52U, 0xbebf6226bf0c87bcU, 0xbe262406bf775352U, 0xbee05f673f7472e0U,
  0xbfad43dfbe93e765U, 0xbafa9cf63f366819U, 0x3f80ae3c3f03f245U, 0xbe3fda323ebe6a8dU,
  0xbeb38ee43e5dbcb8U, 0x3e95e1353edb7a39U, 0x3e80010b3f029b20U, 0x3f456d373fbea827U,
  0x3f09e872bf0a67cfU, 0x3f1fd2c7bc7ecafbU, 0xbed3ca033fa7f056U, 0x3e4d1d93bdb6e6bcU,
  0x3f85b265bf1ec8cbU, 0xbf75153f3ec939afU, 0x3e41dd20bee4591aU, 0x3eb8bfde3ed89fd7U,
  0xbe6ea75abf994ecaU, 0x3faf070cbfa7bc58U, 0x3e92db32bf1c9252U, 0xbef7098bbf3631e0U,
  0x3e8cb9cfbe9e7bc4U, 0x3c879a403e211af9U, 0x3e43fc0bbe8d348aU, 0x3f19c06ebf2b246fU,
  0x3e51ee933f9696dcU, 0xbea8db1ebf8cb81eU, 0x3fd82fbf3e8a6e10U, 0x3f20707d3e60a476U,
  0xbefa0e803cf647fbU, 0xbe11d549be00d600U, 0xbe58bf583fd163f2U, 0xbe9a5586bf945a62U,
  0x3e88042cbda9c859U, 0xbf27437cbed8d56aU, 0x3e06d833bd0ff580U, 0x3fb3cc8d3f2e5b95U,
  0xbc2cbc313de08257U, 0x3e12dd4c3eafef68U, 0x3ecf2c46bf885f03U, 0xbf9c63043f243cd2U,
  0x3f000eddbea7567aU, 0x3db9a2a93e82f53cU, 0xbe9d0d813f396c56U, 0xbea23756be0625bdU,
  0x3e862d5e3e85de8cU, 0x3d9df6eabc6fd29aU, 0xbe7f569bbee00273U, 0xbed4fce4bfa20893U,
  0xbe19d184bff99cf9U, 0xbeeb4b9e3ea5db42U, 0xbf61b1b8bef52856U, 0xbf74d8e93ed569cdU,
  0xbebabdc0be26c12fU, 0x3f29312bbec7d809U, 0xbf1cac383e925c5fU, 0x3e0c97bcbf351f54U,
  0xc002d4b93e8047daU, 0x3fce5dba3e9886deU, 0x3f7dce90bec6fc1dU, 0x3f558699beef3f87U,
  0xbfa4bd473fc9c869U, 0x3e60d4aebedccbc7U, 0xbfa1cabbbaf66a0eU, 0xbf0cbfe3bf67246fU,
  0xbf17a8a6bf074cb6U, 0xbd05ec01bef97029U, 0xbe8d47763cd88759U, 0x3f62f7813e0debbbU,
  0x3e6bd72ebf2b9a22U, 0xbe6db540bf05c6ddU, 0x3e83e5933e5753c1U, 0x3ee905a83faea51aU,
  0xbf84602dbfafbfd4U, 0xbe00bad8bfadf481U, 0x3d9b4d5ebcacc31fU, 0x3e0624933e572550U,
  0xbe9a6f833e6cb1e5U, 0xbf8b6ceebedc7ae9U, 0xbe6d1d323e82f447U, 0x3f28b7fa3b9b7baaU,
  0x3f3cbb31bea4f62eU, 0x3d70e6c93f1b9a6bU, 0xbee7faf6bf97f81eU, 0xbf0043c03de8279aU,
  0xbf7e4c68bed97a09U, 0x3fa492393f8711b1U, 0x3dc061f2bf0d025dU, 0x3e23f7593f580523U,
  0x3d33c6d7bf75a394U, 0x3f398e4f3e0825a8U, 0x3fa8d3b93e05b0ccU, 0x3f8217bdbdeebc26U,
  0xbd8936043e34924bU, 0x3e8992c6bef572ffU, 0x3ea0c8753eb9a780U, 0xbdf295a63f268d9eU,
  0xbf81fd7dbebdd368U, 0x3eadb054be4b90b4U, 0x3e0fb07f3fad42dfU, 0xbf6f921e3d2ddadaU,
  0x3ed5b416bde0240cU, 0x3fa36a293f57c947U, 0xba290272bffb3470U, 0x3de665f9bf11d8f8U,
  0xbed0a6473f6f6b22U, 0xbfb59157bfc2f016U, 0x3f5edc5f3ea49c0dU, 0xbfa3e9423f9a766eU,
  0xbd870547bf5abe7aU, 0x3f0aff1c3eacc76eU, 0x3f56f7893e81d2c3U, 0x3c9e95913ef91e13U,
  0xbe039359bebac646U, 0x3fbdea59bf0b63e2U, 0x3f4d4c76bf2b483fU, 0x3cac52e3bf348394U,
  0xbfaa7ea33fb4cf66U, 0x3f9ab67dbf18de9cU, 0xbf75614c3f68190dU, 0xbf676e4a3f606b34U,
  0xbeb8aa0abf8b3d80U, 0x3d53686ebfbd6a64U, 0xbf0033103d8789cdU, 0x3f686b903d6e44a4U,
  0x3e389753bc93261fU, 0xbf39dbe2bf49af46U, 0xbf8c98f23f0644c0U, 0x3f35bd153f89a166U,
  0x3cd7f961bf607fe3U, 0xbf87b9813ecdb3b3U, 0x3f1230413f43d4efU, 0xbea7cc60bf95b4f5U,
  0xbf344fa03f7f0cd0U, 0x3e1eb7693f4dcd54U, 0x3e3221543fd85b36U, 0xbf88fdacbf12e1d1U,
  0xbfc194fabe49bfd6U, 0xbf07eab1bffb227fU, 0x3e4d65e43f6459faU, 0xbec5b85dbf96f2beU,
  0x3ffabd7a3f867924U, 0xbee82b6ebebeb616U, 0x3eb47ef1be0eceb1U, 0xbdd2f4ba3f1a36faU,
  0x3e9bec5b3f074cc6U, 0xbde4d69cbf0de9dfU, 0x3f07e4dbbfaeec41U, 0xbf4bce81bf368191U,
  0x3f3903b8bf5fb15fU, 0xbf06ed9fbfb6084aU, 0xbe623ccf3f353624U, 0xbf19fe1d3dacb73fU,
  0xbf296dc53f4e6b2bU, 0xbf423b293e5c0087U, 0xbed0ba74bfc2a37aU, 0x400e73e53fa56b83U,
  0xbf2bfde3bf3c9c44U, 0xbcacbbf13efa8354U, 0x3e98ccd93f15e58dU, 0xbe86bf6cbf15b403U,
  0x3f57fb843f1a6d7dU, 0x3ec065d03f5170d4U, 0x3ed6e2fa3f89202aU, 0xbe89f7ef3f996319U,
  0xbd136fa23fb0069cU, 0x3f263ae83f82cfbcU, 0x3e8a390c3e2d2b24U, 0xbe8719393f716c46U,
  0xbd9025843f0bd1daU, 0xbf6bc2a13f0747f8U, 0x3f1b1e6f3f294238U, 0xbcf20d513ff8f4c2U,
  0x3f5f92403ca7d9efU, 0x3f3f7ffe3f4ca953U, 0xbfa7a6cebd595547U, 0x3f1e1ff73f24b1a8U,
  0xbf0985103f673cbbU, 0xbfedec20be3c4314U, 0x3cf81704bef0b896U, 0xbe5bc3ce3dbab05cU,
  0x3eef04103e7086d6U, 0xbf396b8ebe2eaf4eU, 0xbf45ce583f88639fU, 0xbdd319dd3ebda670U,
  0xbf580637bfb9288fU, 0xbf172bd33f3d4452U, 0x402633593ec892f9U, 0x3f544332bdc06f6eU,
  0xbf20075cbe059aa0U, 0x3f4b39d03f3c2ab2U, 0xbfadc73e3fba38c6U, 0xbf0e0d5cbefecb11U,
  0xbd8b5af6bffadad0U, 0xbfddef11bf883d77U, 0xbdebba4dbf137cf6U, 0xbecb1814be639736U,
  0xbf03520640025d2aU, 0x3dddbf1d3f64c0edU, 0x3e8d9617bf470737U, 0x3e0268973f1fde7cU,
  0xbf279a6a3ee28c06U, 0xbfcf37e63d98576cU, 0xbe8203e93f3ecafaU, 0x3f07dd133e99caf1U,
  0x3f6c872f3f008d0cU, 0x3f057d653d9e8cceU, 0xbdf48030bdce5616U, 0x3e8e8a153fc4e52eU,
  0x3f2456bc3e444777U, 0xbfb86722bed2218bU, 0xbf188db73f3a05c2U, 0x3e1153e7bf6a7b2dU,
  0x3e36b6ee3f3f3c68U, 0xbe98d8abbf5e8d33U, 0x3d934fd3bf77a471U, 0xbf283fdf3eeafeb6U,
  0x3f35f3f8bdc2031fU, 0xbf4124babeafba81U, 0x3f7af9dd3d92a802U, 0x3e53fa36bd95de3aU,
  0x3f0b8bc83d4224c4U, 0xbe1497b43f1fa4b9U, 0xbf9ced063ef9b19eU, 0xbf5f5620bf4fcb46U,
  0x3ed0c6cc3ecf9f43U, 0x3ea4442d3df22368U, 0x3f2780afbf0695d3U, 0xbdb29edabf2f72a0U,
  0x3f840d583eaadd89U, 0x3f1b2a963f1800a2U, 0xbf11c6493f56b165U, 0xbec4a2743f856c18U,
  0xbf4debccbf6feea2U, 0xbf01b996bf1e45dcU, 0xbf105ad5bf56c0e5U, 0xbeee20f03f80f88eU,
  0xbf763cc8bb1db226U, 0x3f32e1173f80c69aU, 0xbfb66bc1bf43848fU, 0x3d36082a3e707126U,
  0xbf83b722bf99d6b1U, 0x3e93cb41becf4146U, 0x3ea419b03f84adbeU, 0x3f926840bebb6471U,
  0xbf8f0320bd0adebbU, 0x3d57be3d3ef7a844U, 0x3e51db623f11b44fU, 0x3f5350c63e5e260eU,
  0xbf9aab833f0675bcU, 0xbfaa9b5bbdac8e5aU, 0x3f89482dbdd766d2U, 0x3e064080be5698edU,
  0x3efdc6f2bfc8638fU, 0x3ddad1b2bee9b6c0U, 0x3e80fef73f52e82bU, 0x3e312de4bf36b09bU,
  0x3f1ccce7bd4a3292U, 0x3d1392c73f952d08U, 0x3e3528863f59edddU, 0xbe5f8866be5d6d2eU,
  0x3d238b2f3f86251aU, 0x3e5f7b0bbf29d3f5U, 0xbea05f133e8519f2U, 0x3d4858103d1e912eU,
  0xbe65c034bd408c2fU, 0xbdbcb1913e3891faU, 0x3f2633d03ef88174U, 0xbead54103e9f430aU,
  0x3f861a72be86fe4dU, 0x3f0d48653f65962aU, 0xbec2ac903efd6150U, 0xbe893a9e3deb4e81U,
  0xbef39df3be2aada1U, 0xbef0b3543f0b9c96U, 0xbeb0a168beab725aU, 0xbaa3e5a53e6f216bU,
  0xbf8245f4bef0c675U, 0xbee28d643d087439U, 0xbf7f13803ec25b3dU, 0xbf6e3a143e92b6ebU,
  0x3e9bb4f13e211726U, 0x3c2c79823f90f78eU, 0x3e8c19abbd2af993U, 0xbf36d919bf2a49abU,
  0xbdb78fbabfa300d2U, 0xbe8de0133f04949aU, 0x3f90fb53bf3f98a7U, 0xbf550aa33dd530eaU,
  0x3f925cf33ed48f6eU, 0xbf3c554a3e1e1228U, 0xbf34039b3f3bca41U, 0xbde62340bf887f49U,
  0x3f24715b3f298efbU, 0xbe661e6a3d9ea76eU, 0x3cb343313e9a806fU, 0xbf3dcb383d7fe826U,
  0xbdfd4b3b401e6471U, 0x3e1c9a103f15fb3bU, 0xbf6146333ebc7b57U, 0xbf8ef7ee3e72c0ceU,
  0xbf2420693ecf3646U, 0xbfdb98d33eef9d1bU, 0x3deb31c03f8b7325U, 0x3e94f3cc3e8fe37eU,
  0x3f8963203eb0fceeU, 0xbf383fde3f430a27U, 0xbf96aad33e4d126bU, 0x3ede72de3fc8c374U,
  0xbe4f485d3e8ce321U, 0xbf81f478bf81ddeaU, 0xbfd8876c3f230e28U, 0xbd166e05bef21f85U,
  0x3da15870bed9b554U, 0xbeed1302bf8840d7U, 0x3ca15771bf4d8b37U, 0xbea9a8d43e909865U,
  0x3fba9259bf470db4U, 0xbf780e2dbc66d988U, 0x3ef43374bd8fc0cdU, 0x3e4f932abe382fa7U,
  0x3f15e9eebf325d8aU, 0xbf61997b3f1f143fU, 0xbfbbfb6cbec83940U, 0xbe05be72bd004c68U,
  0xbe292b56beec0109U, 0xbde2da21bf1919b7U, 0x3f232c0e3f7323bdU, 0x3eb70d65bd3d0d8aU,
  0xbeae46743f58f850U, 0xbe7cb4153f0aafcaU, 0xbf9c9be33f6ccc10U, 0xbf0bf0183ffadce6U,
  0xbf0dfff1bfc1d34dU, 0xbefadf583e3936e8U, 0x3f837f25be8c6a1bU, 0xbe51d91b3ecf9a13U,
  0xbf8e926d3ee019e8U, 0xbdea2b6e3fbb8d75U, 0xbeda069abe9f0432U, 0xbf9b69393f5fe6a9U,
  0x3f01ae7d3e457989U, 0x3ec5a803bfd9e31aU, 0x3e1a2f27bf143ffeU, 0x3fab8101bf7dcce9U,
  0xbf8d0a09bea1c272U, 0xbeb60a993f0409b0U, 0x3e18d149bcd4ca7cU, 0x3fb93b06bc723ad9U,
  0xbfa07bfb3e1f4b0cU, 0xbf3dd594be17426bU, 0x3ec281b1bcdf3d25U, 0xbedd455abeecc031U,
  0x3f0ead1f3f0bdfa9U, 0x3d334eff3e0a0515U, 0xbe0d4b0cbdd9c8acU, 0xbe3246b63eff8622U,
  0xbf596bb3be435929U, 0x3fc3b2693eebe04eU, 0xbe351bf8bd245d2eU, 0xbd8f51e2bf37e094U,
  0xbeeb9c343f8a8b27U, 0xb94134ecbf2a6834U, 0x3f74080bbde80d10U, 0xbe8baeaa3ede8107U,
  0x3f83b4d9bf09d67aU, 0x3efd56d53ea10ed0U, 0x3e63ff65be6a4e5cU, 0xbe2943b9bf062591U,
  0xbf1c137cbf0c99a7U, 0xbf3abc7dbebda19aU, 0x3ec285b4be590ef0U, 0xbf20d634be749cc4U,
  0x3e9c2b213f15f411U, 0x3f3c70a93ee2a78eU, 0xbdda41c43e92f13bU, 0xbe921e9cbf8185a7U,
  0x3ec13adb3f53e00fU, 0x3e7f4bc4be728796U, 0xbebe9b99be3f60ccU, 0x3de886da3f7e0861U,
  0x3e8ffb663f956752U, 0xbf0c70d8bf48e19eU, 0xbf795a9fbf2f5848U, 0x3f80f1debda79603U,
  0x3f0092ce3eceac23U, 0xbed5fd5c3e809684U, 0xbe9d1c923e422747U, 0xbf1b067bbe278086U,
  0xbfb671e73ecb7e2bU, 0xbf270779be56bedbU, 0x3e83c1233f638480U, 0x3e5de3c4bec95789U,
  0xbec7b08f3e1e90fcU, 0xbf32d3a3be637b98U, 0xbf1154c5bdd11718U, 0xbeac6a783d929965U,
  0x3e203404bf3ae81eU, 0x3ee11baa3d8a99beU, 0x3cf1a31fbdf337f3U, 0xbef313db3eba2feeU,
  0x3e85fa1ebdd06be9U, 0x3f6ee33ebf35e5fdU, 0x3f2707b13ed1dce6U, 0xbd93ef0abec9990cU,
  0xbf110d7cbf1499feU, 0xbf414e58bf10630dU, 0x3f3c5555becc4236U, 0xbd8820d43f080c8aU,
  0x3e6d84bfbec2bbd8U, 0x3fbfa697beb6e264U, 0x3ee17af33ea50d47U, 0xbe853235be3e871bU,
  0xbe53ba9abf6982eeU, 0x3ec9a0b63e0504fbU, 0x3f087367be974b75U, 0xbdf0085cbf50b401U,
  0xbf1235003e25cd63U, 0x3b9a57043eeacc6aU, 0x3e55ab693ed5935cU, 0xbf210537bec877a5U,
  0x3de1f3d03e8ee379U, 0x3f1536b4bf218cd3U, 0x3f2f7a8bbf2d4793U, 0x3e07bde7bee6e7a9U,
  0x3e20f8cc3e5d1e87U, 0xbbb1c46dbef7e9f6U, 0xbf8d3d52bd2ec92aU, 0xbd8a3d413f47e849U,
  0x3f413db9beb5a6b6U, 0x3f3dbcaebf8922beU, 0x3ad34e943d5e8be9U, 0x3f137c9f3dd4f3b4U,
  0xbded749d3e55fadcU, 0x3f412c0d3d60dbe0U, 0x3e622f87bd2a69f7U, 0x3e8bb891be67ea40U,
  0x3f15ae95be26479dU, 0xbe181165be0f6af3U, 0x3e4789753ed70a2fU, 0x3f1869c4bf2f67d0U,
  0xbf4467223e68d0cdU, 0x3eed83073f419914U, 0xbf47b123bd67ff29U, 0xbe87d93fbec2eba7U,
  0xbdd485ad3e14d4abU, 0x3dc6c0bfbe97a671U, 0x3eafca403ef73682U, 0xbf1214dcbf35d839U,
  0x3f88f4dc3f565754U, 0x3e97d647bec6b955U, 0x3f960271bda16f7aU, 0xbcce830cbe22ab28U,
  0xbe88d4883f1b48daU, 0xbd4d43253f239128U, 0xbe0105c23d30d5b5U, 0x3f773f0a3f53b178U,
  0xbf9a87053f5a5184U, 0x3f3ddd593fb379b8U, 0x3e95060bbf366537U, 0x3f0a5fd3beaa561aU,
  0xbf3fa2dc3f002fa1U, 0xbf01f65c3dd07e54U, 0x3e2ddf933eda8626U, 0xbe9fb4633f253989U,
  0x3f86cfc6bf18269aU, 0x3f3dbb6d3f3d90adU, 0xbe5dcb773e56be1fU, 0x3f6c9c7dbf80049aU,
  0xbf436bcbbe998097U, 0x3f6b574dbf1b2443U, 0xbe982904bcc79bfeU, 0x3dbe9fd2bdb49dc9U,
  0x3f378f4d3f0282b3U, 0x3f9425753eb0461cU, 0xbed95d603eaf1836U, 0x3dc84a10bf6ecb03U,
  0xbe20434f3e592f39U, 0xbf3a25b2bebc1f9cU, 0xbec35654bd281070U, 0xbf2e4fed3f76d642U,
  0xbee636403f7d0c0aU, 0xbf8999f63dc6ae0dU, 0xbf898491bf18992dU, 0x3e5338d13f979f76U,
  0x3f4145d4beb56bfbU, 0x3eac3ef23d86729eU, 0xbf08d918bef97d30U, 0xbf630a6dbdaee85fU,
  0x3f38d4a43e534d8cU, 0xbfda6ecc3ed95793U, 0xbc7bed0e3f97448fU, 0x3dced1683e725f43U,
  0x3dcdbe99be8c5198U, 0xbf72cf53bf33a608U, 0xbe4dfd9a3eb728d7U, 0xbd41d728bef10657U,
  0x3d1e6879bf3ce66eU, 0x3e46a008bf1dfb0bU, 0xbe7edc063fba4c5eU, 0x3e8038673f67e5f9U,
  0xbe833c6c3e0555c7U, 0xbeac2a013b9f975eU, 0x3f5e4f913e598835U, 0x3e15fbc53e2c1e7fU,
  0xbfd03e22bf00ac26U, 0x3f65139cbf4385ebU, 0x3fc995afbf4c93d7U, 0x3edc4cabbe4afe0aU,
  0xbdcabfb93daae260U, 0xbf0dfb543df7efc3U, 0x3f28830c3e28e789U, 0x3f6e18613f8920f8U,
  0x3e8b3e1fbe1b144dU, 0xbd27b19f3ffc7378U, 0xbf6ad4a73f4892deU, 0xbdfb1b8abe79eb42U,
  0xbe5dd2703f39de23U, 0x3e81ef44bdb91ea8U, 0xbf9616853dba4d75U, 0xbf6b76babe139f94U,
  0x3e839ad03f5ce3c0U, 0xbda5495a3f9987ebU, 0x402e440b3e836cc9U, 0x3f39662d3e8c8b92U,
  0xbf770ea13eb2f617U, 0x3e29b54a3eb32844U, 0x3f477fcc3f71f5c3U, 0x3e8acb193d74ad60U,
  0x3f0fdcf93f08bd0fU, 0x3ea3829f3f4cee61U, 0xbeb4ed65bee3db72U, 0xbe27db9d3e414949U,
  0xbd8074b83df3e2aeU, 0xbf591838bef09eb1U, 0xbfcd8c643dc3d231U, 0x3e1c3d343f2efb1bU,
  0x3f8890583f9a3a4eU, 0x3f9aee363f413bffU, 0x3f128794bf3e38b6U, 0x3d428dbe3eae0d31U,
  0x3f1f5779be9bd4dfU, 0x3dc6c12abdbaff7dU, 0xbee1fa86becada07U, 0xbf85801d3d9cd77aU,
  0x3dce2e5cbe3214d1U, 0x3d492fb2bf3bb081U, 0x3f3b8dcb3fdf8a39U, 0xbe5254253e2e5880U,
  0xbe089d553ed3b352U, 0xbf260d2e3f6d80f4U, 0x3e2b00aabf360533U, 0x3badf00a3ca600e0U,
  0x3f24813d3f873aabU, 0x3ecd775ebe48045dU, 0xbfddab93bf0341e9U, 0x3f5849ef3f78ee12U,
  0x3e35f5f93f81fe82U, 0x3f12a030bef78409U, 0xbf16e13a3ec64f53U, 0x3f4ff49f3e9d5792U,
  0x3e5e12a33fa732b5U, 0x3ea186043f29d064U, 0xc0048d33bce7f776U, 0xbd8d88673e9763e6U,
  0x3f07f2ed3da16da4U, 0x3f88eb833e788b99U, 0xbee9ccc03e83bd18U, 0xbece7bf53f9bbbf4U,
  0xbf4b879dbe75c833U, 0xbf88ba17bf09aa0aU, 0xbe17eefdbe9b63f1U, 0xbeb053e73f0747f5U,
  0x3fb7dd62bf6663f6U, 0x3d010a55be6bcd88U, 0xbe1c008bbf27af12U, 0xbbe762c23ea4fd8aU,
  0xbe81700a3f995a98U, 0xbfe411314030d791U, 0xbfbc72e9bf46cea9U, 0x3eac2e783eb34e66U,
  0x3f98f1fbbecd411cU, 0x3e859beebfa92a71U, 0x3f3bc9fb3b6930b0U, 0x3f2ee1f5bdeb4510U,
  0xbf92d745bf9def92U, 0x3f64dfc7bd69d951U, 0x3fc88e28bf74f2f9U, 0xbebc93d6bfd2ae10U,
  0x3fef77abbd3daff3U, 0x3f915cd03f2bb1faU, 0xc024a199403f27aaU, 0x3e35c1b43e3f4621U,
  0xbfc26c32bef19b6fU, 0xbf4bf10cbe0e495dU, 0x3f69e5303f2f4d34U, 0x3de407983e9f4ad2U,
  0xbedcb03cbf2360baU, 0x3f00d3453e7cecd3U, 0x3f77cf4c3f53f7dfU, 0x3f6102653f91d147U,
  0xbf87133c3e9be97aU, 0xbe0e2dea3ef62ee0U, 0xbeae39ed3d36834dU, 0x3ed966d8bc8558ccU,
  0xbd854732beb840f5U, 0xbee48e7a3eea6080U, 0xbf3edc673f1f3fd7U, 0xbebe09e43fb33ddfU,
  0xbf4e2457be272502U, 0x3eb0b58c3e5ddc94U, 0x3d64552b3f84a88dU, 0xbf2992a7bf0f5416U,
  0xbe306c2f3e1221cfU, 0x3f9d542cbda9c47aU, 0x3efa27fdbe942742U, 0x3f084d83be86338eU,
  0x3f0422973fc23e6aU, 0x3f4398c8be76b118U, 0xbc641cef3ee03565U, 0x3f542ba2bdef826eU,
  0xbed6d5d3bf884afbU, 0xbf56998abf5b8b87U, 0xbe2ba9533e61c7c3U, 0x3f6cbcd03fa3bc9aU,
  0xbf636016bea7df30U, 0xbe723b9fbfc6f3d4U, 0xbdf2857b3f100b50U, 0xbfa2b540bf0b7ac5U,
  0xbecde4163dc97c15U, 0xbf58a0214012a445U, 0x3eec96753fa1005aU, 0xbf819b123efc15fdU,
  0xbf4b31e2be82a86aU, 0x3f7a74d53fc234b6U, 0xbee3b7fe3e6babd9U, 0xbf9456b0bf5a14a2U,
  0xbfaff7c9bf5f125aU, 0xbfa66989bfe19e4eU, 0xbf42e0093fd181deU, 0xbf812e25bedd82e5U,
  0x3b93bf66401270abU, 0x3e563eb1bf281354U, 0x3f00f6273f60db6dU, 0xbeb943eebf8df807U,
  0xbc8a37db3f81f0f8U, 0xbf08d9c9bef45a44U, 0x3ee124acbf51e489U, 0x3efce32dbd212be9U,
  0x3f0d33173f8cf20fU, 0x3ed409813e43fa59U, 0xbf36f8b73f44c14aU, 0xbece4b47bee81fbcU,
  0x3da5a5d53ede7dbbU, 0xbea63e77bed02099U, 0x3c1cda36bf7366a6U, 0xbe9cf6253f5b0bc9U,
  0x3faa1d643ebf2f09U, 0xbd2370803f88eb87U, 0xbf2033da3e018bceU, 0xbe2995aebd6dc245U,
  0xbe82877b3ea99f26U, 0xbea859d3be532581U, 0x3c91b768bd4a6014U, 0x3e9431d4bf119463U,
  0x3ee12a793e91a013U, 0x3e9e1fdf3e536ea3U, 0x3ef66a83be537d85U, 0xbf38fd1fbe684b9cU,
  0x3e7578f43efd9fe9U, 0xbed94e423e8df461U, 0xbec6c160be01ef1eU, 0xbf08809d3ec39abfU,
  0xbe070f8cbf0dbbf0U, 0x3e33edd53f8274baU, 0xbe7f2c4abf1df281U, 0x3e42c390be87d663U,
  0xbec0cfd13f850d43U, 0x3e190784bed9f916U, 0xbeeaab77be0af2d2U, 0xbea4ed3b3f97757fU,
  0x3e0fc60dbf1c33b3U, 0xbebe44cbbf8fb074U, 0x3e1b6c9b3ebb4fe5U, 0x3f37e73a3ee4f9deU,
  0xbd477c70be5efcbfU, 0xbedf9fccbf361010U, 0x3dddd56cbf248898U, 0xbf24cd8cbe4035f4U,
  0xbe628b253f92a770U, 0x3f1a81d53eb3ada9U, 0xbf56613b3efd261eU, 0xbe159a423d7d302cU,
  0xbde850923f2bf52fU, 0xbead856f3df07fbdU, 0xbe15c984bd95faebU, 0xbeeb43a03f1845f0U,
  0x3e940358bee03549U, 0x3f6705513ec02523U, 0x3f28920b3efe26a2U, 0x3f98310a3c3a5a8fU,
  0x3f7855203f48aa80U, 0xbf0393d0bf176a3eU, 0x3e6c1f3d3f323a2aU, 0x3eee1708bdca282aU,
  0xbf0284a9be241c5bU, 0xbf6368a7bd0c1456U, 0xbef976513d196083U, 0x3f9777f13f31ecf7U,
  0xbd6af248bf3d9f61U, 0x3e327edfbf0fc4b9U, 0xbf64607a3f04a252U, 0xbdad730bbecdf712U,
  0xbfdf025ebf97419dU, 0x3d418929bf1152daU, 0xbf859019bebf6740U, 0xbd811ea0bf08168fU,
  0x3eedad24bf12f41dU, 0x3f0f348b3ed375b3U, 0xbeab50ccbcf4dc48U, 0xbf3fef8ebf0e948bU,
  0x3eb4c6b9bd9e2c9bU, 0xbefeb3b03e61a15cU, 0xbf12d828bf3cc8d1U, 0x3ee82a1fbedf77ecU,
  0x3e37f53ebf4603b1U, 0x3e901c37be699b69U, 0x3e73e9703f449affU, 0x3dc259bc3eaadd41U,
  0xbddb81a93e829834U, 0x3f10170a3f2e7a07U, 0x3e4e85cbbf850289U, 0xbe5237373fd86a43U,
  0x39ab1198bf85309dU, 0xbee82e713eb0a431U, 0xbe043a133e2d00a3U, 0x3e299edb3de094dcU,
  0xbcdc76033ea32ff8U, 0xbeaaf51b3faffc03U, 0x3e943bbfbe0d5326U, 0x3f9c683c3f23f911U,
  0x3f95d253bf256586U, 0x3f57e7abbf10e94aU, 0xbec12fca3f2744a6U, 0x3efcae91bc443179U,
  0x3d1e87723eb5b126U, 0xbdf62efc3f124bdeU, 0x3e156247bf81437dU, 0x3f50d664bde994a6U,
  0x3ef409fe3fc7ee30U, 0xbe93bf8b3f4f2108U, 0x3feb7cb6be933624U, 0x3e48202cbea02ee2U,
  0x3e938875bf70c121U, 0x3f83e3afbe126ad7U, 0xbf6e6afe3fa89c06U, 0xc0027b9fbf875eceU,
  0xbfc436b13eefdf61U, 0x3de67de43e9baa18U, 0xbe4d413b3ea5b3c3U, 0xbb8779313ec677e1U,
  0xbff41c0fbe648179U, 0xbe1c4a673e90f6ceU, 0xbf131ca5bf72c523U, 0x3f1e268bbe9e0d13U,
  0xbe45b8c4bf9c6809U, 0xbf2277ffbf25f1e3U, 0xbe75d0083f870888U, 0x3f4687023ecd2458U,
  0x3e9c065cbde7d540U, 0x3ea62b3dbe828254U, 0xbf44c376bfa3165aU, 0xbf5f04adbf2232abU,
  0x3ded8ec3bf710431U, 0xbe89f7b5bf013539U, 0x3f27864ebf7b8363U, 0xbf77a0e1bf8432bdU,
  0x3f50bb4f3d75edd8U, 0x3f35ee433fb4e338U, 0xbf790c533f61a9e9U, 0xbd3262cdbe8eb14cU,
  0xbf055288be4aa521U, 0x3ee535b43e5a3addU, 0x3eee023cbfa89d04U, 0xbf8ec56dbe95853aU,
  0xbf6aec643f625b4bU, 0x3f63eff9be4ba4abU, 0xbfe51b41be6fbe21U, 0xbf38d5d53f8cb8b0U,
  0x3e9132a9bea06d2fU, 0xbf83f7523e16a0daU, 0x3fcfa678badf5278U, 0x3e9a2d07bfad03f6U,
  0x3f2330aac021c3d2U, 0x3fb7b4f43b519ea2U, 0x3f4db2d13fd5db9fU, 0x3ca0c533be687699U,
  0xbe121615bf3a9383U, 0x3f502d42bf3158c1U, 0xbf3d065c40066a88U, 0xbd3f409e3f22adf2U,
  0xbfd5e8d0be440a6cU, 0xbe9cbdde3f4f3086U, 0xbef8686abf585195U, 0x3ee40d083ecdcc93U,
  0x3f146ae33fcbc82eU, 0xbf40062fbf65bfddU, 0xbf8eb8a3bb685a52U, 0xbe5aea7f3f6bbcf4U,
  0x3f6167febeb6900fU, 0x3d4d903cbeaa0db0U, 0xbf3222a03e8f69e2U, 0xbeebe648beac9d2bU,
  0xbe9368ea3dda7c27U, 0xbd965ababf1fe7faU, 0x3d3ffa16bfce3dadU, 0xbf484225bdf68208U,
  0x3ebd3a213e82a194U, 0x3e30dd78bf76a54bU, 0x3f47d091bed1846fU, 0x3f80c44b3dc3ef1bU,
  0xbe72a78abe88ad5bU, 0x3e65a3a8bebe858cU, 0xbf39b6993f053b0dU, 0xbf36388bbf0d74f4U,
  0x3ed908e83e5a2ecdU, 0xbe8452be3dbaa6f1U, 0x3e77d6bfbf834d3fU, 0x3d0e83d3bec753eaU,
  0xbef17e883f1ee80cU, 0xbf470d6d3eb1bee3U, 0xbf4199ec3f284724U, 0xbef3df563f9806f5U,
  0xbf8f7a59be9f5779U, 0xbffacbc13e1da96cU, 0xbe9104fdbf1edb13U, 0xbbfa8a963f5e8ee8U,
  0xbef80acf3e62013aU, 0xbf0122f3be543e0bU, 0x3fb0606dbeea161aU, 0xbf8e266bbdd1d2adU,
  0x3e13616a3efcd4edU, 0x3e8e227cbf223965U, 0x3fb90c8b3fbceb70U, 0x3f8f3bf9bd353acbU,
  0xbef737e13f1ad657U, 0x3e08ac92be0dcd94U, 0xbdcff105bf553874U, 0xbe55c2b2bf0a2cfeU,
  0xbf80a5d8bdb73a2aU, 0xbfea7cbbbdc4336fU, 0xbeac4711bd0f0a81U, 0xbe28aba23ea71e0fU,
  0xbf6184b7bebb82d3U, 0x3f4f399a3f5f68aeU, 0x3f28b82c3fa00790U, 0x3e98ee703e33c78bU,
  0x3f06cef03ee6ca23U, 0x3ffaf2bdbed5697dU, 0xbe051a90bf027a4fU, 0xbf6819c3bf2c70dcU,
  0x3e0b48de3ef3cec0U, 0xbe69cf15bf3b3ab2U, 0xbde48fecbebcc41aU, 0x3d4142e13e7e6550U,
  0xbf90bf83bedb4b06U, 0x3e597c633eed881fU, 0x3f0cd3e03ed76f61U, 0xbf0cdf8cbdaa377cU,
  0xbee35640bf5039fdU, 0xbfbb2436becbffa3U, 0xbeb2a65cbe8562b4U, 0xbef0c5f63ebf90ebU,
  0x3f90a9c53f3ef968U, 0xbed011403e3d5569U, 0xbe065408be002b62U, 0xbe962e243f76cfd3U,
  0x3f4684afbf037a7eU, 0xbe52981fbfca473dU, 0x3eb23c073f728ed3U, 0xbf783bfd3f8fdb42U,
  0xbf3eff2a3e71d360U, 0xbb4d470f3e896776U, 0x3f8750c9bf986185U, 0xbf356740be5a738fU,
  0x3fdaeb29beb1e282U, 0xbf7d00c0be5c38bbU, 0xc0021e393c81fd33U, 0xbe87aa84bf1ba736U,
  0x3fa35e173d8224b5U, 0xbc790378bd85dc3dU, 0x3f37a16c3f29695fU, 0x3e122448bf930d75U,
  0x3dba92a7bfbb847dU, 0x3ef3f9eabeb15f2fU, 0xbf749f303ce4b0deU, 0x3e578bbbbf5e50f3U,
  0x3f6dfdf53f38a032U, 0x3eeb010d3e84413dU, 0xbf8858113f090edaU, 0x3e51ba343eed6a9eU,
  0x403f877bbe91e317U, 0xbe6e56f7bf3688b3U, 0x3fb53b89bf42e66eU, 0xbf6b34383f0a5885U,
  0xbe25cdb03e726551U, 0x3edbd34ebf67caa4U, 0xbeb6e2cd3ea76ef2U, 0x3e6994533e19d498U,
  0xbeca7d5ebf6870afU, 0xbf510e193eaba29cU, 0xbb0139143e72cb51U, 0x3eaa3462bf99d8e5U,
  0xbe000591bdb8d7d3U, 0xbe905632bdba3bbcU, 0xbf5ba4fb3ef3ae88U, 0x3f35a0a6be9397e6U,
  0x3f5a389a3faccf7dU, 0xbf00146bbed635cfU, 0xbf28a4013f86fe7bU, 0x3f5376e13fd5eb27U,
  0x3fb4a21c3f951831U, 0x3ec721f4bdc4b6f8U, 0xbf82b2b2bf3aa3bbU, 0x3fa569513dbbd2e8U,
  0xbf0663e73e8d1af7U, 0x3edf2e703f98744bU, 0xbd3721933e9ac917U, 0xbc598d2dbda867ceU,
  0x3d1645973d2d2cbdU, 0x3de8848ebc89d66dU, 0xbc9ecaf73d6f18a6U, 0xbd8569a43e1200ceU,
  0x3e003e23bd8e17d2U, 0x3d169b243d0cec22U, 0x3e51cc52bad58bdcU, 0xbe13cecebcab554cU,
  0xbe315bdcbe2b4964U, 0xbda370bcbc01cb57U, 0x3d8b70753e17387eU, 0x3d839fce3cbbcf5fU,
  0xbc10c66f3d4d3570U, 0xbc953073bdb4bd49U, 0x3c5e86d0bdb759f7U, 0x3e15c55ebdf983e5U,
  0xbd5ceaba3e108ba8U, 0xbd8ed0cebd2c127eU, 0xbd6c59c63dbc1732U, 0xbe7da5c9bd372b83U,
  0xbceef1dc3e465444U, 0x3dccd3c2bddecd5eU, 0x3e2e19f53dd78d9bU, 0xbd372c8a3d840303U,
  0xbdf01e20bdc7ef87U, 0x3ded69b23cf99800U, 0xbddf1d3bbd8a1bd5U, 0x398bd9343c9400e4U,
  0xbda110c7bd714906U, 0xbccec47dbd9c7969U, 0x3dbfd613be01af09U, 0xbe0bba7f3c62dcdfU,
  0x3d8bc13abe113909U, 0xbdd90bfc3baea65aU, 0x3d15d122bb75120cU, 0xbe071147bcd379e4U,
  0xbdceaf04bde59a05U, 0x3e00901dbe0fb1a0U, 0x3cae60ab3df7a642U, 0x3d4fd5e23e0d6b1aU,
  0x3bc151c63daaaa1cU, 0x3e1ac3fcbe1cd67cU, 0x3e1f16453ddaf15aU, 0x3db698c03d5d4a0aU,
  0xbcd4771c3ba1d958U, 0x3e33c564be26d16aU, 0xbe337cb03afdbf02U, 0xbd438ec93d7f723cU,
  0xbe0595e5be340a4bU, 0xbb903383bd00b4ebU, 0x3e45c7513e435f0eU, 0xbdc6c2793e2cdc9bU,
  0x3d93531dbcbd4278U, 0xbe6d78693e0ac849U, 0x3d304ba2bcdd1facU, 0x3e0e52cfbdbe4086U,
  0xbd11841abddd40b4U, 0xbcd2da44bd6dda27U, 0xbdacade6bdb62a4aU, 0x3d232ae9397935dcU,
  0xbd530d7a3dbe7046U, 0x3bda83163c90ff80U, 0x3e648c823dc35f1cU, 0xbd2af9b13dd85465U,
  0x3c8c8c923d6731bbU, 0xbe02f0babe1f3685U, 0xbd56e8cb3dde6529U, 0x3b61e0683dccaa55U,
  0x3da8fe17bbac58a7U, 0xbd32bf32bd8760ccU, 0x3e18f7383d4961d8U, 0xbd5e4c9abcfd2878U,
  0x3e2bad1a3d043e5dU, 0xbd324db2be1cfd67U, 0xbd9d9b933d87922fU, 0xbdcbf4e93dfde143U,
  0xbda850a8bdde5b80U, 0xbe3e42f4be38db8aU, 0x3e04d2bdbe47b674U, 0xbe0d40993d40567eU,
  0x3d9096a1bd04a692U, 0x3c000575bce725ffU, 0xbce701d6bc3a0af0U, 0x3dae6bfa3e400a65U,
  0xbda39fb4bdd66e4dU, 0xbd2e9b84bb8db089U, 0xbe2c5956bdb67eccU, 0xbe29ccc5bc14e190U,
  0x3d950ac1be2f1fbfU, 0xbe235865bd6be852U, 0x3ca2f4b63e51324aU, 0xbe00bda9bdf7067fU,
  0xbc2f0c4abdb95077U, 0x3d13533b3da54d7bU, 0x3ca093b63e307b77U, 0xbd60329abe699115U,
  0xbd046a8a3db57ecdU, 0xbdb10b7dbc319208U, 0xbc3921ab3ac5be15U, 0xbd026afabcb0938aU,
  0xbc9fba6fbd4f02f3U, 0xbd51ed7e3c2f5af4U, 0x3c915fd53dafcbccU, 0x3dd6cbd03d347f0aU,
  0x3e2e8e86bc8197aeU, 0xbdac80d43c6b7b9fU, 0x3db187a53e6c1cddU, 0xbd02643c3c911a10U,
  0xbde8f79cbe000378U, 0xbcdf0d5a3dae54c0U, 0x3d99d6c13c32b144U, 0x3da604f23ae652f8U,
  0xbe0c00643bd9c194U, 0xbcafc7cdbced48bdU, 0xbd329e08bd185dbaU, 0x3ca22541bde7bda4U,
  0xbe0188ec3e21c764U, 0xbd656372bd317d76U, 0xbd2f0ad5bbe51099U, 0x3d6c5cabbd625e7eU,
  0xbd35e0113df29af6U, 0x3dbdc944be187e5fU, 0x3d233fb2bd9a6ce6U, 0xbc6b10023da3ca2aU,
  0x3ca3cf9fbdb98e53U, 0x3d70f8003de912ddU, 0xbda5465dbc72bed0U, 0xbd8f5559bd1b2bedU,
  0xbd8a5e2cbcbe473eU, 0xbcaf6e75bd326426U, 0x3d996205bddc77c5U, 0xbe011798be014a52U,
  0x3d77efd6bdb2f53eU, 0x3cbf430e3da406abU, 0x3d9767f3bca990a3U, 0xbda827c73d913007U,
  0xbce7dd9fbd616068U, 0x3d3a0502bbdd78cbU, 0xbd166fbc3d466418U, 0xbab57b623c75ae2cU,
  0xbdc87e3a3d8f35bfU, 0x3dd7e3f4be2453efU, 0x3d43ed873d7568f6U, 0x3dcbd71a3d51e1eeU,
  0xbe07bb503da6ce66U, 0x3df3a30ebde64c67U, 0xbd90a1163d9ed8feU, 0xbd7066273d88fdebU,
  0x6996214be521ac4U, 0x6996bd806999569U, 0x86998a5086996214U, 0x6997f6606997cd4U,
  0x699a4fb06998c3eU, 0x8699926886995e7bU, 0x8699a75286998213U, 0x869998960699a365U,
  0x86999408069976b2U, 0x86997182069977b1U, 0x6999db206997bdaU, 0x699a6eb06998895U,
  0x86998f3d86998c3eU, 0x69977b186995b21U, 0x69975a286997cf4U, 0x699683d06996f85U,
  0x86999fcc8699642cU, 0x6999bfe0699968cU, 0x8699820206998310U, 0x869976af06995b21U,
  0x6998c4e06997079U, 0x699718286996530U, 0x8699742006996213U, 0x86997ed4069959e1U,
  0x86997bff86999a91U, 0x3d534ae806999e0dU, 0xbe0433c1bdf429e9U, 0x3e2bcb9a3d500fb7U,
  0xbdcc2ebabc5e3c22U, 0xbc1a4d0fbd0a544eU, 0xbe0b81b8bd95f2a6U, 0xbdc6526bbd4c9e25U,
  0x3e35aaf4bca7aae6U, 0xbc3bccbcbd27dc65U, 0x3dfbba32bda20574U, 0xbaf614303dc06a13U,
  0x3d325b3cbca67982U, 0xbe01180a3d0e4196U, 0xbdda6fafbdb94ff4U, 0x3d813ef3bd9cbb63U,
  0xbb9731c33d0f4a8dU, 0x3d802bda3e394ee5U, 0xbc48c9f6bb112326U, 0x3dba259bbe1e2abcU,
  0x3e35c7e93dc2a9caU, 0x3e2d49593de6cceeU, 0xbd8124503dbab724U, 0x3e234d31be74239aU,
  0xbdb7156c3dac6259U, 0xbd80e5ee3db14138U, 0xbe0b61c5bdf625a4U, 0xbd9349f1be16e383U,
  0xbcfaa8653d9668f9U, 0x3df7f719be1089d1U, 0xbdfb37f23abc3832U, 0x3cb3d2d3bd3541f9U,
  0x3d007233bc10f67fU, 0x3d27f2f2ba2be144U, 0x3e1f264bbbb81267U, 0xbdf5e3543d450880U,
  0xbe05d3663cd32ddbU, 0xbe51c2333ca7cd7dU, 0xbdd874a7bb5d5d71U, 0xbc0f7aeabdd1bde0U,
  0xbde6e0ecbd85f916U, 0x3e4a9a3cbe022c17U, 0xbe2d65bb3ca9c26dU, 0x3e0d955e3d8cc5b5U,
  0xbdb398de3e206183U, 0x3d24e525be42fd49U, 0xbe003d303dbe9507U, 0xbde6deac3e00440bU,
  0xbd8ed0f7bc72b28fU, 0x3d7625b0bb1905c3U, 0xbe12eae23e44cafbU, 0xbda99b683cbe291cU,
  0xbcc590c7bd978f36U, 0xbd3546533e11ccacU, 0x3dbea7f7be01337aU, 0x3be3b50ebcab9e29U,
  0xbd5d26473ce08711U, 0x3d89fa66bd092cf6U, 0x3d5590b53cc3d617U, 0x3e0fad193d86d631U,
  0xbe49e2e83c56d7e2U, 0xbd9af003bd272b2aU, 0xbdd90dd7bc486749U, 0xbdc43faf3db801c1U,
  0xbc812d8abdcd0d0eU, 0xbd0c3636bd49eb17U, 0x3dd39950bdae56b0U, 0xbde60ae83d26d1d2U,
  0x3dbcab743d0315b9U, 0xbd86899a3e20cd9dU, 0x3ccc3314be20af23U, 0xbe207ebf3d0df3f5U,
  0xbdb70f003d8bc8cdU, 0xbcc98aa6bb17e6b5U, 0x3d6e3d24bd278970U, 0xbdb390583e0cdfc9U,
  0x6996d593bb1187eU, 0x869994f08699a4fbU, 0x699738586999902U, 0x8699729f06998bb3U,
  0x86996d5e869977b1U, 0x699631086999702U, 0x699638106996421U, 0x86997fe80699a1d4U,
  0x69974af86997ac0U, 0x86999cff06995d1eU, 0x86997ddb06995966U, 0x8699806f8699646dU,
  0x8699642c86995aeeU, 0x869960230699a76cU, 0x6998b35869987b0U, 0x86996ccb069978a5U,
  0x6998e7186997385U, 0x8699673d86998b65U, 0x6998c6486996870U, 0x6998308869980f9U,
  0x86996acc06997bceU, 0x699a3e306999147U, 0x8699673d06995e7bU, 0x699791c86998581U,
  0x69993618699a7eeU, 0xbc31b5ff0699835cU, 0xbdf725623ca5c904U, 0xbe043f053db76d13U,
  0xbd75ea4cbd959d74U, 0xbe72f206be2e4a33U, 0x3de2ad90be31987fU, 0xbe44e7913c38212fU,
  0x3dfe5363bc4b010aU, 0xbdbc00f5bc9a5690U, 0xbd1cfd383c60e1e5U, 0x3d80cc263e6fc2efU,
  0xbdc79c98bd76963bU, 0xbdaee8413c4226c6U, 0xbe0ad8ddbdd0530cU, 0xbe0ab0a6bdf7d432U,
  0x3d9d089dbe24d26bU, 0xbe2e17a5bd44b538U, 0x3d1795223e3e6e8bU, 0xbdc5a549be413d0eU,
  0xbcb64762bdd07d7fU, 0x3d2625aa3dbe2ce4U, 0xbca577203dd221c9U, 0xbc268d98be326d9bU,
  0xbda79ca03df0a477U, 0xbdc80b96bd23bff7U, 0x6995e193dcbe4dcU, 0x869997ae869985ffU,
  0x69981fb06998c4eU, 0x86999eb4869973b5U, 0x69978af86996fbcU, 0x6998f6b8699a4fbU,
  0x69974a286997182U, 0x69963160699959cU, 0x69974a286996563U, 0x6995b2106995a35U,
  0x86999ca40699a0b6U, 0x699694e86997393U, 0x699956906996532U, 0x699738586998a1fU,
  0x699884086998d4dU, 0x6996f6586999794U, 0x869990c906999a91U, 0x699a3e306995f03U,
  0x6995ca48699968cU, 0x8699846c869980edU, 0x86996a5d06998e62U, 0x8699a6eb86995e7bU,
  0x6998a1f869996b5U, 0x699707d06995b21U, 0x8699646d06995e0cU, 0xbd69bc5a06996c5cU,
  0x3ba5902ebd44b215U, 0xbdec62333e4a4156U, 0x3de12446bde2f4a9U, 0xbd57176f3d0da32bU,
  0x3d1b5e9fbb7d3791U, 0xb99fce78bd780887U, 0x3c8e5d073cc8ab84U, 0x3e8689e6bc892990U,
  0xbddb6b453d05a06fU, 0xbe270b753d7e6525U, 0xbdc7e2113c4dc3d7U, 0xbd862a243da16de5U,
  0xbc000814be048df1U, 0xbd734642bcb812aeU, 0x3e06bb88bda20580U, 0xbe1c5728bd175df1U,
  0x3df4de34bd2978feU, 0xbd96a0293d64f75fU, 0x3d05f2bcbe153b06U, 0xbe51ce9d3d2488a2U,
  0xbd9ff1b53e176283U, 0xbda48060bdc8c1e2U, 0x3d60e6df3ca6f0a1U, 0xbd4651e03e04a494U,
  0x3da9e6763b1c5ce0U, 0x3db873273c776380U, 0xbd8334813d36c74cU, 0x3d0c9ef6bca10657U,
  0x3df3a51b3dfe8386U, 0x3dccd6193e5285abU, 0x3db3c12e3c8d4a58U, 0xbdf057ee3e271adaU,
  0x3d97b4f9bde96d0eU, 0xbc0ce50a3dd56e52U, 0x3ccbd0b6bc330015U, 0x3d0e661dbcf4c758U,
  0x3e15b36a3ce52ed4U, 0x3daf5eaf3e25c075U, 0xbdeb8b6e3d69fa58U, 0x3ce4fe723c8c08a3U,
  0x3b833b71be12b963U, 0x3df712a7bd152b90U, 0x3d2a79e03c37b03aU, 0xbe0b94a0bd993795U,
  0xbdf753cdbdad80e8U, 0xbdeb1760bdcbd733U, 0xbe3aa9263d926756U, 0x3e134247be1b3aabU,
  0x3e00eeeb3d87f724U, 0xbe013d803df40efbU, 0x3a182c6cbdcc133dU, 0xbd9183a43e1dfb6eU,
  0x3dc4ad78be193870U, 0xbd2bf58ebdaa3a27U, 0x3d2683113c4ee5deU, 0xbc8729f6bd5c216bU,
  0x3ceb6e3c3ce0c96cU, 0x3dcb9b14bd5e49eaU, 0xbe1923703d562464U, 0xbde92e03bc1f43c7U,
  0xbe1f26123c8d5da6U, 0xbd6d11553c4d5867U, 0x3c89126abe0ce122U, 0xbd9c3a47bc78df02U,
  0x3d2c0b64bdd487beU, 0xbe22e9163ad88a17U, 0x3e817c9a3d3a2673U, 0xbd9132a43d8228c2U,
  0x3cf3e27bbddad5c2U, 0xbe3a8bc13d7b92c3U, 0xbdc5a3bd3e00bff6U, 0xbd93e750bd8b886eU,
  0xbcf727073cb085e1U, 0xbc9b9af03db13bd5U, 0x3d86c72ebc2490eaU, 0xbe063a02bd8726b0U,
  0x3d86e995be104d57U, 0xbd14d06cbda188f9U, 0xbd8531cbbe045f5cU, 0xbd437200bd471390U,
  0x3da69da13d02af55U, 0x3d29e00cbdb95647U, 0xbdba36903dc7fe1dU, 0x3e132ef7be455c40U,
  0x3d17b1ce3c950c73U, 0xbbc0d7f4bd96f440U, 0xbd13ea77be4884afU, 0xbdfddddfbdb55663U,
  0xbd324b19be6b8ad1U, 0xbd8f4e933da8ba18U, 0xbd13b70c3dec6aa2U, 0xbd8054b83dd66841U,
  0x3d8f375cbe5523bdU, 0x3e3a89c33e0702e9U, 0x3e04610c3d4c3b25U, 0x3d901eecbd643677U,
  0x3e0954d1be568747U, 0xbda40bb0bd7b3b06U, 0xbd00fd4bbbeae358U, 0x8699a752be04a51fU,
  0x6998e6206996ec7U, 0x6999152869976c8U, 0x699916406996532U, 0x86997ddb8699a3eeU,
  0x699831006996959U, 0x6995b2106997fe8U, 0x69973850699a808U, 0x699915206999902U,
  0x8699968c06995c26U, 0x8699942386999db2U, 0x699968c0699a1d4U, 0x6998c3e06996638U,
  0x6998a1f06999397U, 0x8699a7ee869979a5U, 0x699664286998a37U, 0x8699a3e306995d53U,
  0x69978a586998e62U, 0x86996bc906995a14U, 0x69975a206996e5cU, 0x86999a9186997ddbU,
  0x86997b0c06998e62U, 0x8699642c86995c86U, 0x6999cff06997bc9U, 0x69970b006999b98U,
  0x3d0c270906995bfcU, 0x3dbb21d2bdcd09a1U, 0x3dd9101f3d6cf725U, 0xbd94720e3e16e52dU,
  0x3e2440273dea6c00U, 0xbc27d9563e71b852U, 0x3e4482433bad58a7U, 0xbcaa2b8d3de6d06eU,
  0x3cc1eb03be501c0cU, 0x3cfd26c5bcd96957U, 0xbc7f5746bdb7d0fbU, 0x3bc92322bd00364eU,
  0x3e26efb93df2bda0U, 0x3d9bb2443e17fd11U, 0x3d6ea8173e22c8e9U, 0x3c52f5c13abd6992U,
  0x3d0ca2dbbdefc1faU, 0xbc8f5e5ebe67454aU, 0x3d4bb33c3e055ea6U, 0xbdb974e13d1c69e4U,
  0xbd705ce2bd6f80b2U, 0xbdfb520dbc1cd286U, 0xbdca04723e3fbc81U, 0x3e08c9b7be151d84U,
  0x3df36468bbe9948bU, 0xbd6b48c2bdf25e38U, 0xbe0c65a3bd12ddc8U, 0x3da7f9103d504db7U,
  0xbdd8ea7dbd4c229eU, 0x3c8d7d33bd5b84b7U, 0xbddf76b6bd9ad93cU, 0x3bfcb79cbc5e0579U,
  0x3e035666bd884dccU, 0xbde7e7c7bd27c957U, 0x3de237b1be2f3e85U, 0xbc24b75b3db9ff33U,
  0x3d32ea05bd18d338U, 0xbde1a4bdbc5aad0eU, 0xbe09fe62bdb3803aU, 0x3d80502bbdc85134U,
  0x3d05ca5f3dbb0e52U, 0x3d6feafe3d858f54U, 0xbdba45493d9b63eeU, 0x3dd96015bd432f6aU,
  0x3e1f7fd13d7505d6U, 0x3dc6a5813cfd54c2U, 0xbdb02e253ce8c859U, 0x3e18eeabbe082c0aU,
  0xbd82471ebc0dfc38U, 0xbc337dbb3d8e4799U, 0x699a35bbe317d33U, 0x8699989606996b64U,
  0x699695906998310U, 0x699968c86998f3dU, 0x6998b35069994b4U, 0x8699610a86999df6U,
  0x86999bfe0699610aU, 0x8699610a86997ed4U, 0x6998f3d8699a4fbU, 0x869999fb869975c2U,
  0x869970790699a45cU, 0x86998a1f06996accU, 0x699631086996638U, 0x699892a06999b98U,
  0x6999f35069975a2U, 0x699827086996532U, 0x6996cca86996381U, 0x8699683d8699683dU,
  0x6997b2286998a1fU, 0x86998b4c0699a4fcU, 0x8699a22a0699642cU, 0x6998a1f06996530U,
  0x6996d5c0699a170U, 0x86998a1f86996310U, 0x6999ee586995cfdU, 0xbd5f471486997297U,
  0xbd0175c9be1c062dU, 0xbd8d6c093dbbff8bU, 0x3df1f0a6bd9f8e60U, 0x3b341ccbbc448111U,
  0xbaf31a223d5683d2U, 0x3d10ea9ebd2a4d54U, 0xbcaab6d43b16a616U, 0x3de718983c951791U,
  0xbe2515f83d6982c5U, 0xbde7de103cd7ef98U, 0xbe1001863bbe8ea0U, 0xbcd175e53d02026bU,
  0xbbcf24b6be05c1f5U, 0xbde2ac78bceb34c0U, 0x3dfefad7bdd5ad44U, 0xbe16bf10b8963c5cU,
  0x3e0550cf3cdb8f67U, 0xbd7559823de07951U, 0x3c84c482bddbda32U, 0xbdfcfd393d81ae97U,
  0xbda82bb13dfb7f48U, 0xbd7fb521bd6ef6beU, 0x3db2270ebd2a84a0U, 0xbdb26dca3e07ce69U,
  0xbce4e7ba3d304efeU, 0xbce712b93d2d3910U, 0xbd177364bcfbb513U, 0xbc8c79d53bf2f4d5U,
  0x3dbe98373e3d5f5bU, 0x3c96a51a3d1b7b20U, 0x3e276c9bbc8f3056U, 0xbdcae5663d90f4e8U,
  0x3e10db713e4e4d9cU, 0xbd76ddf3bcbf8429U, 0xbe0b8e45bd07db49U, 0xbd4245d73d6b9d51U,
  0x3d883b1cba88013aU, 0x3d92c57e3d29ec5dU, 0xbd3355cdbc975f80U, 0x3d2495f7bd933fa3U,
  0xbc4622d4bd3601afU, 0x3dd36ca6bdbb6a82U, 0xbd33f0cf3d998aa0U, 0xbde3e5cbbdc8ea62U,
  0xbd0f39473948856cU, 0x3d38a474bc824843U, 0xbdc39b113dcade80U, 0x3df5c8ddbddaff3cU,
  0x3d6dda66bdcaeff9U, 0xbb91f37c3d36f516U, 0xbc2e3ef5bd98b9efU, 0x3c1ee27a3db111c3U,
  0xbd8f1efcbc4aef4aU, 0x3cedb27bbbc82b67U, 0xbdc276f5bd35acefU, 0xbd4ad4ecbc2f3726U,
  0x3df8d257bd348946U, 0xbdc07dfebd5de8afU, 0x3dd830b3bdd2fdb5U, 0x3d87fb0a3e19920fU,
  0x3d245d18bd059bb8U, 0xbdbce9c93d026c95U, 0xbdbf4ea8bd83f8b6U, 0x3e240ecebda255c7U,
  0x3d0a66303d57066bU, 0x3cc25ef23d51d7ceU, 0x3c8296fe3d29cb88U, 0x3d788ffebe12268aU,
  0x3de9488c3d1bdb9fU, 0x3d961f3b3d210ae7U, 0xbdd946633dc27c7dU, 0x3d164b91bdf23dbaU,
  0xbdb6c2e33de0d7d6U, 0xbdea27de3d1a319eU, 0x39865100be37fd54U, 0x3d26e68b3e48ae03U,
  0xbdedce603e4c01e8U, 0x3c661a94bc63a24fU, 0xbd8f364dbc45af63U, 0x3da55105be7c3071U,
  0xbdf10aa13d6d73c5U, 0x3c4563ef3d91ae85U, 0x3c589ddf3e1fd8a4U, 0xbc3924e83ba0ba7aU,
  0x3dc153ef3dcb4bc0U, 0xbe3cedfebd2256bdU, 0x3d589121bd28be23U, 0xbb54987cbd8b41a9U,
  0xbe7925003de95b75U, 0x3dc68ae2be365da1U, 0xbd1a0bfbbe30df18U, 0x3df1d7a93e40db18U,
  0xbe1cfd98bcab5f14U, 0xbdb02560be00f821U, 0x3ceba53e3b7bd055U, 0x3e0cb5cd3d05cbeaU,
  0xbcc1c75cbd2baee8U, 0xbbdf1d283d8ebdf2U, 0xbdcf6585bd432e99U, 0x3e493010U,
};


ai_handle g_wine_quality_weights_table[1 + 2] = {
  AI_HANDLE_PTR(AI_MAGIC_MARKER),
  AI_HANDLE_PTR(s_wine_quality_weights_array_u64),
  AI_HANDLE_PTR(AI_MAGIC_MARKER),
};

