/**
  ******************************************************************************
  * @file    wine_quality_data_params.c
  * @author  AST Embedded Analytics Research Platform
  * @date    Sun Oct  1 18:34:13 2023
  * @brief   AI Tool Automatic Code Generator for Embedded NN computing
  ******************************************************************************
  * Copyright (c) 2023 STMicroelectronics.
  * All rights reserved.
  *
  * This software is licensed under terms that can be found in the LICENSE file
  * in the root directory of this software component.
  * If no LICENSE file comes with this software, it is provided AS-IS.
  ******************************************************************************
  */

#include "wine_quality_data_params.h"


/**  Activations Section  ****************************************************/
ai_handle g_wine_quality_activations_table[1 + 2] = {
  AI_HANDLE_PTR(AI_MAGIC_MARKER),
  AI_HANDLE_PTR(NULL),
  AI_HANDLE_PTR(AI_MAGIC_MARKER),
};




/**  Weights Section  ********************************************************/
AI_ALIGNED(32)
const ai_u64 s_wine_quality_weights_array_u64[11796] = {
  0xbcbb5ee8bc0a1da5U, 0xbcbeac78bc939e35U, 0xbe1a9b60b962c078U, 0xbd03cc2c3e386a5fU,
  0xbd2a5b56bdca0210U, 0xbccb6335bcef6f60U, 0xbce19e9dbb87391cU, 0xbb49c639bcac18b8U,
  0xbed8a70f3f94e759U, 0xbcde48f7bcc00eebU, 0xbd1cc887bc245299U, 0xbc45ccc63dead7ddU,
  0xbbe23380bc669f76U, 0x3f0b1a1c3acf19a7U, 0xbd228186bc537a6aU, 0xbd1c76cd3c9430d2U,
  0x3eba24e93e1d7cb9U, 0xbe856bc9be2556dbU, 0x3c47e4d83d7dd268U, 0xbd609891bf0a9731U,
  0x3d14b0a53e432742U, 0x3f2dde7abe9aa8d3U, 0x3eb6e9c83eaa1d41U, 0xbe17e172be3ac710U,
  0xbe3311a4bfada0aeU, 0xbcc5c522bd8e0222U, 0x3e7f72c0becbc8d2U, 0x3e0631e0be927538U,
  0xbe15cee7be652b12U, 0xbf2cf0ae3ec2b906U, 0x3e959245bd3df24dU, 0x3dd060593e265a5dU,
  0xbe1093f23dabb366U, 0xbe00cd52be25a1b9U, 0x3dd6a202bb9f7b35U, 0xbe1fe668be993d69U,
  0x3db2287ebd361b8fU, 0xbe714a1cbd2418cdU, 0x3e8f64d43e975a0fU, 0x3e598059be8b2726U,
  0x3e9cb146bf4a94feU, 0x3d5d02303e1d9634U, 0x3e2ac780be051b70U, 0xbe3211f03f52b91cU,
  0xbddd9bd8bb823c64U, 0x3e5a3fc83e7a72d7U, 0xbea276693e9f6753U, 0x3ebb844abeda6b76U,
  0xbe9f1514bdb5baa3U, 0xbe2b251bbec41ba1U, 0x3e57d49d3ed6d295U, 0x3c2497a73e7fcae3U,
  0xbe1c8e11bd9bb006U, 0x3ca3dc243e755580U, 0x3b63ec3dbe8366deU, 0x3ec42b29be8bab9aU,
  0xbe2ce05e3e24d20dU, 0x3e665d03bdeb6995U, 0xbe18d0dfbe0d3e70U, 0x3e0a173f3f482321U,
  0x3e7cecbcbe646e6bU, 0x3f70d649bdacbe16U, 0x3e65de41be384052U, 0x3ea621703f1fcb8eU,
  0x3e77abfc3e9252dfU, 0x3e90dfb1be0b04b5U, 0x3ec986ae3ec3b4e1U, 0x3df7e0583eb77d11U,
  0xbe2466eb3d84483eU, 0xbe4695283c7faa44U, 0x3e387c2bbd3e22b3U, 0x3ddc83543e71f225U,
  0x3f00617e3f48a528U, 0xbda03ffa3e52b61cU, 0x3e18df57be37ea3bU, 0x3e5d564a3eec0e2dU,
  0x3e9d73b5bdd62289U, 0x3f7bcfffbe36ee1cU, 0x3e8258ba3e66b104U, 0xbe23cd033ee87bf6U,
  0x3e60a9cb3e251ff1U, 0xbd06a921be36f6ffU, 0xbe86bb76bee84505U, 0xbd9671393ed788b1U,
  0x3e795efb3dc4c2caU, 0xbe3453f63e068425U, 0x3e1fce313d3afa72U, 0xbeaa90e3be98953eU,
  0xbe743ac43f850c9bU, 0x3e1347e9beb28105U, 0xbde3b51fbe004f76U, 0xbe1c10dabca8991cU,
  0xbeae3ddd3b867324U, 0x3f4ccca33e3743b1U, 0xbea97585bde0439fU, 0xbdf60b3cbdfcde4cU,
  0x3e0326af3ec26bb8U, 0xbe94cf52be76653cU, 0xbda2aff13e5ce888U, 0xbe051a55be950c48U,
  0x3ea773a8be4ca120U, 0x3dba1e903e9b6403U, 0xbe8726f6be1b5f72U, 0x3e818bdcbe020036U,
  0xbe96d0123f594da4U, 0xbd8cc59d3e822271U, 0xbe2109b7beba022fU, 0x3dc3fca0beff5076U,
  0x3e9bd9da3ebb56e3U, 0xbc0d3285be9c78c9U, 0x3ecafe26bca3bb32U, 0x3dcaff9a3eb45f64U,
  0xbdef1e2d3dc17591U, 0x3e4e44a23e1efa6dU, 0xbcfa73173d73f466U, 0x3e98f562beea50d9U,
  0x3e9464d63ebfd963U, 0xbecfc8b4be4a51a5U, 0x3cd6b9d83e0af50dU, 0x3ead08d43d34f77bU,
  0x3df086efbf853ef4U, 0xbe3d43c33ec179a1U, 0x3e023596bea72eb9U, 0xbe5c8e53bf5a5593U,
  0xbd4221723dfbdbb7U, 0xbfad4116bec5ea5aU, 0xbca1748f3eb934c7U, 0xbe0e4a1d3c421427U,
  0xbd6a309dbf5581a6U, 0x3f9203153f83d537U, 0xbecf5c653ec34d38U, 0x3e171ff9bfa0c21eU,
  0x3e8aa042be0ea5d7U, 0xbe48ae913c57def4U, 0xbd31a4f93d8936b2U, 0x3e8f9e283e3ec2b2U,
  0x3e30f12ebd01b96cU, 0xbe5c02debdeaf221U, 0xbd1846053d8c11c0U, 0xbca540a13e321d06U,
  0x3c972cb93e00b80dU, 0xbdb40f023da8304fU, 0xbda25b37bde7c0bcU, 0x3ed38ad3bdc19decU,
  0xbf818634be38ffdeU, 0x3e147311bdd0f90fU, 0x3d904c553e0f207fU, 0x3dc38da73dbb766dU,
  0x3e609b483cf48240U, 0xbe2890163c64bacfU, 0x3e6e8e803e223331U, 0x3d8143603cc9ddc1U,
  0xbdc378b23e11de91U, 0xbe057bb4be211701U, 0xbe3f17dfbd651e7aU, 0x3daca12bbd106f0dU,
  0xbe2f47813dea7769U, 0xbe022010bdf61021U, 0x3d37136bbd97e059U, 0x3ef7d6ddbe162801U,
  0xbf35af4fbe10dde2U, 0x3cc551ddbdaae7a5U, 0xbe5a8e85bdc9be6cU, 0xbe283e42bd983be9U,
  0x3d21b16cbd9442b6U, 0xbde3a2223d3fd7dcU, 0xbe092f20be0d8562U, 0x3edd8ccdbe1bed17U,
  0xbf98f067be7f6b6bU, 0x3e2278a3bd20198cU, 0x3e93a7c5bdcdee0eU, 0xbc07223ebce980c1U,
  0x3b7045683c308756U, 0x39cc7c993c12b1f4U, 0xbda3f8453daec4edU, 0x3df6b21cbc829dcfU,
  0x3d126495be2f2113U, 0xbe3b72ffbd987a07U, 0xbd32e7d63cfac268U, 0xbe1b37f33d1bd8a2U,
  0x3dfe94223e0b6bedU, 0xbd416d493de98bf7U, 0xbd4caaf9be286e1dU, 0x3d72cfe13d46d562U,
  0x3e26ab243d5e11f5U, 0x3b3358a83df35091U, 0x3d8d31603d5a2138U, 0xbe35efc9bce3c248U,
  0xbe0433173d63f28cU, 0xbe486a403d2c3fe6U, 0xbc02b3403d21f03dU, 0x3e3fff6a3e063052U,
  0xbdce92423dc65072U, 0xbe398fecbd4c4b6eU, 0x3d927bc7bc09185aU, 0x3db655643d8d85deU,
  0x3d33a5c53e08b709U, 0xbe5c3dc2bdcb44c5U, 0xbe32cc5c3d9e58f5U, 0xbe1c8d703dbdf6e9U,
  0xbe0536993ce4ce98U, 0xbd7b0f203d8a7ee2U, 0x3cfad040bdc635baU, 0x3dfe78d23d921b60U,
  0x3dfa4d1c3d5a18f2U, 0xbe5ed7313cd449e4U, 0x3e996c983e477e4cU, 0xbdb936883e12eca6U,
  0x3d7911353da7d699U, 0xbe1893cfbd041d87U, 0x3e009790bcc4c40bU, 0x3d4f5ed9bd8b3e94U,
  0x3ebd29053d94f800U, 0xbdbe15913dc73bb1U, 0x3e3f48d8bd9b4b2bU, 0xbbc88704bd9eee62U,
  0xbe0714123c4d0ef6U, 0xbd5d7ddf3e175edbU, 0x3e075d6fbd9e0e3aU, 0x3def2390be1b78f7U,
  0x3e82e1483e0d8f99U, 0xbe1fb25ebd766cdcU, 0x3d245129bde2e405U, 0xbdd12b64bdde803aU,
  0xbe222cecbd9bb424U, 0xbd200e0c3e2d4c62U, 0xbe2dfe9f3e02a21cU, 0xbd2435513d31e1e8U,
  0xbde624dfbd775390U, 0xbe3fc6e73dffdd05U, 0xbb4766f1bde7c686U, 0x3ce71bdcbe04e482U,
  0x3d35619f3e1381d5U, 0xbece4ed13dc82b61U, 0x3bac387cbe3ff2c6U, 0xbc674cc53a12684cU,
  0x3dd6e211bce79dd4U, 0xbe11726a3e1d23aaU, 0xbdcc4c143db9b180U, 0x3c3f0146be200cafU,
  0x3e1d155dbda6cf02U, 0xbd9169efbd9dfccbU, 0xbc8a35aebe302525U, 0xbe31486ebd0393ddU,
  0x3ea43cca3e069daaU, 0xbdfb85833dceeb61U, 0xbd8585e9bd90a5d0U, 0x3d848cc43b54d847U,
  0x3cde6334bde29923U, 0xbdd020643d9adaf5U, 0x3d36d784bcab6adaU, 0xbf10af84be196383U,
  0x3df1cf4a3d969916U, 0x3e08bb2abcc63ee0U, 0xbdf222df3d9abb3fU, 0xbe5d2634bd01cbf7U,
  0x3f00b1c53d15ee6dU, 0xbc78f3f73d243457U, 0xba9547e1bcc30673U, 0xbd5259923da0d697U,
  0xbd01aae5bdb8cef4U, 0xbe8e76873cc3494bU, 0x3dd07da5be03cac7U, 0x3d968a5ebdebdab7U,
  0xbda641033e06297dU, 0xbe97aff03deb6d0aU, 0x3cb5078cbdd4bca7U, 0x3d582b7dbdf59245U,
  0x3cbea207be13a976U, 0xbe229c783c92499cU, 0x3e2c933abd679246U, 0xbda427fabc0271ecU,
  0x3ae7aac7bdc9320eU, 0xbd3f1ed7bc8e6c4fU, 0xbe1c65b23dfd0a49U, 0xbd8ab5273d41b972U,
  0x3dd5ff93bdf22da4U, 0xbded20dc3da2e524U, 0x3dda1c693d5fcc20U, 0x3e570c65be128903U,
  0x3d5b0256baa6efe0U, 0xbe340cc23cf48dddU, 0x3b9ae3e3bc52d2ccU, 0xbe8b089c3da7d641U,
  0xbf300c39bd3ee337U, 0x3df10c98bdea1ef0U, 0xbe0c648cbe0c08ccU, 0x3df56e703d5e4bb5U,
  0x3e386213bc1d65a2U, 0xbdf15b06be19ac42U, 0xbdaa03a2bd3a266bU, 0x3e8268d2bd022d6dU,
  0xbed60812be5353edU, 0xbde8eee7bdc4839fU, 0x3eadf65a3ca1b6d7U, 0x3d970cbfbe10719bU,
  0xbcc24d0b3e1b41a6U, 0xbd91fbac3ce597baU, 0xbe224761bd1092d7U, 0x3e46d06cbd922207U,
  0xbd83c3553e26ba4fU, 0xbd759e58bd6f7a3aU, 0xbe451ffe3d716661U, 0xbd51a361bd9f0355U,
  0xbe0221a5bdcca4e8U, 0xbd11e9593d9ea144U, 0xbe3781a1bd9cfad1U, 0xbe00cfd83cb3e9c1U,
  0xbdcaa1e4bd9438f2U, 0xbdde16023e02ddc7U, 0x3e09c82b3c970fa8U, 0x3e73554c3dd23872U,
  0x3d41022f3d09c708U, 0xbe27ca623e1ac8ceU, 0x3e154cb53d991205U, 0x3c3ee0703dc3df59U,
  0xbe06943e3e0c77deU, 0xbe2e40be3e1d7f8eU, 0x3d27677cbddd7cf5U, 0xbe26ef0dbd902729U,
  0x3ccfa61fbe1dddf1U, 0xbe24dffabcdf46d6U, 0x3e0703bc3de6e633U, 0x3df7cd863e1357b5U,
  0x3eb3e032be378b74U, 0xbd45f8ce3e1ee3f7U, 0xbe5b4f3a3cb384e4U, 0xbd8e7ba03d2f2e8eU,
  0xbd6d01deb9812600U, 0xbd00b1fc3b3a3640U, 0x3dddd9c03dc43e2cU, 0xbd6316fcbdabad8eU,
  0xbe2e06383dbb7a54U, 0xbe13a47d3d9835aaU, 0xbe10b1533d8314a0U, 0xbe265363bc8d1e40U,
  0x3e560bdb3d39e2b3U, 0xbd542d41be228a15U, 0x3e0850973d033082U, 0xbe55fae7bdb84e9eU,
  0x3d45e118bd84cd2cU, 0xbca8718e3dcecdceU, 0x3dd245213dfb2e07U, 0x3e959a0ebcc85d3cU,
  0x3d6478223dbb3a64U, 0xbda22c87bd774837U, 0x3dc8fe71bdae6ca1U, 0x3db200dabac229b4U,
  0xbe17ffdcbe19b47bU, 0xbe3445b73d92c51cU, 0x3d954289bde4bbf8U, 0xbeb6cc3f3d94679cU,
  0x3e3771963e29a40bU, 0x3abf3fd43dc07a31U, 0xbdf932b53dfea955U, 0x3d2d9c473d2e720aU,
  0x3da14e143e16aedcU, 0xbe7fa0713d778a98U, 0x3c0cb5ffbca0e8f2U, 0xbe3f8b403d211ff8U,
  0xbd8ed47e3e049323U, 0xbe5c6212be1ca09bU, 0xbe1f04aebbc61156U, 0x3e0b7c5b3c0f18f1U,
  0xbdf8f3973d04b240U, 0xbdd91b98bd97174cU, 0x3e64010c3d2d0a3dU, 0xbd000161be325d16U,
  0xbd8cd7453c89accdU, 0xbd89d0d5bdad227eU, 0x3d90e4283d092ee8U, 0xbd1dca513cc0d401U,
  0x3d7770523dd0d14dU, 0xbe04c6d1be30c466U, 0xbe31074bbe0c6240U, 0x3e2638353dcfff8eU,
  0x3e9160eebd9ace7bU, 0xbe671099bd615195U, 0x3eab621dbde3b911U, 0x3d8261cbbe38fde3U,
  0x3c8af7633950114dU, 0xbe0bf59e3db4b65dU, 0xbd85f9ed3d02a9faU, 0x3e67a934bd95e250U,
  0x3e54fd723e2b6ad3U, 0xbe424050be129c62U, 0x3e2982113d221981U, 0x3e82cb07bce17de4U,
  0x3e518db9be72145bU, 0xbd5399703d04099cU, 0x3e2283733e2c058bU, 0x3eec3e873cfcd06dU,
  0xbf140f813e0baa95U, 0xbbda875f3d7f1ca2U, 0xbdf3f8d63d5ad558U, 0x3dfd7951bc209f95U,
  0x3d3d86743db149f4U, 0xbe82cec3bdcad711U, 0x3e00caeabdd53ed7U, 0xbe5fdd6d3e204c06U,
  0xbdfacb7b3cd5703dU, 0xbdb02dec3e0d4ef5U, 0xbd302e67bcccdb93U, 0x3c4312613b18ccfaU,
  0xbea6ef75bdd90777U, 0xbbb5a3dc3d8bc402U, 0x3e6cbf15bd3a950bU, 0x3db9a9863e049c7fU,
  0x3d06cee6be183746U, 0xbdf5006f3db41d15U, 0x3e27df7c3dd9c8d6U, 0x3ee8c9efbdc2d1b3U,
  0x3cb997513e139622U, 0xbe28f2e7bdfeded9U, 0xbebc01f4be744e75U, 0x3cdaa9f93e81e136U,
  0x3dc1d4ee3cd20372U, 0xbe1a28653dc5740cU, 0xbdbb16553d3fae99U, 0x3ce0f51a3e0288f6U,
  0xbe034d083d65424eU, 0xbdc3ba2bbe0ad4cfU, 0xbdf7eca33d6aa461U, 0x3e9559ff3de7b814U,
  0xba31f3d23df38b0eU, 0xbdde8266bc3e6b8dU, 0xbe673b55bd89288dU, 0xbdf6abbc3e186c94U,
  0xbd9af4b43e00faa2U, 0xbe1f00333d0839f0U, 0xbe2491c63d6ece08U, 0x3e0f9db3bd3a7c2cU,
  0x3e1906fc3da63128U, 0xbe34066bbb699e1bU, 0x3de8f8f13da8f03aU, 0xbe539173be065858U,
  0x3ead6b1fbe105507U, 0xbd81e7353d7e5653U, 0xbe1e03b53e13b29eU, 0xbda8d272bdef98f8U,
  0xbcaf744cbc07ac36U, 0x3d14ab8dbe09bce6U, 0x3e513b533e1ed540U, 0xbd2f08283c9fcd6cU,
  0xbe11836fbd633e6eU, 0xbde348383bfe6460U, 0xbd4eb4f83b1cdd40U, 0x3daaa9fdbd3bd704U,
  0x3d2910ffbe5815d5U, 0xbe189a9fbe087ad3U, 0x3eb8f1a83e3d69b5U, 0xbda996c9be3a1433U,
  0xbc84a0b0bdde8cffU, 0xbe0920173d08d6dcU, 0x3e2c1eacbd683596U, 0xbd919c69bd2ff790U,
  0x3aa8b20d3db7533aU, 0xbbdfae933db83e84U, 0x3e033656bdad8827U, 0xbdca768fbce03ab8U,
  0xbd4a32ea3d259db3U, 0xbdf3bb333e114727U, 0x3e017b1a3d8da4b7U, 0x3d5f4f49bda86f56U,
  0xbcc7336cbd1f7157U, 0xbe0bde6bbe20044fU, 0xbe3ac6c1bc645084U, 0xbe3cf8043dd5802eU,
  0xbe2c8271be254404U, 0x3bb1f3323dd0e3ecU, 0xbdfb6e1d3c3c8d59U, 0xbe007aa83e16e89bU,
  0xbbd96fd73c061952U, 0xbc2d7240bdeb8595U, 0xbdffea28bdea67c4U, 0x3c41ef30bcc01912U,
  0xbdd308653dab459cU, 0xbba1cc40bdb1c691U, 0xbcdcfef0bdef11c1U, 0x3ec8d3323e2817eaU,
  0xbd4eadf73d0c127bU, 0xbd09382f3e2ea154U, 0xbe84c2083e0282eaU, 0xbba5ed80bda76306U,
  0xbe21a79ebe25ce41U, 0xbc97f700bc841160U, 0x3d8c49d0bc158550U, 0x3e8915e43df2bd1cU,
  0xbdc92dbf3dadae9cU, 0xbe2ffaebbd29edaeU, 0xbe209e223deeb3e8U, 0xbdee400bbd8f9e99U,
  0xbdc33f713c33bdfaU, 0xbc256c793dc4d62fU, 0x3dbd950c3e1d272dU, 0x3ed18163bce9204cU,
  0xbc18c6c1be3f3288U, 0xbd1646ecbd558037U, 0xbda313123ca56953U, 0x3dffbcc63cf079c7U,
  0x3ddf3b553d2dcfc1U, 0xbddc772ebdd91de2U, 0x3e449e15bd5adbb6U, 0xbf07a6c63bdfbdc5U,
  0x3cdb0f663c975f69U, 0x3e415143be3cf481U, 0x3e7af6523d0fd7caU, 0x3e634fd2bd046bb8U,
  0xbd4642343e1036fdU, 0xbd9f4d393bfa876cU, 0xbe1cfbd1be513ebfU, 0xbe22ee2c3e35a7b4U,
  0x3ea8715fbe2c7a4cU, 0xbdadcf873e2cdfd1U, 0x3c8591f5bce57c14U, 0xbd7b3af43e1e9266U,
  0x3e86aa993e0f8331U, 0xbe08de183d4bc2c5U, 0x3dd7d1683dcf7ff3U, 0xbcd73d08bde7ed79U,
  0xbd86e20ebd786a8aU, 0xbcc17a28be22e365U, 0xbcbc0dd83dc3fb14U, 0x3d214fbebe2d8f4bU,
  0x3d4178f8be32dec4U, 0xbdc3a91a3dcc482cU, 0x3e4caf153d2c7ca6U, 0x3e221a04bd9e2f12U,
  0xbd40b9d63d859528U, 0xbd835e84bddc024cU, 0xbdfb2d283df1ef77U, 0xbdfe412b3e44caeaU,
  0xbd2fba783e1f9ed9U, 0xbe96feb7be303c97U, 0x3e1262d93e066714U, 0xba3bc1393d9b3db0U,
  0x3e1336f1bcc62bc8U, 0xbdf92198bd41f35dU, 0x3daf111a3caba48aU, 0x3e5b8904be14f2daU,
  0x3d9d52afbc94d7c8U, 0xbdcaa6eb3db81b6dU, 0xbe52496f3cd8e663U, 0x3e7b5612bc8c036fU,
  0x3e64fe493e0c1083U, 0xbe4798ac3d89af5aU, 0xbe26d76d3e02fddeU, 0xbd580cdcbda8a2c7U,
  0xbe2d070b3ce3e17cU, 0xbde376fbbd1a749eU, 0xbd36b5d8be2c20b2U, 0x3d5e799fbdf46f5dU,
  0xbd8bb0dfbdc08689U, 0xbdb94503bda548d2U, 0x3e387c0a3e05b0cdU, 0xbe2bb1633e1298ecU,
  0x3dba9d53bc171a4bU, 0xbdf7957ebc9a425dU, 0x3b23c2e6be005148U, 0xbd0d65d6be224360U,
  0xbe3a62ce3e2f17ffU, 0xbbd6cd513db057a5U, 0xbd3de8603df9c31bU, 0x3cf70ea63cee9c32U,
  0x3df2c3d43d4198d0U, 0xbe25647dbe1f01faU, 0x3d725242bdbc0f6aU, 0xbd91dca2bd93d01dU,
  0x3e9e6a1d3d8b28caU, 0xbe62671ebd979af6U, 0x3e8df0463db7073fU, 0x3d2a7e3dbcfe13fbU,
  0xbe52c692bde4d45dU, 0xbba38796bd501f71U, 0x3cc794573e0bfb19U, 0xbe13e2d93e26c2b6U,
  0x3e8119b6bdb05a7fU, 0xbcd1c68a3b2f11b1U, 0xbd12ce91bcb6ff20U, 0xbe25db71bd5d17b5U,
  0xbe332f883e2e202cU, 0x3b1c2b0f3be20b37U, 0x3e0f537fbd119e25U, 0xbda26074bcf6913aU,
  0xbe126f803db35fcdU, 0xbe4e512fbe1f632bU, 0x3d9a27eebdd7bdfaU, 0xbc9cb063bdeac74dU,
  0x3d3a1739bcd31047U, 0xbe24a698bb5f92ceU, 0x3df488843e1c6fc4U, 0x3ebeebf0bd2b4168U,
  0xbd3acac93c2088b0U, 0xbdecc6383cf374c2U, 0xbea86e74be50c967U, 0x3e573e353bac94c1U,
  0xbd852bcf3ce3b829U, 0xbe3c4e48be20b032U, 0x3d420089be23a97eU, 0x3e63b7cdbda15ba9U,
  0xbc748ae53d45918eU, 0xbde6e552bb86a07eU, 0xbe050f803c2f534aU, 0xbd6b7585bd84609bU,
  0x3d5a90bd3d9adff8U, 0xbe1aa6243d0031fbU, 0x3e0183693df082f7U, 0xbe193b2ebcfc1852U,
  0xbd85bee6bde4ae34U, 0xbc6aa8503dd73254U, 0x3dfb9a7bbdcd009aU, 0xbe0523f83d75e4d6U,
  0xbc422900bd951aefU, 0xbda9e304be086435U, 0x3e1027203dc83de8U, 0x3eb15b1abd09a738U,
  0x3e2fffedbdb04e36U, 0xbe289f47ba930131U, 0x3d8617253c616b4aU, 0x3e0ed3ec3dfe807dU,
  0xbdc352b33e1a0dceU, 0xbe0cddaf3d0bf346U, 0x3c7215863e16cca3U, 0xbdbfcde83e03431aU,
  0x3d4b5c98bdec1094U, 0xbbd47408bd26f47cU, 0xbe3c9a39be2ab19fU, 0xbf46078fbe019017U,
  0x3e1de607bb928081U, 0x3e489b3c3d91e457U, 0xbdae4bf5bd17ebf6U, 0xbe11c7d73d2f8d35U,
  0x3eba5d6e3d5b6d46U, 0xbdb2f8a93c8acb9fU, 0xbe19329d3c877d47U, 0xbe0097aabd727e1bU,
  0xbdae6b4d3caad8d0U, 0xbcd449cabc99aab8U, 0xbdff81a7be23ed34U, 0xbd97b58fbca3dae7U,
  0xbe105953be2f2929U, 0xbd33ccfcbcbbfe28U, 0xbb021040bc9f8bf0U, 0x3ef6ae7b3bf41840U,
  0xbd430c5ebe47148aU, 0xbe8132a63e481fa1U, 0x3ead59183e5dff4cU, 0x3e2f1484be1f79ccU,
  0x3e8771a23aeccbe5U, 0xbe2d42f43dfe0122U, 0xbd2b65623dad8a20U, 0x3d4f8074bda52654U,
  0xbe0af9273de81b99U, 0xbe1ce4383db513a2U, 0xbb8b1b893d619e0bU, 0xbf69d1c03e20df1aU,
  0xbe4afd133c63652eU, 0x3e979277bd789623U, 0xbdd4e95fbdb32e52U, 0xbe3f5e1cbe39e412U,
  0x3d067b273e0c1d07U, 0xbdaa905ebe0b9e7bU, 0xbe19275fbd9155b2U, 0xbd9f38c93e24df19U,
  0xbd20683cbd2b3454U, 0xbe0361a83debc4a0U, 0x3a645100bd9fcec2U, 0xbe1991873e11c698U,
  0x3d2c20a1bda9bf4eU, 0xbd92f59b3dc55215U, 0x3dcfbc4b3d93946fU, 0xbd8622a43e1bf936U,
  0x3e04f0143da81ed3U, 0xbe3b5634bc0f6ab0U, 0x3dbdeed2bdafe535U, 0x3efe5497bd245ddcU,
  0xbe18ca463dcafecbU, 0xbd3081313d4249c7U, 0x3d70b8ae3e1701d2U, 0x3c9980c83dc493bfU,
  0xbe117cc1bda1c55bU, 0xbe06d2673e131652U, 0x3d0a6020be2dff2cU, 0x3d6fe269be0aa9adU,
  0xbeac6b8f3e092e87U, 0xbce1302abd0682fdU, 0x3e8521efbda10896U, 0x3c1cadaebdb248b6U,
  0xbd4930bbbda9d8b3U, 0xbe37d1163d37d8acU, 0xbd64e5d8be129779U, 0x3e1b2647bdced499U,
  0xbd21780e3d16e68eU, 0xbe2f82133d95fe39U, 0xbdddbfeb3e180aedU, 0xbdee6327bc21a610U,
  0x3d6bc1903e018b9fU, 0xbd8ec95b3dc4c72aU, 0x3e0451733da40370U, 0x3e6742d63d921d72U,
  0x3ca401c7bdc73d84U, 0xbdd46b8e3c8f7229U, 0xbe28006f3de2c8e8U, 0xbe3f27173d846c64U,
  0xbaf458303e08568aU, 0xbe606e9d3e1ef2c8U, 0x3de2cf71be362b81U, 0x3eaff26cbdec24c3U,
  0x3e8e7612be3338fcU, 0xbdb62579bdd03088U, 0x3d3bee37bd8db53cU, 0xbeca1312bae47737U,
  0xbdb8f3d9bccbf7bbU, 0x3dbd22683dc65755U, 0x3e7d224a3dcd613eU, 0xbcca49483e402d65U,
  0xbe2b96853d7c6fb8U, 0xbdc9f0b13dcba0b0U, 0xbdc3248bbdf7af32U, 0x3eba2c993df0688cU,
  0xbd37860a3c74b48aU, 0xbdb6b7db3aafeef3U, 0x3ce9da21bd9e9170U, 0x3d0700cb3e2509e1U,
  0x3e558a1b3cef9f92U, 0xbe1610bfbdb17071U, 0xbd61e50038c3a11cU, 0x3d96dfa6bd4ea57eU,
  0x3dc3c0cb3e114511U, 0xbde8eaa73db981f7U, 0x3dc82a613d945ba9U, 0xbd8d6ce3bd83bfd8U,
  0x3df4a7eabe0aad73U, 0xbdf2238b3cd92342U, 0xbccba91b3c86c966U, 0xbe9393e13e0c5bb7U,
  0x3ea712efbbd51f06U, 0x3cd5fdfa3d805ccdU, 0xbe3121763d269615U, 0xbe56a4483daedfcbU,
  0x3cb3cbab3d75887fU, 0xbc4c33c0bd1ec5afU, 0x3c5ead9d3d9f2560U, 0x3cd0e07c3e1417c4U,
  0xbdd7d34f3de07cffU, 0xbe3a6ee73cc7097eU, 0x3e089274bdb2b4c9U, 0xbc7a2e0cbe32d544U,
  0x3e68b902bd9f7380U, 0xbe08c4483e1de6f3U, 0x3d69b2463cd9873bU, 0x3df5f2363e29a588U,
  0x3d7ab66bbe2ee859U, 0xbe2343943ce1035eU, 0xbe00d5b93df6748bU, 0x3e974cb63de6da09U,
  0xbb95848ebe03d37aU, 0xbde474e0bd89d123U, 0xbe555b493d198b25U, 0x3f269b90bddf0005U,
  0xbe340448bc17c25cU, 0xbd59cd463e1619e6U, 0x3e8fa37fbce2e0a8U, 0x3dd2a1d3be15201eU,
  0xbe3cf8c7bdc40bf6U, 0xbc75862a3e2e916cU, 0x3e03eb473ca238b0U, 0x3e808530be4518efU,
  0xbe02ea1c3dca00cfU, 0xbd1199b93da74938U, 0xbdd58e683e21610cU, 0xbde6da4cbdf41a5bU,
  0xbdfd72523dd4e424U, 0xbe4a662bbd9a258fU, 0x3dec828ebe0763c9U, 0xbe32987ebd82ab71U,
  0x3e3da05a3e1697eaU, 0xbde6f8323c0b18f1U, 0x3d0d03103e03e605U, 0x3d725a243dde3923U,
  0xbe1f6d083d9edd26U, 0xbe70dbaa3d55b312U, 0xbd51cfc03d8eeb22U, 0xbd22e57fbdccd6a1U,
  0xbd9722773d7caaefU, 0xbcd85da63d9e3e6cU, 0x3da2fadd3c97ca54U, 0xbdfd6f3e3ddab637U,
  0xbdaf599a3cbeef80U, 0xbd080618bd09e31cU, 0x3e2069903b809180U, 0xbd15de603c9ec598U,
  0xbdbbe9bebe154610U, 0xbc93dbd2be0a98f6U, 0xbd9710293e124708U, 0x3e96abfcbce1a260U,
  0x3dcde2943d84e037U, 0xbcf26e313e01804bU, 0x3d9b38bdbd2b6338U, 0x3d3086febdaa2391U,
  0xbd450c9e3de23af1U, 0xbca8bff63c5b2ef4U, 0xbcd0165e3d4a008cU, 0xbdb013aebd4e87bfU,
  0x3b1db9a1bdaaa431U, 0xbd5d7dc1bded8b0aU, 0x3c0ab62f3d4a5be1U, 0x3c5c41afbbba55bbU,
  0x3e3c4249be19f581U, 0xbdbf7d423d9e066cU, 0xbe03f4ba3cd8dab8U, 0x3e9571bebe00bc33U,
  0xbd054baebd238829U, 0xbd13652cbdb72c56U, 0x3e5fae583e47efa9U, 0x3e0a8fedbdb1d0fcU,
  0xbacf55bf3e35facbU, 0xbd4b35fcbd8d721aU, 0xbe13ee2b3d88b666U, 0x3e1228ee3e38fb89U,
  0xbe1a1d17bd6bdbc2U, 0xbe777559bd21ddc2U, 0x3e02e2e83e27b9d9U, 0xbc2a7e5dbd7432c1U,
  0xbda5fa61be081e85U, 0xbde782c03e1fd962U, 0x3db049e63e115469U, 0xbe08437e3de358d7U,
  0xbddf70913d0ecd23U, 0xbbd5e3dabac3c021U, 0x3b67fb733c9b81d9U, 0x3e2ba78abe26b075U,
  0xbc8dff623dbd9004U, 0xbda736d6bdfd30e1U, 0xbd93dff9bd49b380U, 0xbda645083e5126c2U,
  0xbe01f754bd98532aU, 0xbc25350d3dbfc9deU, 0xbd12cdf8bdb4cfe3U, 0xbe0bc6a0bdd9e66fU,
  0xbd9349bcbcefcc8fU, 0xbd6210ea3c281658U, 0xbd93ffbd3d353659U, 0xbccadfa23d1a0a78U,
  0x3d366dddbde84318U, 0xbcd0c2ca3df6eb18U, 0xbde93248bc492991U, 0x3c605902bcd6384fU,
  0xbd80c01d3d551b25U, 0xbdb732cebe241275U, 0xbcec0974be07bdeaU, 0xbd09ae463e01cda4U,
  0x3c925acbbd3483d7U, 0xbe4422433dbca9b2U, 0xba75fe5f3d95815fU, 0xbd9d277f3dea6370U,
  0xbe070535bd832130U, 0xbc11432b3c78938bU, 0xbdecb8a5bd1a63f6U, 0xbd16fce7bb4ea84fU,
  0x3d91375e3e0656e1U, 0xbde534bebd89a4eaU, 0x3ca6f12dbdbb5b5dU, 0x3ecd08333d9c549cU,
  0x3c786e0fbdb4d78aU, 0xbd558bee3e23fcc7U, 0x3c909402bd8bb522U, 0xbdce7140bb8a913cU,
  0xbd954cccbd2fcc0cU, 0x3c9fd5febdd92d13U, 0xbcd969323e1999a5U, 0xbdb740223d42a869U,
  0x3ca57c5a3d9f86b0U, 0xbd6297913dc2580dU, 0xbe0691213e1b2d3eU, 0x3d20c8e33e288e43U,
  0xbd0da382bdfa4b40U, 0xbdf618e4bdd1123bU, 0x3de8a639bbf7f94aU, 0x3d15bfe4bdf0a968U,
  0xbd1776033e024ceaU, 0xbd297cc0be24c8bcU, 0xbd9258ea3c0f9761U, 0xbe9fa8cfbe2e4285U,
  0xbef5e6a0bc917a20U, 0x3dbf6a1f3e290fbbU, 0x3d0f631bbdf3074eU, 0xbcf5d1debdde5e26U,
  0xbe4b6862be2fe202U, 0xbe0678d6bdce9866U, 0xbbfe7388bdd33ad7U, 0x3e84bba8be214282U,
  0x3e6d67643c8a1c4eU, 0xbe32feea3e02ba1aU, 0xbe3ff49a3d9be750U, 0x3e54b53dbc3ea1ddU,
  0xbe19d555bdd6d57eU, 0xbdf5da353e0b02aaU, 0xbd9147bfbd9b5892U, 0xbcd7b8d63d2af9beU,
  0xbb88d62cbd4173e7U, 0x3c751ad63c987692U, 0xba27f4e8bbe92349U, 0xbca5aa5fU,
  0xbb5f870d3d20d0c5U, 0xbab1bf69bb6e2d36U, 0xbbfd86f63c9f47a5U, 0xbc0b8f0abc5a6609U,
  0x3d2883a300000000U, 0x3cb92d52ba90bdc0U, 0x3b771161bb3b231eU, 0xbc29c15d00000000U,
  0x3ab5c679bc6f0eefU, 0xbc221079bc69fcc3U, 0xbc9e158d3b49adacU, 0xbc2105f0bbe452c1U,
  0x3ab1086fbc3e1e5eU, 0xbc1b0652baa92700U, 0xbca78b38bcc439eaU, 0x3da659863c980c10U,
  0xbd043760ba625438U, 0xbb9a555bbb7860a7U, 0x3c59ec5aU, 0xbd17b8eabc0e9208U,
  0x0U, 0xbbc811c5bc0c260aU, 0xbc1f2e4e3cf7faabU, 0xbc551280bcfa6760U,
  0x3c8b01a4bc1acdffU, 0xbb5ffc42baf614efU, 0xbb9a3f0c3d4ab1b4U, 0x3d329f523cb070c8U,
  0xbb4180f13bff901fU, 0x3cef1a5dbbe18aebU, 0xbda3d1833c25234aU, 0xbb07c9cd3b05de57U,
  0xbd69cb8dU, 0xbbd3ed663c0b7604U, 0x3d35a7b4U, 0x3d84bba1U,
  0xbb937afbb91394b5U, 0xbb187cb3bb76d5c5U, 0xbb90de53U, 0xbceec72fU,
  0xbb3ec7d3bd232a9bU, 0x3c582ed53c803db3U, 0xbd36f4f13d884863U, 0x3c0400c4bc8b556dU,
  0x3d1d256900000000U, 0xbbe7d60bbcfe7fa8U, 0xbc57cfd2bb9a6a88U, 0xbbaab699bca12a35U,
  0x399ca2c03cbf4e0bU, 0xba9c3091bc05f99aU, 0x3c98f5bf3ccf4bccU, 0xba2d503ebc2743eeU,
  0xb96d0702bc3612b4U, 0xbc689bdfbd63a312U, 0x3a0d229abd0daee7U, 0xbb0ee7c8U,
  0xbc61d8983c464e7dU, 0xbc01a42fbb8bebeeU, 0xbac2a705bbddd3c9U, 0x3da355af00000000U,
  0xbb41aaa6bc0eaafeU, 0xbb8567c1bd0aa592U, 0xb9870ae600000000U, 0x3c635bd2bbb14575U,
  0x3d14b5e300000000U, 0xbaa4b583bbfb1e9dU, 0xbcb4de69bbc5da3aU, 0xbcc005d4bc39f6b1U,
  0x3d052922U, 0xba85f9533c14f37fU, 0x39d2e47bbb9e4140U, 0xbbbf9f5cbd059825U,
  0x3c8a3ab1bba9389bU, 0xbc9cd8a0bbe30695U, 0xbb3d8a693d68d524U, 0xbc21c3933c0d92ecU,
  0xbc3479a1ba9c653bU, 0xbacdd111U, 0x3b15bc6fba72c692U, 0xbad9b21cb9477069U,
  0x3cd734c6bbde5533U, 0xbb89f699bd0e3fc1U, 0x3ad9890abb3ce9feU, 0xba26f954bcad3cb1U,
  0xbae6cc3cbb97f1b6U, 0xbbfcad15bb3e951fU, 0xbb8b62e4b9864c84U, 0xbc10b2bc3ae801d7U,
  0xbb6107a8bbb242a5U, 0xbc8b7f14b7f6d470U, 0xbd05f61fbb95e721U, 0xbdf771bcb9b60dedU,
  0xbc24bd5cbdf159acU, 0x3bbbfd963d7da793U, 0x3cf6b653bd56db75U, 0x3dae5c5cbd8bc321U,
  0x3ddc38923d12ff57U, 0xbd27973e3d6380f9U, 0xbdff4a6e3d25d5d8U, 0x3dbf10483c8649adU,
  0x3d8ae9883d812d1cU, 0x3c6a44403c59867cU, 0xbcc103f9bdbc94ccU, 0xbd430950bd4e46f2U,
  0x3dcb1945bd011804U, 0x3cc94943bd131e12U, 0x3b07de81be05a2f2U, 0x3dcf9a733d454833U,
  0x3de41fc1bd603b82U, 0xbe10f5683da81c10U, 0x3e09a387bc7e9b02U, 0xbe06bd25bd84dbd6U,
  0xbc8268043da97588U, 0xbd295e15bde4fa72U, 0xbde270ac3d461f1dU, 0x3d804332bdbea19dU,
  0xbcf9f8a4bdc36592U, 0xbd146c9abc6007a3U, 0x3dbfa47e3ca1f9a7U, 0xbcf64621bd7afeaaU,
  0xbcaf8ee73dff3a22U, 0x3d65e0fc3d8bd6a4U, 0x3cf602e13d21c95aU, 0x3d0ed028be0601e4U,
  0xbce5cf11bd697b33U, 0xbdade095bd9168abU, 0x3da4aeb53bd2529bU, 0x3d73dcddbdf6a78cU,
  0x3d6b5a48bd9f06d7U, 0xbe0465af3db04355U, 0xbdbd8f523d55b1dcU, 0xbd86e56e3c294c95U,
  0xbddb5ca13c1657ebU, 0x3d86c25bbdb44ef4U, 0x3c85f5083d40c8c8U, 0xbd081ab0bde4ee8aU,
  0x3df50f33bcbc086eU, 0xbe1c1fc7bc88266aU, 0x3dea5fedbe0adae6U, 0x3df10e863d5f216dU,
  0xbc5eddbb3d1d1bd8U, 0x3dda65763db59ca6U, 0x3d8f2fafbde7c8afU, 0xbdaff2283d9428efU,
  0xbd1fb819bd7a9595U, 0x3dcf5bb5be09b6bcU, 0x3d6dd4733d9a2d47U, 0xbc2878e7bc0c4822U,
  0x3dbc5d223cccd173U, 0xbd8ee93c3da3ee8cU, 0xbdcb8c84bc3aff53U, 0x3db1b52e3cfe0e3cU,
  0x3dfac7af3dd2e2d1U, 0xbcfa57eabe0c1132U, 0x3d0962873d259964U, 0xbd4171683d85337aU,
  0x3dd3f635be01819cU, 0x3cc04306bc30ba58U, 0xbcbb47cfbd4b81d0U, 0x3db357163dd67efaU,
  0x3c3564aabdce182eU, 0x3d9a0b773e102a62U, 0xbd77182f3dbc01bbU, 0xbdafc3babdee8151U,
  0x3dc9fef03da8d270U, 0x3e100ca9bdbdbac5U, 0x3d98e595bda2f25dU, 0xbd038e44bdb84c71U,
  0x3dee2a61bdfea93bU, 0xbd0acbc73d86979bU, 0x3dbd4f473adf39ceU, 0xbe189e093d5e77f7U,
  0xbd0105ebbd5c61d6U, 0xbc824208bda85a7cU, 0xbe19e171bd3b2ec2U, 0x3de971c43d1744bcU,
  0xbdbd5395bd266a66U, 0x3dc41a62bdc4356eU, 0x3cbca0e83d59dfe6U, 0x3d88f15e3d88bf56U,
  0xbdeff21bbd892707U, 0xbd71a48bbc943f18U, 0xbe06a5f43bad2a63U, 0xbdafabd63de03b7cU,
  0xbd5187d23de4a3b8U, 0x3da59dab3c76cb00U, 0xbd2df8fb3c73fc4bU, 0xbd68689fbca25c1eU,
  0xbc7c7199bdfedef5U, 0x3d88adf2bdcd327bU, 0xbdff17d13cc74602U, 0xbd0434863d7442e2U,
  0xbe1b0b8cbccf2470U, 0xbdbfc2b13c82c7f9U, 0x3d5fb78a3dd1efffU, 0x3db3a8343db9c165U,
  0x3d88211f3dea02e0U, 0x3e04f46b3dff3728U, 0x3df95b5d3c839c9eU, 0xbd42fe993dc85c32U,
  0x3d0bcc50be18d860U, 0x3cf87b9cbdaafc86U, 0x3b9553c1bda4425aU, 0x3d0d7865bd8602c9U,
  0xbd7e80e43dde9104U, 0xbb28b8d0bdfee0ceU, 0xbe21cdfcbbb046b6U, 0x3cc55c1dbdbd747fU,
  0x3b2f7041bddef39cU, 0xbd180b173de8aa7bU, 0xbbf3e2603da2ed03U, 0xbd97041cbda2644dU,
  0x3e067308bdd2a250U, 0xbde56048bc912077U, 0x3ddf985d3d583e50U, 0xbdc7c5c03d7dec3dU,
  0x3c8d82013d6a5444U, 0x3cdb2e54bdfe2ad7U, 0x3dbafcbfbd8c78bbU, 0xbd0135ee3c8aa553U,
  0x3dd943a8bda5c3deU, 0xbde264863ac513cfU, 0xbe0d1b73bdf0c8a2U, 0xbd3e8870bd17ed4eU,
  0xbcef8ff4be230276U, 0x3d3c6a53be123671U, 0xbd95b6cdbe121bccU, 0x3df8d4c0bdc7f268U,
  0x3bf4a8673de50d20U, 0x3d37fef23df972f9U, 0xbc9b0900be200aa3U, 0x3d8b7cca3cd7d584U,
  0x3d8fc01cbddaae15U, 0x3cbda269bced8238U, 0x3e01593f3d975203U, 0x3d4901683c5a378fU,
  0x3d8046833def7364U, 0x3dddb366bda36bdcU, 0x3de5ba88bdea5c43U, 0xbd9d4bccbde7bd56U,
  0x37e900003e0b3c39U, 0xbd047503bdf87f59U, 0xbd170364bd9de41eU, 0xbdf99ad8bdbe40c5U,
  0xbd7c929d3ca6a9b3U, 0xbc8e788fbda41527U, 0x3dd3a77abc906f7eU, 0x3c1f9060bd421081U,
  0xbdf13329bc6fb0a2U, 0x3cdc7c66bdab75b8U, 0x3da28e4f3dafcedaU, 0x3cc3ea40bd910883U,
  0xbd6fbb7fbd9bb4e5U, 0xbe07629a3d2255fdU, 0xbdeb9a32bda0b59aU, 0xbe2d79203c2e0230U,
  0xbe1ca8e2bd29922cU, 0x3ce2c4f93d15f666U, 0xbd524a4c3d9010bbU, 0x3ccfcd56bd97d939U,
  0x3dd8f0e4bdd8af2fU, 0x3be58dfdbcb871c2U, 0xbdf2e471bdd61c14U, 0x3d8e1bd3bd90fbdeU,
  0xbdfac7a73e07f793U, 0xbde61a8dbd3b2255U, 0x3dcf493abd2358d8U, 0xbaae6a94bdd04521U,
  0xbe0eaf1abde114efU, 0x3dabcb54bd455ff0U, 0x3d8c7a72ba189bcaU, 0xbbdc8a893e077012U,
  0xbc20907cbd500547U, 0xbe0381cc3cb20af9U, 0x3dd4c3283e00e752U, 0x3d174f39be046a59U,
  0x3df606533d4704a4U, 0xbe1960193c9ca71eU, 0x3e10863a3dd6d504U, 0xbcab9ce7bd0e4779U,
  0xbd83dddebda9e44bU, 0xbd862b7f3da96212U, 0x3d96bc81bdff8076U, 0xbd2c40013e0704cbU,
  0x3d599dcebcdc9ebbU, 0xbdc25f5e3d16e938U, 0xbcd8b5e9be14b143U, 0x3db916febc4dde9eU,
  0x3da0892abd54de40U, 0x3d9777cfbd785220U, 0x3d4b6e463b9e3042U, 0xbdec8a343dd8315dU,
  0xbd17c5183d12726cU, 0xbdccf1fdbc14f098U, 0xbd9d81da3dc4066bU, 0x3dc87926bd1b3f9aU,
  0x3cf257d5bca8da84U, 0x3c2720213d7ed7c6U, 0xbd84c71dbe0d53d4U, 0xbb738e693d0e8487U,
  0xbde9d201bdbf537cU, 0xbd8f9431bdaa09f7U, 0xbd2be3c5bd3de979U, 0xbe0ef70dbe1d61ccU,
  0x3dc5c3153e0998faU, 0x3e07a9893db8116dU, 0x3dcbb794bdcd3c2cU, 0xbdcae72b3d6596bbU,
  0xbcad70403e0a7cdcU, 0xbe07488d3daaf9f2U, 0x3c88b86dbde58d57U, 0x3c08a3053dc50df9U,
  0x3d272d44be11b631U, 0x3d8f23a1bda7bd7bU, 0x3bf1a37d3d2d2f8dU, 0xbba4416cbd0179a1U,
  0x3df07f063cd2c364U, 0xbdedb6dcbc6b4124U, 0x3cd96a7abd45df0fU, 0x3db08d8e3d8356cdU,
  0x3dd33dd63d247875U, 0xbdd4b398bd935d9fU, 0x3d7b8564bdc0b168U, 0xbbfd5d003d9bb99eU,
  0xbdb24ddabca9f6b4U, 0x3d9cfbf73b99f89eU, 0xbe12bd0f3c2bbbc0U, 0x3d3b4a58be1143d7U,
  0xbddb6a993db522b0U, 0x3d8757c03d9dff27U, 0xbd56c5e9bc99a114U, 0x3db63d933d788c94U,
  0x3dedc7cb3c2de880U, 0x3df1f5583c163eb3U, 0xbd2bd4603d787618U, 0x3dacadb83da71da8U,
  0x3dc163dfbe0b3bd0U, 0xbdab3d1f3d654f2aU, 0xbe0ded3ebce5985cU, 0xbcda7126bcd9997dU,
  0xbc8279c3be1c5000U, 0xbe0756afbe07699cU, 0xbb99417dbdde9249U, 0x3d435864be0c69a0U,
  0x3b42dea8bd3437eeU, 0xbdc10bca3d740c86U, 0xbe0f9d9c3d95e10dU, 0x3cd8d779bdae637cU,
  0xbdc918403d1d88a0U, 0xbd183cdbbdb36ab4U, 0xbd9abc93ba8a6380U, 0x39d9d1803e07ed8eU,
  0xbe1106353da27f5eU, 0xbdc02ec33df432d3U, 0xbdb38f8d3d8b0ceaU, 0x3d6757f03de1080fU,
  0xbdab181a3d6a42b1U, 0x3d8d640f3e01d119U, 0x3d8906dd3df32c33U, 0xbe0c2883bcf675e4U,
  0xbc674cd0be01b8cbU, 0xbd9343f73baad1ebU, 0xbb770bbabdba1463U, 0xbde3d2623d1d35a6U,
  0x3d6a49493e137ecaU, 0xbd4f2170be0369c8U, 0x3d4662943d375992U, 0xbdbc72e83d2b4af8U,
  0x3d498239bdc3b446U, 0x3d216441bcb197a9U, 0x3c15e3d8bdcdea98U, 0x3d68c3c93da2578fU,
  0x3dbab1ce3da56514U, 0x3ded684a3dc7e219U, 0x3d99ce8cbdf4b371U, 0xbd99c5d6bd5f9451U,
  0xbd83cc30bcad6b6fU, 0xbd9f9575bd954fedU, 0x3d51fda63dd543c6U, 0xbe270ac5be02c6fbU,
  0xbe18fcb6bbceca13U, 0xbcd2296d3c2a4397U, 0x3d44027d3dbeecacU, 0xbdff7c5ebc692745U,
  0x3d5ae3a63d2a3910U, 0xbc7ced6d3d4eec2cU, 0xbd4b68b3bddd472eU, 0xbe0e644bbe124d4eU,
  0x3e25b779be0efd6fU, 0x3dfc1901bde0d3d6U, 0xbd87636c3c5326f3U, 0xbced63ed3dc22c98U,
  0x3ddeff8dbca659e9U, 0xbd3444c7bde260abU, 0xbdd6c857bdc4d7e5U, 0x3d8ac7243e13b47dU,
  0x3d5e62733e066af8U, 0xbde449693db43875U, 0xbdd9a3d7be214c08U, 0x3e1b42a0be1d7c32U,
  0xbc29ce513cf442f5U, 0xbd333e3b3d4d33e9U, 0xbd861559bdd55d0aU, 0x3de7c3413d4f7af7U,
  0x3db571a2bd0dc0d0U, 0xbd8ca0c7bcd816b9U, 0x3c799640be098718U, 0x3b9f388ebdfa9e57U,
  0x3e3f72ea3d9aa67eU, 0x3c182b3d3dd9891fU, 0x3ddd704c3e12cffdU, 0x3da28b993d0fa8c2U,
  0xbdae765cbd0e52c6U, 0xbd3bc8f4bde9d5e6U, 0xbd3afbf33d0e19c7U, 0x3dd5ff74bc9603b6U,
  0x3dbf713a3c81cce9U, 0xbe2145323e045830U, 0xbd9c184a3d5f0127U, 0xba5d9a003d9b92cfU,
  0xbe1641d3bd055c34U, 0xbda2360f3c62224fU, 0x3ce225f0be0b28c3U, 0xbd92fd3c3cf7fd0bU,
  0x3d239564bd0e9f2dU, 0x3cb53941bd90fd52U, 0xbc67b604bd74c21fU, 0xbdc89b3abdfadbbbU,
  0x3de3ab2dbdcbb242U, 0x3d122c9dbd3c4a15U, 0x3dad42babd258363U, 0xbd5b807bbd689bcbU,
  0x3d4e22bdbd80983eU, 0xbe0194debd872ba9U, 0xbcc219733dea6e4aU, 0x3d28dda0be2592f9U,
  0xbdd280aebb8fb389U, 0xbceedb64be319c76U, 0xbd8ba311bc58d334U, 0x3d3fc8583a49b1e6U,
  0xbdcfec643c0f569dU, 0xbe01460b3db1de4aU, 0xbe08e8ae3b4b79f6U, 0x3e218bfc3df217c0U,
  0x3d08e702bdcaed48U, 0x3d8cca2bbe2e61f9U, 0xbda38e373e053a62U, 0xbde9493fbdc67c59U,
  0xbdbf0bc23dddf6bcU, 0xbd9942f3bd2a02bdU, 0xbc099b623b8b54ddU, 0x3dcd9ed8bc562dc5U,
  0x3b166e803c5384c2U, 0xbdac5a23bda01b9cU, 0xbd8ee3ae3dcaf285U, 0xbe014f11387b2ac8U,
  0x3d4b93e0bdba9bdbU, 0x3d91a0443dbd7810U, 0x3df471fe3d974f1cU, 0xbd40119dbcdc59feU,
  0x3caabf5abd386b64U, 0x3e07c0b4bd309ca5U, 0x3d9890c33cb262eaU, 0xbd4dc44fbca2a484U,
  0x3d81b960be1f9cd0U, 0xbd42f365bd176c25U, 0xbd51777e3c92209fU, 0xbe11ef4dbe35be4cU,
  0x3dbac3d53de87be1U, 0x3d296feabd93075fU, 0xbd62e193bde583f2U, 0xbc648cb3bbcf292bU,
  0xbe011894bd952ff3U, 0x3dccf1b4bdbccf20U, 0x3ce815fc3ccf6d5cU, 0xbdb7924dbe199bb8U,
  0xbca1e98dbe0fd3ecU, 0xbd8d82d93e0523b6U, 0xbd7e95afbe0b7814U, 0xbcf2f79c3ce79538U,
  0x3d9c918a3e1c6973U, 0xbda0d642bd0edf59U, 0x3d6031f2be00632dU, 0xbd8b52cbbe2d7bc6U,
  0xbca2aec0bd5f3296U, 0xbd50ffefbe09b0b0U, 0xbc063ea3bdb91037U, 0xbd914d8e3d783c00U,
  0xbdac655abd803d4dU, 0x3e013988bdfaf6c8U, 0xbdeb8c7f3cbb994cU, 0x3cee0718be16b1f6U,
  0x3dfff2233cce3dfaU, 0x3e1c6ffb3bcb1500U, 0x3d6a212b3dc589ceU, 0x3d8fe3e8bc7efcb0U,
  0x3d6f8dd9be0829afU, 0x3c0d1466bdefac93U, 0x3dd698323e2979f2U, 0xbdea89e2bda090fcU,
  0xbd4e4f643e099658U, 0x3d1a2b863d832ba4U, 0x3da8ea4b3c43f7aaU, 0xbd5d6f39be1912dfU,
  0x3d89f3f43e113d6dU, 0xbde6641d3d825f39U, 0xbd04103dbdea649dU, 0x3cbe4e08be03c2bcU,
  0xbc852e9c3dcd59d7U, 0x3d305362bdb63601U, 0xbe41e34e3db83abcU, 0x3d08ae6f3c095adaU,
  0x3e0bc89cbe3db5c3U, 0xbd9a075ebd984567U, 0xbc1917603c703f13U, 0x3daf84163e492a51U,
  0xbe0cc6cdbdf33dc0U, 0xbcdab842bdcae57bU, 0x3d9131d0bde9f993U, 0xbd0a8e863d39916dU,
  0x3dc0c7cfbe221f1cU, 0xbca9ceff3b820644U, 0xbe2156e9bd808a55U, 0xbd8806623e06f29eU,
  0x3dbe1be33cdcefa0U, 0xbd72951bbce30b8cU, 0xbc91adb4bd9ad605U, 0xbc0b6fcabdd271beU,
  0xbdce8fa33df607d7U, 0xbd625a15bded345eU, 0x3db6c02e3dcfa092U, 0xbda1251ebe040a6fU,
  0xbb5de4b13dd80f18U, 0xbdfcbb13bb8a91caU, 0x3dceb09fbe0c2f72U, 0x3dbfe8dcbdcdd85aU,
  0xbe16db583be47a9bU, 0xbe6a583bbbeafd0dU, 0xbe019790bc8cf142U, 0x3e739b573c222090U,
  0xbe0bc0a03dca63e5U, 0xbe107cdcbdce4ef4U, 0x3cc14d80bdf5399fU, 0xbc35adc7bd92580aU,
  0xbd8399ffbcc4ae80U, 0x3c85de48bbbb8580U, 0x3defe9b73dd5afc7U, 0x3d658697bde838b6U,
  0xbdd98fa5be3df732U, 0x3dad67353bdcf062U, 0xbdcc18cebe08f377U, 0x3dc1da37baed8312U,
  0x3e022cb6bcfdb512U, 0xbdb356073cb87228U, 0xbbd6a6763d168692U, 0xbd49fbd93aa24638U,
  0xbdaed582bddbaccdU, 0xbd7bf0ce3be1a640U, 0xbd5b0d413be9a531U, 0x3c89b9a0bb3436ddU,
  0x3dd79b583dffc7dbU, 0x3c9a17f03cc44495U, 0xbb9a66773dea302bU, 0x3d76b175bdc6538bU,
  0xbca56844bdda1707U, 0xbd92e039bdf938e5U, 0xbdfa24403d0c5be8U, 0xbd2b147abdd45296U,
  0x3dcc95c5be0eaa74U, 0x3d43589f3cc23807U, 0xbddc43c6bca6a0cbU, 0xbdb848bc3d98c7d3U,
  0xbae9ea6abcafe14fU, 0x3dbee751bcde981aU, 0x3d3a5f95bdd40ab3U, 0x3c6ca110bd0a3a5eU,
  0xbdc3022f3d647b29U, 0x3dccb4c4bd924cddU, 0x3bac7032bcd8898eU, 0xbc8196263e0e0960U,
  0xbd852a8fbc1fe640U, 0xbc81ea263d650da5U, 0xbddd0eb0bc17bedcU, 0xbe02b3f1be108a10U,
  0xbb90d426bda7ffbbU, 0xbd708fc13d57c666U, 0x3dcf89e8bd4ea4aaU, 0xbd88abb33cc9a152U,
  0x3d8d5b85be02a31aU, 0x3dcc509bbc89f758U, 0xbd98d943bdec6bafU, 0x3ded51bb3df3b087U,
  0xbda6bc8dbdb818d1U, 0x3e04f5163df9e306U, 0x3c42b5403dc47cc5U, 0x3d900a3e3dd35b6cU,
  0xbdafcaec3c89ee08U, 0xbd8b77f33cbac0a2U, 0x3dc0b6cb3d80a529U, 0x3d1388183d07e558U,
  0x3c0021463bbe709aU, 0xbd80489d3dd518eeU, 0x3d3c9893bcec92e1U, 0xbc9e6a1cbd9d41eeU,
  0x3d96508c3c8b4bbcU, 0x3d1e137d3dad6397U, 0xbddb31c93df58f6eU, 0xbd99c92dbd019d5dU,
  0xbddfcbc03de62bf1U, 0x3de36180bc95ce0cU, 0x3d643d4cbd295f3cU, 0xbbbd8920bd91aef3U,
  0xbcf2b01e3c0f7c22U, 0xbe06e887bca44af4U, 0x3c692040be0379eeU, 0x3dc23534bc014a37U,
  0xbd923d8d3d9d7b20U, 0x3d89d31d3d0ec318U, 0x3d9bed433d3b0df2U, 0x3c2ad177bd8afa6cU,
  0xbe07351abc38da80U, 0xbe09643abcc75022U, 0x3dc7338c3d92c92fU, 0x3e1328d6be01aea7U,
  0x3d073f413ca4d2ebU, 0x3da601cebe064ddfU, 0x3d79b51cbdc9b143U, 0x3e0751133de4bab8U,
  0x3d37baf5bc97fcf6U, 0x3d262412bb731c86U, 0xbccd1a4d3d08ca5cU, 0xbde2d5babd96685aU,
  0xbdc92a14bca20025U, 0x3cf10e80bdd7cdb3U, 0x3ce187e3be009154U, 0xbd756e89bd19aac6U,
  0x3dd5236ebd6f38d8U, 0xbda3b898be0302bdU, 0x3dbbc20fbc9f7db4U, 0xbdbbcafb3deedbb6U,
  0x3d16f5e63d4a2784U, 0x3ddb309fbdb6a0cbU, 0xbe0794353d9e458dU, 0x3da372f4bd2ed45bU,
  0x3d7cf650bd89b13dU, 0x3d54976cbdb9908dU, 0x3d2a98353d51d0bcU, 0x3d156befbe199060U,
  0x3d2a62ee3deedc16U, 0x3df5fa6bbdbc9a83U, 0xbddad6cdbdb24cd7U, 0xbd322c9bbdae9d58U,
  0x3dcf2551bd6c1813U, 0xbdb6ea5f3e04f888U, 0xbc0d98d0bd8b5450U, 0x3cdaa5603dc5b259U,
  0x3dd2c39b3da9a5cdU, 0xbda1e0d1bd9b3e8fU, 0xbd8e08493d69a293U, 0x3d730ed83d06e651U,
  0x3cab9f993d10ec62U, 0xbc3034d1bd53a2baU, 0xbdd454aabdb0da62U, 0xbdf9e7e1bd0c8f40U,
  0x3e085874bb03c0a8U, 0xbdafe32ebd9e9900U, 0xbde0834d3dadcd8fU, 0x3da02e89bdfa28feU,
  0x3d78ae9e3ccf2a0eU, 0xbc580e05be256625U, 0xbd335c4ebde5bd15U, 0x3c7885b03d92df70U,
  0xbcf80b50bdca9bcbU, 0x3cd36cbcbdba0547U, 0x3dc3d990bc899b26U, 0xbd37d32bbd03f863U,
  0xbd146092bdac60cbU, 0xbcc07372bc93df10U, 0xbdc44426bd8e9e96U, 0xbe0abe64bde777ceU,
  0x3da01f4abb0545d3U, 0x3c81d27e3cb2e4bbU, 0x3d2b87ddbde67265U, 0xbd93d7ddbc290bceU,
  0x3d2004c7bda4939aU, 0x3cd37387be114c99U, 0xbdd8fed23d831ee4U, 0xbadc9dc2be2f6929U,
  0xbdb886fdbe007119U, 0x3ceda874bd91b35cU, 0x3e03c1fcbdaa042aU, 0x3d89e0c63d2d68aeU,
  0x3c1788c0bd6c98eaU, 0x3d609945be0db2f2U, 0xbe31ae2d3c5f5903U, 0xbd8465a53cb89ceeU,
  0x3d5db7ac3dbd65c3U, 0x3d2ea8473d9d5aa4U, 0xbd9349193d0db98fU, 0x3de46d8d3d46c074U,
  0x3ca0ecc1bdd0fab3U, 0xbc91b7eabdef29acU, 0x3df96224be1f01c0U, 0xbdea61f53d63e00cU,
  0x3d023b04bccadce7U, 0x3cc2e1a03d2cbc9eU, 0x38eb80003d9edfa1U, 0xbd7c9d70bdf93502U,
  0xbdf672f3be0ec403U, 0xbdf335663d8dc11aU, 0x3d92ac88bdc8ec4bU, 0x3e1176aabe078b55U,
  0x3dc3c6ed3ce158b5U, 0xbe0197d0be14574fU, 0xbdb05c5ebd310ebbU, 0xbdb4a3b13dc2e0c8U,
  0x3e0774943e069d02U, 0x3db7eb30be050742U, 0x3dbe6af63d240530U, 0xbdc035d43d82c517U,
  0xbe0a21e43bac214eU, 0xbdfaaaa6bdc004a3U, 0xbd348dc3be0c4335U, 0x3d85737cbc823879U,
  0x3c4d4390bddef7c5U, 0xbd9cf99a3de2bcb0U, 0xbdc48a203da4ec0eU, 0x3cf23a503da90395U,
  0x3ce201653c481283U, 0xbd751e253da6564eU, 0x3d8cd1df3d4669b0U, 0x3c200eebbc9ff7d0U,
  0xbe00cadc3d11a3e9U, 0xbe1d0135bc7a8786U, 0x3dae069e3e0b0d24U, 0xbe1950b1be009e20U,
  0x3d179ad43db98962U, 0x3dce78573a3b031aU, 0x3dd7b6be3c6ec271U, 0xbe1acfae3d5ac860U,
  0x3e110b183d1dbe75U, 0xbc84bd18bc34b471U, 0xbdae8c9a3c027968U, 0xbe2356e6be134afdU,
  0x3e0326cf3d701f3bU, 0xbd00640abdb00d49U, 0xbda2df3fbc8fabe3U, 0xbe2fee7f3db382fbU,
  0xbdd9c67e3e0e00c8U, 0x3c5eb3e03b6ce85aU, 0xbd06abdabe100784U, 0xbd9fa484bcb22684U,
  0x3e07ec8bbcc1bc42U, 0xbd5dde0c3d427ca9U, 0x3b8604e63e1191f4U, 0x3e034f91bcf8411dU,
  0xbe1f074ebd7d4b8fU, 0x3d98bdec3c9d711aU, 0x3e0441733dcbd780U, 0xbe39bd78bdadfbafU,
  0x3dedecf0bddc1298U, 0x3d8ad6f23dfac830U, 0xbdd2e6b43d2b0e5dU, 0x3cc612ce3d5c1656U,
  0xbde5dad13e1b3b18U, 0xbcdc2930bdf7df90U, 0x3d9ec28c3cdc8c98U, 0xbe0d527ebd38e0fbU,
  0xbd364b2bbd87c193U, 0xbb783005bb8e41e0U, 0xbd76c45ebdb71dccU, 0xbdb7037b3daa5d31U,
  0xbd9ca314bd5748f4U, 0xbda68bb63dd16de0U, 0xb7e54dbebb44ce40U, 0xbe0a27fd3bca6b40U,
  0xbd31011bbdc458d6U, 0xbd6b0f75bdc51b4fU, 0x3d659e66bad59d86U, 0xbdc9d5dabc355548U,
  0xbd826f153e0ef816U, 0x3d7f0dc7bd16ef22U, 0xbd1c55abbd44a2c7U, 0xbe10e0a93d4a1d01U,
  0x3c5734ef3de1120cU, 0x3ddddc883b857e40U, 0x3d8655383e2dd191U, 0x3e12d2b6be10f17bU,
  0x3d2740143da95f0aU, 0x3ceb1fb5bddda91eU, 0x3d2a1d7b3e007109U, 0x3da77c2dbdc7f45aU,
  0x3dd452cbbda5b8faU, 0x3c9715203c94b2a8U, 0xbd92410dbd6d3a93U, 0x3e0369eabdd78d44U,
  0xbdbfd206be00c61bU, 0xbddeda1ebdebf352U, 0x3e7ff9213c5a1c36U, 0xbd5fdb24bcc14a34U,
  0xbd8e3c5d3e46ca83U, 0xbdfbc3143c96a715U, 0xbd932d7bbdc445a8U, 0x3e0edd2abccb04c7U,
  0xbddd26fc3d02d28fU, 0xbd871555be133f19U, 0x3e01a190bd2e785cU, 0xbc8079f83e12111fU,
  0xbd6b026cbcaff9b4U, 0xbb41ae353deb18c1U, 0x3dcb83f73d614273U, 0xbe049f06bc3239c0U,
  0xbdc056df3e1377f6U, 0xbe0e7b673df7aaaaU, 0xbcc5bff13c6d37aeU, 0x3dfec9fc3c023f77U,
  0x3b8217003dafe13dU, 0x3d309380bd793afbU, 0xbdfc9a36bd5aa660U, 0x3d8d6b7cbcc00b40U,
  0xbd50ad323e034e50U, 0xbddd30953e56927fU, 0xbdc53ddd3da0cd97U, 0xbdce8af6bd8f54cfU,
  0x3e25a03a3e1e72eeU, 0xbd49b79bbca710a6U, 0x3dbf2082bc6c3af7U, 0x3cae27063df3429cU,
  0x3e094772bdbc384cU, 0xbd81f864be170038U, 0x3db575ee3dd88d18U, 0x3d7d3863bdd36961U,
  0xbe1121543d279f90U, 0xbdb381843c07cde0U, 0x3db6a3adbd09122bU, 0x3db4736a3df50704U,
  0x3da92974be2011d1U, 0xbe05daa5bd5a12c1U, 0x3d2f5e4b3b0d80bcU, 0xbe04f0323dc0fe7eU,
  0xbd8c61843ddaabe2U, 0x3d96de24be0ea90fU, 0xbe017dc4be13e3d3U, 0xbcca700c3dad4481U,
  0xbd0d928cbe07f793U, 0x3d330d64bb93e2a0U, 0x3e0aad70bdcb5c3cU, 0x3d0d51f4bdb65a68U,
  0xbd3db983bd8617baU, 0xbdb67cef3ddd9c9eU, 0x3db253013d51da6aU, 0xbdb831503d1fcb89U,
  0xbd1366f1bd754eeeU, 0xbe0c2fc2be052d43U, 0x3df9e8bcbd7e5efaU, 0xbe039a503d352512U,
  0x3d5f88853d7820c4U, 0xbdee6f393d53bc95U, 0x3df65b3cbc4420d0U, 0xbd82b56fbdd71846U,
  0xbb4609c03cdc3a30U, 0x3ba62280be07b300U, 0xbd5d152ebdbef837U, 0xbbd9fc60bda53812U,
  0x3defa9a13d236e59U, 0x3b0b54c0bcdeb3e4U, 0x3e09d1debe1a1ccaU, 0xbd192b8a3c8e57c0U,
  0xbc94fb1f3e05e91aU, 0xbdbd44ba3c934148U, 0xbd70a48abd3f0c06U, 0x3e0946803dc30298U,
  0xbd20f3b03d6a3108U, 0xbc81f41b3de1d357U, 0xbdd7a4c8bd1481caU, 0x3d2bd020bd4bcb71U,
  0xbd0f551a3c3ee4d0U, 0xbc8248f03e109996U, 0x3d32e169bb1f6580U, 0x3ddee3afbd68ac9cU,
  0xbdb363873dbdeb7eU, 0x3da0eedebd3cc334U, 0xbd682710bdf9024dU, 0xbe06766f3da92004U,
  0x3d3ebf20bdaeee44U, 0xbe10abe7bdeb15c8U, 0x3e0a7cd2be0c59e3U, 0xbd67fc8ebdf69707U,
  0x3dbabae5be056288U, 0xbc908b30baac1600U, 0xbdfdd4723d85b390U, 0x3db7ca04bde28bb6U,
  0x3bc583803d188715U, 0x3dcd06fabd20d532U, 0x3cc295483d71fdf8U, 0xbe039a763ddfdae8U,
  0xbe09c1d3bde6e298U, 0xbd608816bd280c3eU, 0xbda6930ebdc66a6bU, 0xbe100ddabb65c2a6U,
  0x3d8664e63c926228U, 0xbd835fca3dadaec6U, 0x3e127e8e3cc3e2f8U, 0xbc8c8f70bc847404U,
  0x3d96a254bb27c000U, 0xbd5828893d853ea7U, 0x3d4d59fcbe09a271U, 0xbca6f3023dba48f8U,
  0xbd76f8bf3e05c790U, 0xbdf77979bd0663d6U, 0xbd3fbf7abc84af50U, 0xbe11ebf13ce2ec08U,
  0xbd90c5773e0604c4U, 0xbd7309ae3e09b2ceU, 0xbde96dc13e0b637aU, 0x3db2199a3e1315c6U,
  0x3d797188bcc5bfccU, 0x3e0f8af43e0578ccU, 0x3c901ab83dd687a2U, 0xbcd7dd84be0efd88U,
  0x3d0263643dff6230U, 0x3d39d651bdc3b106U, 0xbdc75c1f3d917860U, 0xbe0c5520bd403f1aU,
  0x3e088ca6be0701d2U, 0x3de2f130bd8a3926U, 0x3d3378b43d0d393cU, 0x3d893d693d7c6058U,
  0xbd755a7c3b2dfa00U, 0xbda72d2c3db255f4U, 0x3db2f1423d9fd26aU, 0xbe05e80e3dc1cf92U,
  0x3dc92fb43d007fccU, 0x3df27bc03e0e9ef8U, 0x3e103ef23dd30054U, 0xbcae4c70bc7b1562U,
  0x3d0c82143c2606a0U, 0xbcaadc903d1397acU, 0x3d528cffbc61fabdU, 0xbc3ef160bdb98b7fU,
  0xbdfa73afbbd71d20U, 0xbd2c84eabd7fcda0U, 0xbda25d533db696c8U, 0x3dd70522bd53f699U,
  0x3d851090bd3c7f0aU, 0xbd00d5acbc144d8bU, 0x3df6f51ebd3090a4U, 0x3e0178e2bd53cc94U,
  0x3da30f7e3de91758U, 0xbdf60658bd916c40U, 0xbc6f56503d9441e4U, 0x3da3f99b3ca396c7U,
  0x3e003b863c7c5cc0U, 0xbdbfea503d2dcab0U, 0xbd194f30bd3ded96U, 0x3d205d96bcbcf1d4U,
  0xbdae4b4c3d0de39eU, 0xbdbbb61b3d558589U, 0xbddaf3ecbe121f67U, 0xbd59ffd43d342058U,
  0x3cbcc98c3c8eed08U, 0x3e09c70f3d9eaed7U, 0xbe1820febe2f2a1eU, 0x3d7a530ebe09e483U,
  0xbda081023e083ac0U, 0xbd67b1913cf9b730U, 0x3d26ef63bda9ef51U, 0x3c0b02bb3da103acU,
  0x3de39d043cd02260U, 0xbd80ce6b3d8bbea4U, 0xbd4998dc3cdad9d3U, 0x3dccaedebd380a31U,
  0x3dc989c6bc5563bcU, 0xbd9c7953bdb981d3U, 0x3be3955abd39aab5U, 0xbd76f26abd4d5dc1U,
  0xbd40ec4bbdefd33fU, 0xbe0023d43daf3b2aU, 0xbd75936a3d84d01dU, 0x3d684ae2bdb88c9eU,
  0x3db6c2b2be0a1934U, 0xbd1f53453ca48a5aU, 0xbc6d925ebdb2ff0cU, 0x3aa7d4ba3e04e013U,
  0x3d9d8227bd4f65a9U, 0xbc13582cbd347ae6U, 0x3dba30d1be0f3618U, 0xbdf68a7ebe231d31U,
  0xbde9c6243db0009eU, 0xbe00e68d3dc3ee13U, 0xbdba894e3cc44e22U, 0xbde7e2bebc2379b0U,
  0xbdcd0a0dbe356adbU, 0xbdc834753d980bfbU, 0x3df87d84bad664c6U, 0xbce31a183dc03020U,
  0x3cc3a1cc3d3ba014U, 0xbd344718bcf59769U, 0x3dc44e4cbe0e9977U, 0x3dab3cacbd3eb647U,
  0xbce2973f3e034c11U, 0xbdb2237abd7fc392U, 0x3d56b4fa3bba7533U, 0x3d3f8b8f3dd55adbU,
  0x3d3087db3e0b70feU, 0x3d6f5bb03cd74d15U, 0x3d443764bae72ac3U, 0xbd9e07763c2a4d8bU,
  0x3df5d4e4bdfb6dfcU, 0xbde00ebb3d1f34a6U, 0x3da7611abdc615e4U, 0x3d8917bd3de9a29cU,
  0x3e0755443dcd356cU, 0xbd949332bdcc196cU, 0x3d380230bd98d0eeU, 0xbe11c7ad3d548833U,
  0xbd46d3f03dffdcdfU, 0x3d9e372ebdcdd727U, 0x3dda1bf5bdad0bf0U, 0xbdf3ba55bde87113U,
  0xbd448058bcc45d3eU, 0xbddfcbb6be13b4d3U, 0xbe0063a1bddee45bU, 0xbd7331303d851182U,
  0x3cb873ecbdc48f94U, 0x3d937b553c9f9476U, 0xbe0700193d7b1f6dU, 0x3dcae5bebdc25220U,
  0xbc32c2b03dc550cfU, 0xbde11230bd3b4354U, 0x3dbe94143d281529U, 0xbde51b513dda7177U,
  0xbd1a6763bcca2b73U, 0xbd6f0f30bdb1970bU, 0x3d5fa094bd76ba02U, 0x3d26b858bc7cdad2U,
  0xbb9faeacbd722e82U, 0xbc802b983d06e112U, 0xbe3d29e33cb33efeU, 0xbe0587d6be0cd0c9U,
  0x3aefc7bfbe4222bbU, 0xbdc6051d3d9adfecU, 0xbdec589abd8cef61U, 0xbd59d512bdf4c0c3U,
  0xbcc2c339bcad0bd1U, 0xbe2152d03e07a60dU, 0x3d76619d3cb9c6a0U, 0x3ce4d9613d980f30U,
  0x3d052a4c3c0d20efU, 0x3e05128d3e0ff910U, 0x3ccf783f3d13d645U, 0x3d77cc6b3d2ee54aU,
  0x3e050d34be062d0eU, 0x3e035102bd88a26eU, 0x3db998f4bd0f1478U, 0x3d67f3083d93e897U,
  0x3cdcf528bbcf4b36U, 0xbe10fd07bd9da2dfU, 0x3db276cebde5f5d8U, 0xbde6151c3c25b70dU,
  0xbc6d29d8bda1aaabU, 0x3ddfcf66bd378286U, 0xbe132a75bdb12484U, 0x3de97624bd2a3d2eU,
  0x3c6979e0bdcac950U, 0xbd22c9083dfe9e74U, 0x3decdbc7bd94451eU, 0x3d3d4004bdc8f113U,
  0xbdab0dec3d05fd40U, 0x3e02b27c3e05885eU, 0x3d851d3a3dd6f09eU, 0x3deebcb93e0537bcU,
  0x3d114040be0593a5U, 0xbcffbbc4bd61bd84U, 0x3dbe13343d7b1430U, 0xbc72a51f3df27784U,
  0xbda4cb613d9874eaU, 0x3ca1cf98be139553U, 0x3d88d4babd9fc131U, 0x3d6ba250bcd8012aU,
  0xbd9b77a3be0d64c0U, 0xbd52caf2bd76c2beU, 0x3d1be7d4bddf7c4dU, 0xbde3e1c23d3f4c1cU,
  0xbdb30ede3d307c2cU, 0xbdf7dd25bde9fde5U, 0xbdb3dd78bc8cb948U, 0x3d771fe0bdb1ae53U,
  0xbd84691e3d94c0edU, 0xbbd57ce03e128f40U, 0x3de74ebcbddd4961U, 0x3e0a758e3dc53958U,
  0x3dfd1f743d8a4e54U, 0x3cfcbbf8bdc47e26U, 0xbd546af63e04058eU, 0xbe04c9a0be02c37eU,
  0x3dd955e0bdff3bafU, 0x3dc1fb723d6b3d29U, 0x39f23380bd4f83b2U, 0xbda81d9abdd8431cU,
  0x3db0b08b3db94372U, 0xbd91782d3cde46ddU, 0xbd78dbc03c7697c0U, 0xbdc4f7ce3cafeae8U,
  0xbca3ddc43b87250bU, 0x3db0f0d8bddee890U, 0xbd526164bdd43b16U, 0xbdef99503d2c4870U,
  0x3ce98708bdd459fcU, 0x3d9f4b623bda8934U, 0xbac84a80bd3b1826U, 0xbc907a203d30c9c4U,
  0xbd8e7683be042d8aU, 0x3e0fc610bd59d5d4U, 0xbd17c7c8bdf89af6U, 0x3e069f4bbba37940U,
  0xbe0771283cc12950U, 0xbde1febcbde4b916U, 0x3d3bc6c43d355b94U, 0x3d67a1883e04eb30U,
  0xbc0721923d79c538U, 0x3d1daf48bdc56286U, 0xbdb1ff483d4aa070U, 0xbda0cc17bcf6da04U,
  0x3e0bf1f4bd81e5cfU, 0x3d75d9803dc3f246U, 0x3c8750483bdf2cffU, 0x3da64902bd72da6aU,
  0x3e0eb60abe03b2e6U, 0xbdd74222bdd6d148U, 0xbe1086fa3cd41096U, 0x3df089a43d3c94baU,
  0xbd0eb83ebde76054U, 0x3d7ee5803e0c8aceU, 0xbc4ee8833d2beeccU, 0xbbdc21c0bd556444U,
  0xbda0abfebdc0d741U, 0x3dc8ad50bd383aa0U, 0x3c816858bda87ea2U, 0x3d22f1fcbde61816U,
  0xbddd9a453d145e1cU, 0x3c2704d0bb1f2000U, 0x3cff63b8bdf8dcffU, 0xbe030c2fbdefb78bU,
  0xbdfcbee3bdb26e22U, 0xbdf47bc5bb581180U, 0xbdc1ab2e3d1ef88cU, 0xbdfd4ddc3d406e98U,
  0x3d95109bbe155d8dU, 0x3c2ed163be215747U, 0x3e109d3ebde151f7U, 0x3dc9c70ebd91a7a6U,
  0x3d8d5959be17e1bdU, 0xbe13cb013c14258eU, 0xbde6a4bc3c4963bdU, 0x3daacff8bd67d938U,
  0x3d7f26ab3cfe3998U, 0xbdc899dfbdadf38cU, 0xbda6641dbdb5841cU, 0xbdb9792ebd952f12U,
  0xbdfb39503cc2dcf3U, 0xbd65b0a3bd1ea388U, 0xbd2ce6473a360d06U, 0xbe0f2a613d2b209cU,
  0xbdc336b2bdcd53e7U, 0x3dca63be3d861ffaU, 0xbe0d8915be20801fU, 0xbcc293d93db76697U,
  0xbd33edc1bdb0e201U, 0xbcfe6474bc8aaa50U, 0x3df30d243d279e2fU, 0x3dadf930bde74024U,
  0x3dda0fc43d8ad02aU, 0xbdc80293bd73f98eU, 0xbd4d59473c4e894eU, 0xbcca5565bcf8580fU,
  0x3e0b7891be048f4aU, 0xbc33169b3df5ffefU, 0x3e0d7e7fbd5aaaccU, 0x3c3aefddbdf91baaU,
  0xbda26f88bde31001U, 0xbe2622973c941e48U, 0xbdf712bd3dd361a2U, 0xbd230c06bdf246dfU,
  0xbb9727803be6369bU, 0x3d8c34623cfebf33U, 0x3e089a8c3bfa9147U, 0x3d5a80703d8df654U,
  0xbcc6feb6bdd0aaf1U, 0x3de14d8a3e0e2c03U, 0x3ccd5638bd68d3f8U, 0x3d86be423dc311a1U,
  0xbd05fa7f3d100e5eU, 0xbd92a11ebd844316U, 0xbdd37c843dad11f0U, 0x3da3a9b5bd31f241U,
  0x3d39ba033d9780b2U, 0xbdd6183f3ce27c8eU, 0x380891e1be13d973U, 0xbc2ec9423dc5d07cU,
  0xbe0adcaa3daed3bfU, 0xbdbb888e3d0afdacU, 0x3bc8dd64bdf27178U, 0x3d1750db3e16404eU,
  0xbda02e72bce0d668U, 0xbd6719afbdeeb492U, 0x3e0474e4be03d344U, 0xbdda9361be094bebU,
  0x3e026f3f3c30f099U, 0x3d8280133d2db63aU, 0xbd883d763deb0f49U, 0x3df223883e0b3facU,
  0xbd6286a0be1eb13fU, 0x3c31b6cb3befccb8U, 0xbd00e18c3d7cf194U, 0xbdb82f28bdfd6eeaU,
  0xb996c48cb91d0c00U, 0xbde077653d35f6e2U, 0x3e0e69993cb4276aU, 0xbd79acc2bdb7c965U,
  0x3d843890bbe7a367U, 0xbe08859c3dae1041U, 0xbdce8c053e0ba720U, 0x3d0e662e3d41e14bU,
  0x3c8e1923bdd73143U, 0x3c85b0f93d464606U, 0x3c0745a93c153d85U, 0x3d99d7023e164724U,
  0x3d02781d38e00afbU, 0x3d2370103ddfb025U, 0x3d1457debd4ca59eU, 0x3d03f5fcbdbbe602U,
  0xbc36e0f03d877b98U, 0xbd9b09243d2cb600U, 0xbe1c48c63d0ab854U, 0xbd00a1643c7c36b2U,
  0x3c92226d3d216461U, 0x3b17df94bdb28ee4U, 0xbe085ae5bdd681b6U, 0x3c72df093ca6c2ffU,
  0x3cdb9e79bd2032c8U, 0xbe228c0c3dac51b7U, 0x3c9a20a23e017e2cU, 0xbd5ba45e3dea5104U,
  0x3da6b9cebdc34a8bU, 0x3d8a1798bd0007a1U, 0xbd8a22af3db3e440U, 0xbe080fa6bdc699bfU,
  0xbd89f48ebce5972aU, 0x3dcebe033d1c83b2U, 0xbcf2cd1dbe455577U, 0x3cafca823dbd3eadU,
  0x3c801ce2bbdef640U, 0xbde94e75bdd823eaU, 0x3cc47caa3c63e887U, 0x3adac49dbdb2c4caU,
  0x3dd59266bcc0acbfU, 0xbd7de59bbe25bcb9U, 0xbdd55b44bdeaec63U, 0xbdee657c3ca2ab46U,
  0xbe1132663dcd15a6U, 0x3da39af83d3fb1eeU, 0xbc8485143dcec9efU, 0xbe0d5f05be0e4b6fU,
  0x3d19d8e5be04450eU, 0x3d80f168bdb9c37cU, 0x3dda692cbde0ec65U, 0xbdbf5d013cc7d374U,
  0x3d88ad923d242c10U, 0xbd2b92463c07950aU, 0xbbce67fbbd2bd48bU, 0xbd327da33db4e4feU,
  0xbdaa0d98bded4612U, 0x3ca33b9f3c063af0U, 0x3d91d2debdba663eU, 0xbdbca4bdbdd4ab1eU,
  0x3c855e5bbd3d579fU, 0x3d68321cbe0abb35U, 0xbdd484e1bd33a917U, 0x3db38e6cbddf95e9U,
  0xbdb9719abde6e8b1U, 0xbd0846923a97c143U, 0xbdbb95383d8254ecU, 0xbddb8e4bbd66a985U,
  0xbd81c1b0bdadaf5aU, 0xbcd3127e3cb0fae9U, 0x3d23281c3d501743U, 0x3da6db62bcec9cbbU,
  0x3d511c223d9ea505U, 0xbd95ff793db30e12U, 0x3d9eeab6bc3a6463U, 0xbe32d37a3d77592fU,
  0x3dea6e5f3d31afa8U, 0xbd36b2d73cfca258U, 0xbdee61dcbdd54981U, 0xbd1b416dbe0a54f3U,
  0x3e136b0a3d8a94a5U, 0x3d98d8cb3b652971U, 0xbbe7f2513cbaf5feU, 0x3ded1e07bda4f069U,
  0xbdae8b53bdb93f29U, 0x3d873cb4bdb93025U, 0xbe01058dbd66dcbdU, 0x3d8ea28a3db3a950U,
  0xbdf02c0fbd6abe9dU, 0xbdb9ae5e3d426f55U, 0xbdfb606b3dd80436U, 0xbe28b87fbda4540dU,
  0xbd1780783cee5423U, 0xbdfb3c29bdf6b1a0U, 0xbd8e1110bc406500U, 0x3c89d4f4bdb695eaU,
  0xbd6bca663bc60ae0U, 0x3dfeec713dda3cbbU, 0xbdd2df7cbe0cefc0U, 0x3de0555ebe0bd50fU,
  0x3d3fcf90bc2f219aU, 0x3d0361103d5691e7U, 0x3d059a0c3d941d9bU, 0x3d8a1aa3bd807f8dU,
  0x3dc3ffff3d87df5cU, 0xbd4be4aabe19ce6eU, 0xbe0258a53dad145eU, 0xbd2c8eb43deac518U,
  0xbdc43b403df88868U, 0xbc27c680bd0033abU, 0xbe122d25bda022edU, 0x3d9208e73deced31U,
  0x3ce209d83d2d0433U, 0x3d88b4c83daf88ebU, 0xbd94a3fbbca7e275U, 0xbdc37b1b3d4fe535U,
  0x3da8ad8bbb8d54dbU, 0x3d04fe8dbd53543bU, 0x3d1a78233a0e2fa3U, 0xbe086c5dbe3a4308U,
  0x3dbcc157bd8e50c5U, 0xbd18a30e3e09200cU, 0x3d88f9f4bd4c4475U, 0x3dd14e6d3de9a5a5U,
  0xbd58f4ccbdee7a3cU, 0x3ce653063cf78eb7U, 0xbe108400be1ab5e9U, 0x3d7871d8be1e8a1eU,
  0xbe20d259bc90fb45U, 0x3cccbdb4bd716a7dU, 0x3cebc04b3d2484b5U, 0xbe1f4fbebd4d2e62U,
  0xbd8b4f83bdc6e6bdU, 0xbd86dff6bdf9808cU, 0x3e0c38283d9067f7U, 0xbe07ce443c00d1d0U,
  0xbdf2790e3b31ed5eU, 0xbe117f983d31ee73U, 0xbe5534de3d6829f4U, 0x3d642a5dbd8934e3U,
  0xbd0fb2493d364130U, 0x3c96a0e2bdaa1f6dU, 0xbda191103d2323d6U, 0xbc5968ba3d47364eU,
  0x3d234b993bfe3ea4U, 0xbe1d7490be15bb6bU, 0xbdbded5a3e08631dU, 0xbd2f8e43bd2269fdU,
  0x3dcf755a3e0ecc78U, 0xbdabb467be396b9bU, 0xbde30e423c2c86f3U, 0xbc5e8964bc572dfaU,
  0xbcfde7dc3d953e9cU, 0xbdc43ea7bc21257bU, 0x3cee7c64bdf792f7U, 0xbdb25ad03d845e0eU,
  0xbbb4fa2b3d962d7dU, 0xbc9cf294bbb3bb06U, 0xbdb09a99bc9f4369U, 0xbd9a82d83d9856a4U,
  0x3dc0439ebdbb17a8U, 0xbdca3cd2bce51744U, 0x3c1ba360bdb8e7eaU, 0x3de73234bcd3dafdU,
  0x3ce895433d57ddc4U, 0xbcf3e131bd9658c6U, 0x3dec78703d90bdd2U, 0xbcb12d5c3ce50581U,
  0xbd986d253d337accU, 0xbe23dc1cbde1dcd4U, 0xbc3bc1b4bd3bc944U, 0xbcc71d4a3de2cd11U,
  0xbd8e8111bd0a92eeU, 0x3d40e2f13d8a6807U, 0x3b68acc7bd9ed798U, 0x3ddc4bffbe0e4341U,
  0xbd276eaabdd7dda3U, 0xbd77b9e03d1a614aU, 0xbd63a2a53d01418aU, 0x3c37e2adbde8b6d3U,
  0x3d14aaf9be5113afU, 0x3d1509953d0f333bU, 0xbd146c12bb60b82eU, 0x3d4561bcbd77d8a0U,
  0x3d222366bcc73223U, 0xbe28e3ec3c267864U, 0x3d6f675abded9c1cU, 0xbe1ae434bde85e54U,
  0x3d1d9d713c8dc10aU, 0xbd8259a3bcc949d6U, 0xbce830d0bd85a6ceU, 0x39a86aa43def6454U,
  0xbd818df7be0f9883U, 0x3d6ca2a83d1c877dU, 0x3c58c05f3d878ac3U, 0x3d634046bd9307c9U,
  0xbd099cd43cdaf382U, 0xbd9b489fbd22cccaU, 0x3dc175d8be0d0a6dU, 0xbd8213b53c9aee38U,
  0xbd22620d3d0c5805U, 0xbe1032663d09778fU, 0xbd8290d4bd515295U, 0xbc9487983dcfcf90U,
  0xbdeafc79bda09e2fU, 0x3df62038bd9b5f92U, 0xbd1586983cb17591U, 0x3d7319ebbcb9d256U,
  0x3ca8d9d4be49c97aU, 0xbdfc650fbcf7b170U, 0xbbe79074be1035feU, 0xbb15fe1dbe0bf30eU,
  0xbd58c91b3d51a64eU, 0xbdc17839bd4f61c8U, 0xbe0e53393e0fa099U, 0xbdd864d7bdc4d8d6U,
  0xbc461b183da1ed78U, 0xbdcc6b283bbb9bc0U, 0xbde64a433de184c0U, 0x3d5401913c0b70f0U,
  0x3e07154e3d9b1a3dU, 0xbdda0fb63c2e51a2U, 0x3dcfd0e6bd864753U, 0x3d60e838bdb17155U,
  0x3c504e83bd9dbb62U, 0x3ccc6ff0bda457eeU, 0x3e09403abdc7f964U, 0x3da9c45ebda413cbU,
  0xbe0acc313cf920f0U, 0x3dec427f3d148848U, 0x3dcd2c7c3e0c06a4U, 0xbd43d9a4bca60510U,
  0xbccded483c2b6570U, 0x3cd74f1d3df51e79U, 0xbcdaadf93e0fbd6eU, 0x3c72a500bdba0d1bU,
  0xbdc43b443de852b8U, 0xbe00c19fbc78b300U, 0xbb1ad671baf0c48eU, 0x3c479b84bddeb8d6U,
  0xbd0fc749bd0c8630U, 0xbd830cdebdc2d189U, 0xbdc7bc1bbd415a7bU, 0x3d180e713ac6cd80U,
  0x3dd949f8be086f26U, 0xbd2d91ecbdabf806U, 0xbe0a09c53d893cfaU, 0xbe0468d9bd250beaU,
  0xbc9e6f94bac60900U, 0xbc4689c03d46965cU, 0x3dc20dccbc5b1652U, 0xbd2c5d00bd9aa564U,
  0xbd706cb6bc2bbb83U, 0xbcc688323d690210U, 0xbde49a013d22b454U, 0x3dcc28863d60af48U,
  0xbdea24a63c2919e1U, 0xbdeadbdebd272963U, 0x3dc1e92c3dd63e5fU, 0xbde422283dc89defU,
  0xbd4f68743d437a44U, 0x3dad2fc23d773028U, 0x3dbc929ebde0a092U, 0x3e0d70f6bdc8d2deU,
  0xbdc96880bc7dfec0U, 0xbcf047ea3c8719e9U, 0xbc0a217a3d26146bU, 0x3be03f3a3df53dd6U,
  0xbc8290c5bd009528U, 0x3d01c5983de845bdU, 0xbde8aff0be090536U, 0x3d05e5b8bd8da362U,
  0xbd3d7a4cbce6a92eU, 0x3da7f44e3d89649cU, 0xbde669afbca2c370U, 0x3c5fb640bc79ebf0U,
  0x3e035246bdbf718cU, 0x3e124e94bdf9e743U, 0xbd1e85e0bd472ca7U, 0xbc8f77303e122900U,
  0xbe10b8913da6ed70U, 0xbdc366a3be1300f9U, 0x3e0d5a3abda1326fU, 0x3e0e6cccbd48db5aU,
  0xbd1a629ebbd57ad4U, 0xbe1183c0bdfe41d1U, 0x3d159530be0659d4U, 0x3d90a96b3d42fcccU,
  0x3da53f533e079972U, 0x3dc1e07a3def9a34U, 0x3d259d39bdbf9be5U, 0xbd9ae58cbd80dcadU,
  0x3db08a90bd583898U, 0x3da51384bd9a265cU, 0xbe1004d7be030a43U, 0x3d503a08bd5459e9U,
  0xbcf303a23e08720aU, 0xbdfe74123dced49cU, 0x3b213bfd3cdbb7f7U, 0x3dd0e9be3d5f1040U,
  0x3ddd9410bbd5cb60U, 0x3d4cbc1cbd98cf86U, 0x3d76ffcbbdaa325aU, 0xbe070f73bcf65e6bU,
  0xbd57971c3d3e8b64U, 0xbd47c73c3b892100U, 0xbadd7c803dda48f0U, 0xbd43e062bd5d0204U,
  0xbe021d09bd5adf28U, 0x3d5b06d03dcdd646U, 0xbe082315bae05600U, 0xbd913a49bd93baa5U,
  0xbdf73c463d8ba0baU, 0x3b6e06e83de04fe4U, 0x3d95c1163cc95aa0U, 0xbd52183d3aed5180U,
  0xbd83654fbe0f0e89U, 0x3e0a301e3dc5dbdeU, 0x3e0a065e3d3b0cecU, 0xbcbd327cbd35bb4bU,
  0x3dfb2cda3a338c69U, 0x3dce714e3dc21e6cU, 0x3d43a2c03d0732e1U, 0xbe0d4ed8bda3707cU,
  0x3e173adcbba5f580U, 0xbd0f4a96bdd4130aU, 0xbd9c09913d61a354U, 0xbd8489ddbe0c7ec2U,
  0x3df9bb143daab40aU, 0xbd9f83353d9f036cU, 0xbd628e38bce66fefU, 0x3c277590bd857441U,
  0xbd8d9e9dbdd15819U, 0xbbad94cc3de5a2d4U, 0xbcee09a7bddf8f19U, 0x3e3042163dcf99b1U,
  0xbe168c873c193813U, 0x3e0d76b83d166e58U, 0xbda9f5683d26e073U, 0xbde42710bdfe199aU,
  0xbdef241cbe02c2f0U, 0xbb5c5b40bde75549U, 0x3d876f85bcbeef74U, 0xbd7f07e43e041977U,
  0xbcac1d02bd5917feU, 0xbe0ca1d43de40e88U, 0x3e0d0d423dafd230U, 0xbd7731983ca7aa49U,
  0x3cc4f6a3bdfdfc9aU, 0xbb27accabe074969U, 0x3cee44823e19c7b6U, 0xbdb3aed43df351beU,
  0x3dc69d86bdf17c08U, 0x3dcb5f4c3d5de837U, 0x3d00804c3da42e79U, 0xbd2286f63dfdaa10U,
  0x3d47368cbd4a6808U, 0x3dee96e8bce6963cU, 0x3e13b252bc6c1170U, 0xbe070f45be28bb7eU,
  0xbdc9dca3bddfbf3cU, 0x3d32c6523d7ba274U, 0xbe32c040bdcd5f06U, 0x38d66cca3db0d44fU,
  0xbdbf5f23bdeb01c6U, 0x3e0b7fd63d7e207cU, 0x3cb323ac3ddf5c82U, 0x3db2e33ebdf1ba50U,
  0xba9a3e00bdabd83cU, 0xbc381d8cbe092332U, 0xbdb0dd38bc4eebf0U, 0x3b982fe03c9e7720U,
  0x3d01a14bbc481b40U, 0xbc672937bd4f6026U, 0xbda8192dbe0147eeU, 0x3dc539a03cb74a90U,
  0x3dd1b0fd3cfd6786U, 0xbde8205cbd98fffcU, 0x3da3e2e83d8cdb43U, 0x3e162d71bdc4982aU,
  0x3df642a7bdb0681cU, 0x3ce74398bcc5ecd1U, 0x3e0c9cf4bd5fba72U, 0xbd5c1590bdabf01aU,
  0x3e1c0f85bd28e6d8U, 0x3d0629a6bbf9ddc0U, 0xbe223abc3dd5a04eU, 0xbc2110d5bd858548U,
  0xbcbe32a0bd6b71d9U, 0xbd489d75bd1657e7U, 0xbd8ee3c73d5cd693U, 0xbe08af19bd0633ddU,
  0x3c6cb6c33d84278bU, 0x3df60496bdfb138fU, 0xbb03887b3d6e7f50U, 0x3e1276f83dc0b5fdU,
  0xbd81ffd7bda3f8dfU, 0xbd9827cdbce558a0U, 0x3c0b8e353c8e38e0U, 0xbe085debbca6afc0U,
  0x3c5766bebd207788U, 0x3db75bdabdd56aebU, 0x3de44baebccf62c3U, 0xbde4f7d0be116144U,
  0xbe054a79bd84a20aU, 0x3d8b5e843dc40072U, 0x3da843cb3ddfde54U, 0xbe0eac513d3f14feU,
  0x3d2a6c54be01db4eU, 0xbd2329bd3cb3ee74U, 0x3d9f53d43d5e32acU, 0xbd6185093de6299fU,
  0xbe119a30bd1cd484U, 0xbc8f86913c11b20fU, 0x3df94ddd3cf0bbf9U, 0x3d0c390cbdac1ea5U,
  0xbd53d07f3dcfab74U, 0x3df5063bbda90382U, 0x3c985dbdbd3d8bbfU, 0x3c1bc5febb90be6fU,
  0xbd9bc6c13de1f0e0U, 0x3dfc0856be000017U, 0xbac6f58e3d7acf2dU, 0x3dd2b8bf3d50c0ccU,
  0xbc6057f0bd0b54b4U, 0x3d8662e0bd2f1ef3U, 0xbd2923e33bb1d79fU, 0x3e03f5b3bce64b0fU,
  0x3d24b9f43e08b459U, 0xbd95cd07bdbeb9e9U, 0xbe0748973d67a39aU, 0xbdfe16da3d9d5375U,
  0x3cc4e10a3cbd0cb3U, 0xbdcb43313dcf471bU, 0x3cc5f7503cacbef8U, 0xbdfc05633c48e275U,
  0xbe03b8e93de71320U, 0x3d844a9a3da1e28cU, 0x3dead45f3d85263dU, 0x3da02478be0eb28cU,
  0x3dc8cecd3ddc65b6U, 0xbc6318313d69a8dcU, 0xbd0db1a83d4defedU, 0xbd6f6e4ebcbd5f12U,
  0xbdd3b7d63df2fcd8U, 0x3bd5307d3cf40977U, 0xbcc17ae3bcd72c37U, 0x3d2e84983c7f7120U,
  0xbe13b2463df98b62U, 0xbd10c92a3dd5f46dU, 0x3e0c6e14bd8e7d35U, 0x3cd0b7f8bdfb3ab5U,
  0x3d95f015bdfacae2U, 0x3d2dd17c3b80d868U, 0x3d3d3e4cba514a32U, 0xbd9404ec3d4b9b0aU,
  0xbd1ea951bdda5de6U, 0x3cae4543bdbfc119U, 0xbd97df2f3db6e1daU, 0x3d1686f43e0db6d4U,
  0xbdd7ac6e3d006918U, 0x3d57ca723d4ffed1U, 0xbddddc0a3d823a44U, 0xbdf90c2a3de2c118U,
  0xbe082ad4bce5257fU, 0xbe07fcb3bca68c88U, 0x3a0880f1bbdb1012U, 0xbd0fa8b2be0d09a1U,
  0xbe0ebc8f3e068f11U, 0x3de5028a3da5116aU, 0xbccb1efcbe0e02b2U, 0x3e1194ce3df4b0ffU,
  0x3e0eeb9d3cdab8d0U, 0xbd5f78ecbdf4d10dU, 0xbe0499ecbde09efcU, 0x3dfb300b3d92f764U,
  0x3dbda8903d923b36U, 0x3d9c884dbd2dc374U, 0xbdd82d6c3df131a4U, 0x3d07c8d63e0cc7b6U,
  0xbdd7aa2bbde0ae6aU, 0x3dd4652d3deaf0f0U, 0x3dc44fb03d94549bU, 0xbd6e976d3d8dcf28U,
  0xbcc182f83d2d7f9eU, 0x3e073ec0bc9a9b6dU, 0xbc643150be0e8306U, 0x3de6b0a63cb0ba30U,
  0xbcac30e23e105a31U, 0x3e024e603dc6c2f6U, 0x3d774cb0be0f33a1U, 0xbb8d53b8bda9f110U,
  0x3da92d3ebdeaab22U, 0xbddbdaa1bd82cb00U, 0xbdd653203d6ad4a7U, 0xbd9b1efa3e055d2fU,
  0x3da1f2223d91a4f3U, 0xbdd4ccdebd6788a5U, 0xbe14e6ea3bcf696bU, 0xbe101929bddd9da6U,
  0xbc5d2cc0bdf715e2U, 0xbd92311d3d7bf72fU, 0xbc994edc3ccf3f01U, 0x3d27d0c0bb8e17aeU,
  0x3d918041bd35fea7U, 0x3b4879023c943188U, 0xbdcbecdabdfa7bd0U, 0x3e08ecfbbd34e4ccU,
  0xbce4ae173d3dd01bU, 0x3d8a1e22bdc8840eU, 0x3cd7c357bb79f27aU, 0xbdf434c4bd4d34a5U,
  0xbddd7555be4f13dbU, 0x3d874b24bdbcf831U, 0x3d2b7f68bd93477bU, 0xbd6ad1febd199d7dU,
  0xbd04fffbbdf09f77U, 0x3c2c81373cf7ac57U, 0x3df358a73d7af369U, 0xbe0208103dc86246U,
  0xbdef088fbd5b12c3U, 0x3dcb4fecbcda4409U, 0xbd87ab39bd9a139aU, 0x3ac92dd5bcb00843U,
  0x3dfcaf823daef6a2U, 0xbcdbf551bd58c0d8U, 0xbd0830ebbd905259U, 0xbd93d928bc6e50b1U,
  0xbdbcd7173cfd88b3U, 0xbd951c45bdda48b4U, 0x3dce5af03e0ba355U, 0xbda1e799bdf4e9e5U,
  0x3d7d331c3defb340U, 0xbcf1e124bd561b3fU, 0x3e04b5673dd08652U, 0x3c9cf7e2bd851848U,
  0xbda2c5fdbd25ba54U, 0xbd9b4b57bdc36f3eU, 0x3d9f4d743dd29ce9U, 0xbdbbc8293d034724U,
  0x3deec44a3b5f3afbU, 0x3d83dbf9bd41571eU, 0x3c90f1bebb4a00b0U, 0x3d5c3e363dc9c8d4U,
  0x3e054f1eb9c3919bU, 0x3da96547bdaa47c9U, 0x3d568ba8bd3998e7U, 0xbdbd624e3dc8042cU,
  0x3db5b898bbcf6670U, 0x3e0f39a83d653f3aU, 0xbe0426a6bdd043e6U, 0xbd7d353ebd403990U,
  0xbcf5340cbd4ff05bU, 0x3dd57f173d9d164dU, 0x3d2371693d97bdd7U, 0x3d893cc2bd8950c3U,
  0xbd4221cbbd174438U, 0xbdda4995bcdf8eeeU, 0x3de88daf3e1df559U, 0x3da945ba3dfd3219U,
  0x3d67d5f23da2c8d5U, 0x3e0b3566badcc39fU, 0xbe1d50793dfa1c58U, 0x3dccd8b03e0dabbdU,
  0x3d539d7dbd8432a9U, 0x3dfcceebbd59082bU, 0x3d660a9a3df5d10dU, 0xbdc1ebc53d5aba48U,
  0x3e02475f3ca6bf88U, 0x3c3443743dbd4d1dU, 0xbd83b6cf3d253e12U, 0xbe0978ac3e04f298U,
  0xbcf533b43c36fd2cU, 0xbde1ac1a3dd569f9U, 0xbd8486a4be0f2f79U, 0xbe113184bc18adaeU,
  0xbd810d55bc5201b0U, 0xbc9166873d0b1ce8U, 0x3c49e781be0c11e0U, 0x3d330b1a3ddb9a08U,
  0x3ca99548bd1760abU, 0x3d8219c53c9121c5U, 0x3db94e42bd25c52eU, 0xbd79c9c33db794b0U,
  0xbdd195fb3d9ae559U, 0x3c716b243d3828dcU, 0xbe055296be13eb6eU, 0x3daf061abda49f0fU,
  0xbe02994c3dc373c1U, 0x3dac88c63bb49e7dU, 0x3de2d1e53df7e830U, 0xbd9ed6b0bd4b59bfU,
  0x3c197d32bc587073U, 0x3d99a0c4bd98adfeU, 0xbe14fb003d760440U, 0x3dfb11943dc45d1dU,
  0x3d977d463dd1982cU, 0xbd8c92bc3d43f0d5U, 0xbbed96033cd78fa8U, 0xbdfc9229bdda6689U,
  0x3dc77834bd850f3dU, 0xbd34ae8bbd51dc22U, 0x3d90b2db3de10128U, 0xbe06ff2abdf7811bU,
  0xbb847da23d864a91U, 0xbdfe517c3c47eab7U, 0x3e1386f43dce02a0U, 0x3a752400bb54675aU,
  0x3d9339cc3d6f3fafU, 0x3ddffdb7be1c645eU, 0x3d32750ebe40c791U, 0x3db851453d9f29bfU,
  0x3dd0d852ba968d80U, 0x3bdd9859bb1a0980U, 0xbdae95fcbd6ddfd9U, 0x3dd5c2493d187a80U,
  0xbdf581a5bda1f607U, 0x3db1ce25be163fdaU, 0xbe07befb3daa7686U, 0x3d72c2a43de6d5f0U,
  0x3e0479723d3d0d40U, 0xbe377d2639d27054U, 0x3d88d46fbd7269a1U, 0xbc9913e4bd995a85U,
  0x3d01e8de3a08c900U, 0xbded82eb3ca1940cU, 0xbdba6dd4bd133762U, 0xbde81043bd54640dU,
  0xbb48e8c03dcbdd94U, 0xbd1d95ab3d70e76dU, 0xbd02a790be12b6ddU, 0x3d3ce2583e09f654U,
  0xbce9a469bd8b4149U, 0x3e0528f8bdff861aU, 0x3d72e10e3daaf706U, 0x3ca4769f3d538bf0U,
  0xbcccb659bd96062dU, 0x3c41fef93d5f20b5U, 0x3d434fb6bdd0a7f0U, 0xbcdff097bdf26ebcU,
  0xbd1e9ac6bd7de52eU, 0x3d5da570bd9cc8fdU, 0x3e06f558bd168025U, 0xbda81becbdf31395U,
  0xbd823e22bdf0675bU, 0x3728018cba59cac4U, 0x3db34c203d82bd46U, 0xbe06857ebe03c8e1U,
  0xbd43cfedbdb9c357U, 0xbe2a5c78bdb79f5fU, 0x3b9f9719be22904fU, 0x3cc096a23d844152U,
  0x3b9ff38c3b7c5c40U, 0xbcc1f4763d82bf6eU, 0x3d9d28ecbd847f30U, 0xbd1452d2bdb0a1b5U,
  0x3d0879d03cf4a651U, 0xbe130857bd53e78dU, 0xbcc1a827bd8cc2ceU, 0x3cece04bbdd9f5ebU,
  0xbd2589d63d830e9aU, 0x3df0f4a83d939817U, 0xbdefbb44bdc104a5U, 0x3d0786183d2d524fU,
  0x3ddb05163c82fb62U, 0xbcdc44cfbc9e5975U, 0xbdff0d233d7ae590U, 0x3bf802153ca735c0U,
  0x3da5036c3da4df56U, 0x3d9353183dcdf3b4U, 0x3df02ef4bb6b7240U, 0xbe4c0ac9bdc17be8U,
  0xbca09e2b3e117bd8U, 0x3d6959193d6ced9aU, 0x3de9c4b0bc0e93ddU, 0xbe262d3bbce08e4bU,
  0x3df7d0a83d244966U, 0x3df13ca0bdc598baU, 0xbdc57d6dbd71f16fU, 0xbe1776343d0aea34U,
  0xbbed21b23cf9b8dbU, 0xbd9502c33d6e6caaU, 0xbe227507bde14eefU, 0x3d06d76dbddc1476U,
  0x3d4cd82e3de7f1f0U, 0xbdc0d3803e0abeceU, 0xbe3c9bdabba5fc82U, 0xbd71428a3d81023eU,
  0xbd4f592d3d4a3b08U, 0xbdbf3debbd85c274U, 0xbd46bdacbd2df5dcU, 0xbda91ba5be4f20c8U,
  0x3a99e3c1bd49178fU, 0xbcafe57e3d62f0c4U, 0xbd91e8d4bd6eeaf5U, 0xbd247b2bbdb3b3a4U,
  0xbd475c76bd63c8e9U, 0xbdcf00353e036fe2U, 0x3d8f41b8bdc71a3fU, 0x3c929758be0ef758U,
  0x3e024bd6bdc958bbU, 0xbdd885663c7c813aU, 0x3dcc38e83e13456cU, 0xbdcb567e3c895937U,
  0x3d1d0fecbd80cadcU, 0x3d7b4010bd084042U, 0x3e0fc10abdf43f4bU, 0x3d29fc84bda9180cU,
  0xbd620dd23a866200U, 0x3cebb0873ddff0f8U, 0xbd2df454bdd1c211U, 0x3e0550f4bdd86d3cU,
  0xbddbc4b53de46d80U, 0xbdb7280fbe165a51U, 0x3ddc5653bdfe0efeU, 0x3c497e60be423988U,
  0x3c37a7a0bd67dbcaU, 0xbe11c037bcb13b10U, 0x3e894f1cbdb85914U, 0xbe3070b03c30509eU,
  0x3ce8bd23be0f14c3U, 0xbe03c704bdff2ce8U, 0x3d951c2e3b7c83e8U, 0xbe4766953d5ced7cU,
  0x3b08d6403dc89728U, 0xbc36c3c0bdcd61fdU, 0x3d81d7d2be5f8385U, 0x3e0cd5003cb6ddb3U,
  0xbcc2d4a1bdeeed43U, 0xbdc880ad3dc4778cU, 0xbd8155453dc4684aU, 0xbe8998efbd2ff18cU,
  0xbc4d8d50bdc3042bU, 0xbd85809a3c6741d0U, 0x3d60a0743d814d70U, 0xbda1532abd808d00U,
  0x3e03ba74bddc7436U, 0x3d2160d83e057aeaU, 0x3e1359b6bd6af2c8U, 0x3dc703723d7ddaaaU,
  0xbccc0860bd7c0b38U, 0x3dd9cb703d43d378U, 0x3d8e6d82bd156dc0U, 0xbdcee4f03dbb83c5U,
  0xbdd30489bdea49baU, 0xbe35fe77be019e7fU, 0xbdc24436bd3a4652U, 0xbd27fdcdbde26d3bU,
  0x3d84cb8e3daba252U, 0xbe0ce29fbc8e80e0U, 0xbc6ab390bd042842U, 0xbc4755b03e037b7cU,
  0xbd9ed2ebbc95aea8U, 0xbdaae550bda68d74U, 0xbb95d9893e0cf9b3U, 0xbdd41838bdfc3db2U,
  0x3d40e5903de3da84U, 0x3dc3ab4e3e1197b2U, 0x3d01f014bde12c38U, 0x3dc9c4b23dcca63aU,
  0xbdef1f46bc8f389eU, 0x3dc229923dd5b336U, 0x3de77150bc997572U, 0xbce478343dc2a3ecU,
  0x3c09dc20bd2811ffU, 0xbd0034d83e4ebd50U, 0x3d5eca0c3df6a3bcU, 0xbe4c516e3e0d5a7aU,
  0xbd6d374b3d6cda7cU, 0xbc8282883d090f20U, 0xbdeae56ebe0a1faaU, 0xbe2932843d4504ecU,
  0xbe0234fc3cd54a06U, 0x3d9eeb90be278d45U, 0xbdbda32abca23568U, 0xbdbd32ec3b8f34f6U,
  0xbcafa05cbc98c000U, 0xbddd85a2bd6f24beU, 0x3dd74505bea4777aU, 0x3d92bf063dfc04fbU,
  0xbc098ce03de61700U, 0xbd110a96bdbe9fafU, 0xbde2cb743dcca4f2U, 0xbca4378cbdd30182U,
  0xbe0d253fbd31860eU, 0x3d93b89a3c2d26dfU, 0xbd82c2303dc49208U, 0x3dc104a2bdc4179cU,
  0xbc90d260bcc10d08U, 0xbce5f9583e05482cU, 0x3df392943c2bfc00U, 0x3d052f8fbd3a0a40U,
  0x3d359600bcc77a58U, 0x3e784506bd3d565cU, 0x3def01923dfab2ccU, 0xbdfac8013dce774cU,
  0x3dead1723db1be62U, 0x3ce1c8fcbdb5816eU, 0x3df7ff503cb7a12bU, 0xbe06256f3d5cf53fU,
  0x3d0593b93de1a0d0U, 0xbc56c959bd8c9d33U, 0xbde550a63dcfe61cU, 0xbd0298573d9c1c55U,
  0xbe0121dcbd592606U, 0xbd2e96963d2c71a4U, 0x3c3e40383d106edcU, 0x3d4582bbbdde2c4eU,
  0x3e0e4878bad57cabU, 0xbbf05900bd6d85e6U, 0x3db5c8293d1896d2U, 0x3c35b02bbe1418d6U,
  0xbe04393e3d1fb0ccU, 0x3dc9a0b2bdda8421U, 0xbe0ea5233d0e2320U, 0xbdad34c3bd77e488U,
  0xbd0333c13d402664U, 0xbb43b818bdb7bfdbU, 0xbdf5ff79bd216b8eU, 0x3bf48d9f3dd812d1U,
  0x3db4db863d4e0f84U, 0x3cd14b03bd98737aU, 0x3dc9e573bd7bea5dU, 0x3d4582513d9a311fU,
  0x3e06dc763dde162fU, 0xbd9b395abd6cd51bU, 0x3d29cd88bd2c8908U, 0x3cde30503d986132U,
  0xbe158d71bd300efbU, 0xbdce6ec73cf7b5a7U, 0xbd08d5b8bde3421dU, 0x3b3b3b7e3c12ecf0U,
  0x3de304a0bdd80d2cU, 0x3cf929d03d9067e4U, 0x3d86d4703d921356U, 0x3d0754fcbd01fa1cU,
  0x3e0ea2f93e089b76U, 0xbc07e8843c00d37fU, 0x3dc9a6e8be1815b7U, 0xbd58cf7e3ce565c9U,
  0x3d8d3978bd5fea40U, 0xbdb67386bd8059e7U, 0xbd9fb45dbdbe9891U, 0xbd03af43bd9b3479U,
  0xbdca921ebdfa4f90U, 0x3c101f523cad95dcU, 0xbd1a6931bdbb7d6bU, 0x3d1d1c75bc8d86b9U,
  0xbd2c5a0cbca1a05aU, 0xbd973821bd9b95ceU, 0x3d4be7663da270c2U, 0xbd8f273e3d55ea2fU,
  0x3db105c23dbd6894U, 0xbd769215be112f9dU, 0xbd29a01a3e02803dU, 0xbe0fab5e3d0fa062U,
  0x3c17e2013d5d567aU, 0x3d62a49bbd66c820U, 0xbdbec8223c667bc0U, 0xbe1dc907be069673U,
  0x3e08c3883d11f024U, 0xbe03d59ebdc491abU, 0x3d970e90bd0a2380U, 0x3c4634a63b46bb80U,
  0x3db41f653d3c3798U, 0xbdb5df753dfb27a9U, 0xbd4c8b4f3e11d1edU, 0xbde4a04f3dacdd26U,
  0x3d9342f4bdc7118fU, 0x3dfd76b4be0cab78U, 0x3dca2c623d05614eU, 0x3bf27967bd24d037U,
  0x3a871eab3cd68fceU, 0x3e021d58be09e48aU, 0x3db37ce53daf6a4aU, 0x3d8f3a273dff3f93U,
  0x3ddec6753c0dd670U, 0xbc9cd500bd980c3fU, 0xbe0f65fbbda9cfb9U, 0xbda3fd5d3dd24c7fU,
  0x3d650b25bdc0f64aU, 0xbd37bb6abd07f403U, 0xbdb3aa843df41b02U, 0x3dc640c4bde6a8daU,
  0xbe18d0693daf7badU, 0x3df19249bd055c61U, 0xbc13a3e43dae7d1eU, 0xbdbc81763d8073fdU,
  0xbe0d46fbbdce6044U, 0xbe0a3624bdcdbf6aU, 0xbe09a590bdf78ab0U, 0x3cdf11f0be03a686U,
  0xbd628259bdb894d8U, 0x3ded0c14be0420bdU, 0xbda0ce1f3dd61889U, 0x3d789ea83dcb7bf8U,
  0xbd600d32bc3d6e6cU, 0xbd54c936bd4a3c66U, 0x3d669863be277ce2U, 0xbdece1453c46e3a0U,
  0x3d99a65039bdbc00U, 0xbdc15bacbd3c2e64U, 0xbb6fefc0bd2c3a89U, 0xbdd98f053e04573cU,
  0xbe04ac963dbfd7ddU, 0xbdf518713def4916U, 0xbd8f065ebdac9b37U, 0xbccdcb5c3cf180a0U,
  0xbc196e003c9d4cf6U, 0xbe2f7ec93d8f66daU, 0xbdac79a5bde0816eU, 0xbdcec2e43dc47183U,
  0xbe029d20bde07a86U, 0x3d8a998dbd3ceea3U, 0x3d8c2438bdba2004U, 0xbcd7aaa9bd87b515U,
  0x3dcb88663d36d0ecU, 0x3d9d1b6abdfaddc2U, 0x3c3cae2fbe09ad5cU, 0xbd7c393a3d438cb4U,
  0x3c8c52e33ce722eaU, 0xbd2f5e78bd0f5845U, 0x3d9f2c883d627930U, 0xbd1aabb73de22047U,
  0x3dde211b3d0757d7U, 0xbe121923bba5f0b8U, 0x3d81e66cbdb684dbU, 0x3d1f6f3d3d22d6c0U,
  0x3d77d4ccbde8f324U, 0xbd8489febcdbd800U, 0xbd04e4fabe1ea7f4U, 0xbd2a6802bdb1d3a6U,
  0x3d8b1d343d85c120U, 0xbb747398bdc04ff1U, 0x3d9958f83d9bab42U, 0xbdc7fa68bd122e5fU,
  0xbcbdc2bebd8fda73U, 0x3c0a8a33bde922caU, 0xbc1999fdbdbae8fbU, 0xbd052e663aaa0e80U,
  0x3e0245023c1dad70U, 0xbcdcfc04bd8a6543U, 0xbc74d7e0be0ad999U, 0x3de9cd313d27c0b0U,
  0xbdbd58943ddd0c58U, 0x3d5b373c3d1b7119U, 0x3dea624fbde6e130U, 0xbddc7c91bd19dfeeU,
  0x3dd5a198be007c98U, 0x3dd70354be074f7aU, 0xbcab5a10bdfb64c8U, 0x3e0241303d9eb520U,
  0xbcc800cc3db77818U, 0x3b02afd1bdfaec87U, 0xbdaee7e03dd10242U, 0x3c1866ebbcb08490U,
  0xbe03567d3c20a620U, 0xbd53a837bdbe5b1cU, 0xbdbec5dcbd0a88b6U, 0xbd8ceac03cbe5f70U,
  0x3d99b2043e0eecc0U, 0xbd48629e3e0be01fU, 0xbdb99b9a3dd4e2d3U, 0xbd2291bbbd6c9cb3U,
  0xbdac634d3dfdae4aU, 0xbd154c4cbd056799U, 0x3d6309f4bde83f96U, 0x3d201163bc838fd0U,
  0x3d862d423df7550eU, 0xbc9069883cc49339U, 0x3d88b3d93d99b54eU, 0x3b0ed99b3d9ebffbU,
  0xbd1e91ba3bbc9860U, 0x3df02c94be008a3cU, 0xbdcef0d73d9af1afU, 0x3ccc6980bc48817eU,
  0xbdfd40773c092e32U, 0xbe1f70d0be2e6926U, 0xbe0533cf3c500461U, 0xbe0b514fbbafe68cU,
  0xbe11f1643b6aa802U, 0xbe097de23c10d1c3U, 0x3e095414bdd97aaeU, 0x3db04e423cefd25fU,
  0xbdedd8e03cd6fd2aU, 0xbe0a9d433c3014f0U, 0x3e01ac3c3b08af52U, 0xbda37652bdfd105dU,
  0x3dd8d12bbd54d67fU, 0x3d46c9823ab992b5U, 0xbda3c37e3d7e1d3eU, 0x3da43caa3c88ea8fU,
  0xbdd9d5c23c31faf2U, 0xbe07cc0bbde859a6U, 0x3d338d79be0f9ee2U, 0xbcc42023bda66d59U,
  0xbc92a574bd095c6cU, 0xbe0f55c93d8d0b44U, 0x3d2f7616ba72d510U, 0x3d9a128fbdaef867U,
  0x3d2c0c003c14938fU, 0xbc89d589be184b4dU, 0x3cb3d71fbe034019U, 0x3db3ad423cb001beU,
  0x3cb8c1a93df8ce9fU, 0xbc45cd05bdc66d43U, 0x3d75105f3d9c4605U, 0xbe14696a3d95ed3bU,
  0x3b8a6025bdffbd02U, 0xbdd090afbde7156cU, 0xbd01e396bbe2f605U, 0xbdba51b1bd978f7bU,
  0x3d135578bcbbec94U, 0x3dc3725ebcd3c9ceU, 0x3cb32a25bcd8b113U, 0x3dfc3e353d824fabU,
  0x3cee2ae5bc1ec743U, 0x3d6e4a4abd1ed45eU, 0x3da657003df37510U, 0xbd917c993dbb299fU,
  0xbb77e4e6bd8d0027U, 0xbdc4c6343cae68cbU, 0x3dda4e4abd33c168U, 0x3da40921bdc9b189U,
  0xbd9e60553dd45107U, 0xbc2134e63ce308a2U, 0x3da018903dca6960U, 0xbdcaa53bbe090dc8U,
  0xbd824e643dd9a7a0U, 0x3c34964f3dfb1443U, 0xbcc78c3cbcc788efU, 0x3d844a72bde6c9c5U,
  0x3a44b14c3e110eedU, 0x3dd39181be0cf575U, 0xbdcff0e03db6529dU, 0xbd6398a03cd448f9U,
  0xbbb3c00e3d1cfd9cU, 0xbdec4933bb065997U, 0xbe0e8b22be0e84ceU, 0xbc46ea70bc7ce6b8U,
  0x3ceaded83c84a1a4U, 0xbd11c9473cc6795fU, 0xbdde8a7c3def4ef5U, 0xbc88e817bcd7df04U,
  0xbcfd3c94bc578b95U, 0xbda2836cbdaa9ca1U, 0xbdb64ef5bda1b58aU, 0xbd46a802bdfc399aU,
  0xbbe7df37bd812d8fU, 0xbdadb9a8bda00dfcU, 0x3d8d506c3e0321a5U, 0xbde19e67bdb8ead8U,
  0x3c9b5e8bbc93b960U, 0xbc63ce4b3e066a5bU, 0xbc5e7c30bd45ed74U, 0xbe10de91bd651d8eU,
  0x3e0961cf3cfe8188U, 0x3e08f52c3d65b1e3U, 0xbdbd803cbcdace1eU, 0x3c0d19f13dac2df8U,
  0x3df6b574bda2ea4fU, 0xbe02e9bdbd4606f6U, 0xbd4323f43db15bb1U, 0xbdcee35abd866323U,
  0xbe120e3fbcdf55aeU, 0x3d4a28a83d7a24acU, 0x3df5f30ebe1cc53dU, 0x3cc10b5dbc394651U,
  0x3df278723ce9eae8U, 0x3dc13f92bdff152fU, 0x3c6458b7bddcef16U, 0x3dcf0ad6bd98e903U,
  0x3d22f219bda49b8cU, 0x3ce22bc6bd2cc65eU, 0xbbb196b5bdadae32U, 0xbdb36b20be1ded7bU,
  0xbb9e9b49bd14dd86U, 0xbdc929d93e0d40a7U, 0x3d9675293e08930aU, 0xbdb7c169be04ed96U,
  0xbbec62db3e0d2184U, 0x3c82b4f9bdb40c8aU, 0x3c3878363cf82c7bU, 0xbd0ab19d3e096ab3U,
  0xbdb963033d71d0e9U, 0x3c2a55c5bd6ec8d8U, 0x3c2d0ff03db0e011U, 0xbbebd1c0bdeacbd7U,
  0xbd9cff92bd62da35U, 0x3d839af1be02b257U, 0x3c1fc5713db74036U, 0xbd843a01bca8c7baU,
  0x3b669fc03d29cd90U, 0xbdbe6f5abe0970dfU, 0xbe0bf4ac3d87aa86U, 0xbce14a19be0f6f61U,
  0xbc8ad0e5bce0e688U, 0x3dc7cab43df14ab9U, 0xbe671a073dc02436U, 0x3d867a133d9f61a6U,
  0x3d1b4d5ebda3ff44U, 0xbdedaf26be0aaddfU, 0xbe11a6693c9d17b1U, 0x3e1b5eeabd037629U,
  0xbdd65edb3db21e5fU, 0x3d82dbd6bd37d2daU, 0xbd7db0d4bc721fd2U, 0xbaede5d53d9a0c4cU,
  0xbd98121d3da0fd24U, 0x3d6e9c773d31c379U, 0xbd829dc7ba82313cU, 0x3ca38701bcf20f86U,
  0x3d5b396abdd33eb4U, 0x3d92eddd396aa7d9U, 0x3d8706b1bd070e7cU, 0xbd6ee72ebdc68dabU,
  0x3db37f99bdc40719U, 0x3d841dae3dded432U, 0xbe2c27353daf8977U, 0xbd65bede3d646934U,
  0xbde31816bdb16750U, 0x3d189a2abe00ea80U, 0x3dd132bebc489535U, 0x3d9119b03e2810dbU,
  0x3db1766a3e11e2b0U, 0xbdbd0ad63c2b3949U, 0x3d9280c8bda1841bU, 0x3e1092d83d5c5eccU,
  0x3dca71eebcfed8e5U, 0xbce659afbc54b5d3U, 0xbd3c1498bd7ff296U, 0xbdc8a0c73d66932aU,
  0x3e2002cebd2c07feU, 0x3bae3ecfbd016694U, 0xbdeddf8d3e0ad36fU, 0x3d45f9ddbd2d2cb3U,
  0x3ce88018bd1c6f7cU, 0x3c87f0f0be090e7eU, 0x3cfed85d3e00aec4U, 0x3d72435abe2543e7U,
  0x3d73ea03bd1f7d2aU, 0xbe042930be5adbcfU, 0xbde6a1a43db247f3U, 0x3deb1670be0aa672U,
  0x3d1582e03d6fba7bU, 0xbe51f8f4be0ea34eU, 0x3cee6f0bbe030a23U, 0x3dfedf40bc9911b0U,
  0xbb9204453d1265afU, 0x3bd88fc9be08ab8dU, 0x3c4101fa3e0084deU, 0x3db5a159bb28b1acU,
  0x3daa5714be00dbc8U, 0x3c86ef55badb5d99U, 0xbde62a79be1102d8U, 0x3d787bf73ddf6b1dU,
  0xbd5adc603cb5c149U, 0xbd79c1253dc608a6U, 0xbbe927383e17e1d2U, 0x3d0a75143dd4b6b2U,
  0xbdbd3ec03a9867fcU, 0x3d8420e2bd16310cU, 0x3e22afbabcf9d689U, 0xbb6fce863db229d9U,
  0xbe14a8fcbc4961a9U, 0x3c4e1340bd6c16e0U, 0x3d8e6e1e3cb89247U, 0x3d7db964bd0198e5U,
  0x3e08b8c93df221d3U, 0xbdd668143d7a8975U, 0xbda74a37bddb2a7bU, 0xbcbb985cbe0726d7U,
  0x3d71f10f3c30b4b6U, 0x3d839a2bbde6be3bU, 0x3bfa48693bf31480U, 0x3d0c42873cbc89fcU,
  0xbde930b9bdb8b4f9U, 0xbd5ec072bcf3422cU, 0xbb710c12bd8a803bU, 0xbe0f6d2abdd95f8bU,
  0xbd5a7b743d615605U, 0xbce02ca03ddffedbU, 0xbc8d2ca03dcae19eU, 0xbda97a32bdb8def8U,
  0xbc8429433cb24e3cU, 0xbd86a85b3d73e2a8U, 0xbd971607bd69397fU, 0x3c2757f0bd14bc52U,
  0xbdec5927bd5c1778U, 0x3ce9ba2fbd03a26cU, 0xb979253e3d6ba5ecU, 0x3ddd84d43d60bec0U,
  0xbdea08f4bdd371f2U, 0x3d9458f7bc7ee809U, 0xbbceab1d3dfbeb0cU, 0x3e0be4ba3d72e357U,
  0xbdd8e88a3c223550U, 0xbd8ee6763bfe0fa0U, 0x3c97103c3dc3710aU, 0x3dfd8d02bdd78d64U,
  0xbcd68a62bd82311dU, 0x3cb709983e068312U, 0xbc0e93d0bd8b4e11U, 0x3d6f5e1a3dfbc2fcU,
  0xbd0a4218bddee1abU, 0x3cf38028be03662bU, 0xbe05b1e43da4bfa7U, 0x3dfd01283dda9b50U,
  0x3de2cf81be0c8fb0U, 0x3dc6c8243d87ac20U, 0xbdcf538a3c9fc7c5U, 0x3dc0c1ee3ccd3a51U,
  0xbe1049893c9a4c9eU, 0x3da61460bda482c7U, 0xbdbe1bb03c01ae60U, 0xb93c78003d7a45acU,
  0xbe0981bb3c98ca09U, 0x3cde694abda83d83U, 0x3e0b1f7c3b8947bdU, 0xbb5120803dc0861bU,
  0xbdeaec6ebd2099b0U, 0xbddd6e60bc14d580U, 0xbd86ba3d3cfebd50U, 0xbe09e84fbd0f6c16U,
  0xbd82db17bde842feU, 0xbda3665ebdf71e51U, 0x3dfc2f0dbd1c230dU, 0x3d65729fbe034974U,
  0xbd34f221bdbc1708U, 0xbe0ae8a0bda3fbc3U, 0x3de6c1033d60bc6dU, 0x3d34546cbd65b64bU,
  0xbd4ada7ebde1e078U, 0xbc94f9e5bdc66a1aU, 0x3d15bc7c3bdb0236U, 0x3d8d5ce8bd3df65dU,
  0xbde8a6923d092458U, 0xbd72a8debd2d07edU, 0xbd8a99cdbe03fbc8U, 0xbd948ee4bd4a0f16U,
  0xbdc37a36bd8af30cU, 0xbe1105dfbb790e80U, 0xbdb2ce50bb19901dU, 0xbd22693abda32c31U,
  0xbd971d693e02ddd2U, 0x3d8a046a3dd1b6e7U, 0xbd06d3a03b76c780U, 0xbc119abd3d972ad8U,
  0xbdf372063d7039e0U, 0x3d94eb723d89b666U, 0x3e0ad0163df597e0U, 0xbdf2c50dbd32f65eU,
  0x3dca2594be14eb20U, 0xbddf8ea8bdaa9eb8U, 0xbcfbc629bd3b2957U, 0xbdc071f23d9df18bU,
  0x3db580543da641bcU, 0xbd113864be0eade0U, 0xbe02d4213b20bdb6U, 0xbdabd5993dca59f7U,
  0xbdc250683c678313U, 0x3e0903d8be061a24U, 0x3c83657e3e05b1f6U, 0x3d65b3fcbd75b86eU,
  0xbe02902bbdb8584aU, 0xbd8cee50bc75d500U, 0xbd91ebfd3dbb40f0U, 0x3db7c0923c838bc7U,
  0xbe16afbdbe0ef248U, 0xb93968003c8c9dc8U, 0x3df491383dffe49cU, 0xbdfa73273c834b08U,
  0x3d813846bdee3831U, 0xbd96d075bd3a1952U, 0xbd86a1813bebe520U, 0x3d0d61773c3c9850U,
  0x3df58e563d8c8827U, 0xbe13d7793befb3c2U, 0xbc9719bebe0cc5dcU, 0x3c86dc40bdc33acbU,
  0xbcb992c6bdab2058U, 0xbca1bfea3dc8b43eU, 0x3df0df31bd03adecU, 0x3da9d0ec3e0068a9U,
  0x3c64f1b63db24508U, 0xbd7298ab3da0b160U, 0x3e00cd5a3d91c3ebU, 0xbe0bcbc93d7725dcU,
  0xbdebdba73b44b76cU, 0xbe0bda8e3d789cf0U, 0xbe0ce507bded1d52U, 0xbca36439bd33fe41U,
  0x3dd28554bd46916cU, 0xbdd4b90f3de15d51U, 0x3d9bfe523da7e8f1U, 0xbe0c8dd2bd36aafdU,
  0xbd89a1573c734269U, 0x3b7e7b7d3d956998U, 0x3dbebb40bdbf96e1U, 0x3dcd14b3bdb7eb61U,
  0xbdb9f4843e0ffcf4U, 0xbe27d4fe3d36d085U, 0x3c517714be0cc459U, 0x3d63e5cebd7c9e2fU,
  0x3acd8c213dff9767U, 0x3d98dee83e0a8ee4U, 0x3deac354be0ba6e9U, 0xbb7351cfbe18cb3fU,
  0x3ce5eea7bda9c707U, 0x3ce9c22ebd449810U, 0xbdd8bccd3def2165U, 0xbe05d88dbdf8a8a3U,
  0x3c5c95a0bdb14b85U, 0x3d38ff323cc493a4U, 0xbd8603f5be0c1724U, 0x3e056cf23d4dde9fU,
  0xbdabc3ddbc9d0ce0U, 0x3d9ff9c33c76d119U, 0xbde1d4d83dced54eU, 0xbd25d4743db5180dU,
  0xbe0e4535bd2444beU, 0x3c555fe3be02ac3eU, 0xbd18cf18bd783977U, 0xbd6a9f2bbdd15048U,
  0x3d69a9e0bd9c11c2U, 0x3d60b6e0be032ff9U, 0x3df058413d8e757fU, 0x3d77c0853dfaa5cdU,
  0x3e0fdcf0be0001e3U, 0xbdacd6a9bd1922e1U, 0xbd6da283bdbdda76U, 0x3e096214bcf33e69U,
  0xbe130242bd191a05U, 0x3da7b522bdd982bbU, 0xbd97719c3e013bbfU, 0x3deb7b243d68cd01U,
  0xbd8c7ae93de88bd6U, 0x3dc7659dbd3aa39eU, 0xbd0aee73be087f97U, 0xbe15dae53df1c5f0U,
  0x3de15f3cbe0cc241U, 0x3daf919c3de50ab6U, 0xbc662f20bdee3ee2U, 0xbdc70f1ebd8f7cebU,
  0x3de6d58c3e02a508U, 0x3da97dc63c051e6fU, 0xb9ec3e45bdb82a83U, 0xbdc74e62bdbdf23bU,
  0xbc84c6d8be0f6c71U, 0x3d2901863dcfdbbaU, 0x3d52acec3dbc170eU, 0xbdf8ffa23d809252U,
  0xbe09f4ef3d340d77U, 0xbd69c612bcf0c24dU, 0x3d953ca4bd0a33ceU, 0xbc8fd530bcc641bdU,
  0xbc5aa2bfbd2a3f58U, 0xbe01339cbd94b4e8U, 0x3cfe820f3d83610aU, 0xbdffc291be0f9e27U,
  0x3d068f063dca4b51U, 0x3dcf7a8fbe0bc62aU, 0xbe21e3173c05856bU, 0x3e0735b63dbfbddbU,
  0xbcc23851bd99d278U, 0xbd02c48ebd423b04U, 0x3c8e2eeabdfacaf9U, 0xbe0ce37abd3ec252U,
  0x3dca14a1bc99eaa8U, 0xbda0329abe024c4bU, 0xbd8d9c7cbd9451aaU, 0x3e3a23f83d6f2488U,
  0x3d42dc893dcb0958U, 0x3d2de22bbed1853eU, 0x3ca1fece3cf81a54U, 0x3d176690be8d5026U,
  0xbd0160dbbefa12d3U, 0xbdb351843dc29572U, 0x3d3391cc3d6e50bdU, 0x3b8c0224be056294U,
  0x3ddef2df3967f400U, 0xbd9b75ca3e086ff5U, 0xbcc90c05be11ef9aU, 0xbd63f0bfbcc86c1cU,
  0x3e0d989bbe020296U, 0x3e25d15ebc0950b6U, 0x3e13cc473c4d5561U, 0xbd8e1a913c3ca36eU,
  0xbd9a2599bc3f88c7U, 0xbda8de283cc8c26aU, 0xbe8e0870bcf94ccbU, 0xbe2353283e0606e8U,
  0x3c4ffacb3d80cccbU, 0x3c8b50e93da27186U, 0xbdd733123e3291a1U, 0xbb8bc08ebe08e435U,
  0x3d7be5703d83f0c2U, 0x3d9221c63dff60eeU, 0xbd0981d6bdbc82dbU, 0xbdac4c7b3d2f49f7U,
  0xbd5962a73de7cb4dU, 0x3de527a53d19da25U, 0x3ce068653e2d01d3U, 0xbd2de50b3dba456aU,
  0x3d27b81abe4fb2d3U, 0xbe2490553c9c3978U, 0x3c7e38203c33b653U, 0x3e09b747bd1dcec8U,
  0x3ce3fe00bdc860ccU, 0x3d59748e3d07ea48U, 0xbd934fac3c8d6f99U, 0xbe0ff2763db9e2d7U,
  0x3dd86385be0ca6b3U, 0xbe14f45cbd5f0f3cU, 0xbd9c1644bdbec0c8U, 0xbd9e9ed9bcdffefdU,
  0x3da657f33c629cf9U, 0xbd919dfabd03723cU, 0xbd16f3503daae473U, 0x3cfb4d453e21852bU,
  0xbd363aaebd6c4e78U, 0xbd09c313bcac8d76U, 0x3dbe9b8fbd448112U, 0xbbfcaa3f3d9c9f93U,
  0xbcdb78efbdbd3018U, 0xbdef26f8bdb8867bU, 0x3a9b78853e077198U, 0x3df436223d65c0c8U,
  0xbc9a8e183ccbf50bU, 0xbdc7fee03d5e8e65U, 0xbd4090553d93791bU, 0x3dde0974bcf6ae08U,
  0xbad20ce4bc48c359U, 0x3ddf82bcbd1e9f27U, 0xbd64b1cf3e58ddbbU, 0x3dac5b41bbf41f00U,
  0xbe029dab3c253a8eU, 0xbc4ed2943e0e1f88U, 0x3c869c4e3dc6744cU, 0xbd033a90bdae07f9U,
  0xbd5a1782bd84c1e3U, 0xbd4d187cbcf5bedeU, 0x3c0af176bdd40110U, 0xbdd91daabe0dc121U,
  0x3d2e36403dfdb7ebU, 0x3e21cc79bcb17ce4U, 0x3d4e1ad93d9ba2d6U, 0x3dafea143b89a847U,
  0x3c646978bcc25301U, 0x3dec0e0a3d0b6c72U, 0x3dcee085bdacd93bU, 0xbcd80d3dbdfbc064U,
  0xbc6af95ebd96d240U, 0x3dd2c916bdbc8e69U, 0xbd4555f0bde92b52U, 0xbc85a8c1bda22a6aU,
  0xbda8c01c3dd357dfU, 0x3c0380003df0d15cU, 0xbda7454b3d9e27baU, 0xbdd8b7f1bd66b2d1U,
  0xbd5fb3863d8ad6ddU, 0x3d1997633dbdbb75U, 0xbdd3b3d7baf46581U, 0x3caca794bdb0ac87U,
  0xbd91fcd53d863246U, 0xbdddd762bcf22688U, 0x3ac2da40bde95211U, 0xbdba097cbd04b17fU,
  0xbdec9ea23e05f228U, 0x3c3a517a3ca2b6b6U, 0x3d7b431f3e070ef5U, 0x3baf12e03de7e9c7U,
  0x3ba6254cbda87195U, 0xbd13c2a73e12b584U, 0x3c1f6a11bd1ae5f5U, 0xbd9ba589bc7c9c1cU,
  0x3dd33f703cf63388U, 0xbcc25e7ab9b65fb8U, 0xbd865ee53d3aa272U, 0xbdb520773dd3ac0aU,
  0xbdcb77a7bdc65a2eU, 0x3d5288f5bd8b4a30U, 0x3dc57017bc8beae6U, 0xbd95a5d4bd3a111fU,
  0x3da7166ebd9b4ca6U, 0xbcecf1993e06d7b2U, 0x3dac78dbbd9aade2U, 0xbe0ececebd8263eaU,
  0x3d92e4453d988adfU, 0x3b9c145e3df7076aU, 0x3c0438e0bd7bea05U, 0x3ccc6dbf3ce38d97U,
  0xbb2ef2c0bdc754d5U, 0x3dd0bd5bbc1bdc96U, 0xbcf977e83d74ee0eU, 0xbce382c73d11905cU,
  0xbdf904b83e07ae6aU, 0x3d7812e1bd73b22cU, 0xbd26f913bdf018ffU, 0xbe1714d2bd2741b3U,
  0xbddb17e73dee3726U, 0x3d8b13ff3d8a5038U, 0x3e573ef63de49ce2U, 0x3ccb4c353dcfeec2U,
  0xbdd77c693e5f8d34U, 0xbddc1b0b3d2ebea8U, 0xbd330b7abe0128ffU, 0xbbd2e600be1b71f9U,
  0xbd46ddd6be063992U, 0xbd0f2bdcbd28445eU, 0xbdf109c53da3ddb9U, 0x3e074c903dae0c26U,
  0x3c60d5b73dc25dbcU, 0xbde569e83dcfe3dcU, 0x3e5383c53d79c9f9U, 0xbe0335ffbca5ea91U,
  0xbdeb89c73ce18dc0U, 0xbdfb20583df920dfU, 0x3e1ed2543dd612daU, 0x3e1337a3bb81f8ccU,
  0x3df614a0bde71e3cU, 0xbdea9a263bc74148U, 0x3d873a21bda018b3U, 0x3d110d643da242c8U,
  0xbc583d133d858658U, 0xbda2d7963e13f61fU, 0x3da227c9bdbee10bU, 0x3c409970bdd44080U,
  0xbd59aab1bd659b25U, 0xbe1165973c5ff20dU, 0xbdd5a4923d9f7d6fU, 0xbd1e5263bd712474U,
  0x3dafab2a3e1b9467U, 0x3e1aa080bd2fdda8U, 0xbde09f58bbc37e80U, 0x3dd541d93dc72ad4U,
  0xbdc631c2bd6c0ffaU, 0x3d725a403db4f6d7U, 0x3e0f69153d96abd9U, 0x3d2e4b753ddc2d9dU,
  0xbe06768dbcf790a3U, 0xbddf88aa3e1f2e81U, 0x3d2f8d9ebcda1213U, 0x3d07662fbe20d547U,
  0xbe0cece93de503baU, 0x3da9289b3e02bf73U, 0x3d75fdb7bd9d1573U, 0x3ca374b2bddad8f6U,
  0xbdbbc3923c8a2dbdU, 0x3e0e2fe83d483666U, 0x3dae8cf43e026990U, 0xbdc28ac93d9ea1c2U,
  0x3d8a86213dfb1130U, 0xbdac2f3c3e219277U, 0x3dcfb5c8be05b79bU, 0xbd957c8d3d52257aU,
  0x3cbd09763e03723aU, 0xbdc9384ebd64f0a6U, 0x3c1d2b243dd9860fU, 0xbdc75c2ebdc04df3U,
  0x3dbc80febdce45e9U, 0xbd68ed2cbe08099bU, 0x3e138823bcd8bc4fU, 0xbc6a36d73da74a6eU,
  0x3d923b433c17c9f0U, 0xbc9eba78bbc46580U, 0xbbbd750b3e010fb9U, 0xbcca34703dcf5af5U,
  0xbd87c9ca3da66a25U, 0xbdefb629bd9ff436U, 0x3b1b6480bd94a108U, 0x3df40b7dbd904b6cU,
  0xbdc7d7a83d890fdeU, 0xbd639b56bdd95b28U, 0xbb9900b2bd8f85e6U, 0x3d837ceabd9a278dU,
  0x3c8976a13bdbb8f2U, 0x3cc1f6613c5d92d3U, 0xbdf7985dbd85a59fU, 0x3dea888f3b854cb1U,
  0x3d7d6746bcbb49deU, 0x3ca570d838cc0800U, 0x364fc5b23d0eeb2aU, 0x3af68ab8bdd7c3b7U,
  0xbde4eb65bc0e1640U, 0xbdfee65b3b781780U, 0xbd2c2de03db37c62U, 0xbcb8fa26bc981646U,
  0x3cf11cb83d973390U, 0x3d83a8423c018aa9U, 0xbc9cd6df3e0c784cU, 0x3d87f234bd1da1baU,
  0x3c2e03cb3dd5ca68U, 0x3e0b73783dd3742bU, 0x3dd34ee23db44b21U, 0xbd207cde3c247b67U,
  0x3df7705cbddcc4b5U, 0x3ddbd090be01c091U, 0xbd8df8503dd5df07U, 0x3de9b73f3e0971c3U,
  0xbe02a4df3d68745eU, 0x3c877cc2bdc9b971U, 0xbdbfc4003da4bd8aU, 0x3d7291f4bdffce37U,
  0x3c68462dbe034b26U, 0x3dc5d1ea3ddd0b00U, 0xbbd74180bd35c360U, 0x3dbdd5c63cad2792U,
  0xbdf3d956bd4ec0a9U, 0x3dc193a33d1fc62fU, 0x3d0b399bbd4a3effU, 0x3e0b4bc93d81ecb9U,
  0x3da10ccfbd8db8acU, 0xbcf6096c3df1c863U, 0x3bb04fffbd1d6d97U, 0x3dde62343d8aed03U,
  0x3db94fc53dcb9df3U, 0x3dcf5beabd85e900U, 0x3de67ae03e074c09U, 0xbc28d390bd1fd679U,
  0x3db68b373d351702U, 0x3dc25f8dbd7b6859U, 0x3cca3d6b3dee3f07U, 0x3e00a63e3dd5e286U,
  0x3de634433e1a2f6dU, 0xbdd9ada03e008066U, 0x3c4ba260bdddf56fU, 0xbd854bcebe01a683U,
  0x3de63dac3e0bca98U, 0x3e004dce3ca73d0eU, 0x3ddd99f5bd3e591eU, 0xbe16b717bd1cc399U,
  0x3d7f21a9bd89ea80U, 0xbaf71385bd37d376U, 0xbd956837be09ae61U, 0x3d04bfd9bd4db3b3U,
  0xbd3e448e3e06b651U, 0x3e0f9fccbd66cec2U, 0x3e10786b3c7f1682U, 0x3dd35f363e1b01eeU,
  0x3d0e9e3e3d2f490fU, 0xbd8dd8c5bd0ef27aU, 0xbc385b76bdd870abU, 0xbd8a498abdd7904dU,
  0x3d8927193e16cdbeU, 0x3cdf6a90bd1118c3U, 0xbdd4f1713d84e76eU, 0x3b009400b99770e3U,
  0xbdc7a934bc2db48fU, 0x3d4c1a753d8dece7U, 0xbdb8f93dbd19a034U, 0x3e04f52ebd956642U,
  0x3d8a14d03c84f941U, 0x3deb3d0dbdc7c148U, 0x3dbc89c53ce25128U, 0xbe0cec32bd8d8455U,
  0x3c8b6dcd3dae41aeU, 0xbdc25a243df8c97cU, 0x3c9add6f3ac62588U, 0x3bfccd953da224ffU,
  0xbe22d545bd7f578dU, 0x3ca20c56be020ea5U, 0x3d8d5ad2be18b1b4U, 0xbbeb1d003ca573c3U,
  0x3dfaf2fabd85b631U, 0xbd9328bfbde48d32U, 0x3bf639513dd6d8cbU, 0xbb478cc53c90fa40U,
  0xbd888488bd73a518U, 0xbd674a4f3deb9c78U, 0x3d560289bdadc4b3U, 0xba236483bdbae671U,
  0xbce5350c3d80d0aeU, 0x3c84796abd7b0c62U, 0xbd4f67cdbcb2e6dcU, 0xbe27d7963e08f490U,
  0xbd0f21c03d807d37U, 0xbdc13d84bcee0cdaU, 0xbdd22dc5bd9bdd95U, 0xbd1b2de5bdb6d849U,
  0xbdbcab76bdb1033bU, 0x3de00ba33d8f253aU, 0xbc1e1fa0bcd3490eU, 0x3cf7c40f3dcb3c7bU,
  0xbd85cc51bd5fd074U, 0xbd82d6e6bdab5cc4U, 0xbd02a688bd2a597dU, 0xbdb13f85bdef1d8fU,
  0xbda951fabd7eee4cU, 0x3df0f2353df5b917U, 0x3c6087b0bc850c0eU, 0x3e05f409be0d45d3U,
  0x3d252303bc47ff20U, 0x3bc98156be12db74U, 0x3d9f3c233d3d50dcU, 0x3dc43882bd77ad14U,
  0xbe0137ffbd500940U, 0xbdda19f7bd8ab862U, 0x3e0d8c64bd9736c1U, 0xbdd0d3a83d11fb5cU,
  0x3d5156e3bcf72570U, 0xbcd979633d7402cdU, 0x3d9c46103c9799d6U, 0xbd1521e6bcbd97ebU,
  0x3d4dee8f3e0c63daU, 0x3d32a0ef3e0d1af3U, 0xbbb4a7b1be0b4a19U, 0x3db12b3abd4f0eb5U,
  0xbdb26266bddcf3c3U, 0xbe17f3513d70049cU, 0x3cb81415bd6b7514U, 0xbc5df4cfbd564f0dU,
  0xbe006744bd0e1751U, 0x3db9c93a3d0ef9beU, 0x3d8f56f7bcd4d84eU, 0x3d9a5b4b3d6908d4U,
  0xbd7346723be8b0f9U, 0xbccf1f583b8eb993U, 0x3c4a0cb03d2ab298U, 0xbdd5f7bebe06263bU,
  0xbd915fc33ca6c0d2U, 0xbc36cf0abe37a451U, 0xbd8c5d0bbde69812U, 0xbdbd30b7be095cbcU,
  0xbdee18babd4e189dU, 0x3d9f5abb3c9ef574U, 0xbe088305bc19d100U, 0x3d8cf973be0abeeaU,
  0x3d34acefbc81ad80U, 0xbdbd35123de6f11aU, 0xbd70c916bdc28d53U, 0x3c2f3abf3dc37265U,
  0x3d17f808bd63ec41U, 0xbd9a40b3bb78c530U, 0xbdab4cc03d8bb902U, 0xbd6fcac9be0777ddU,
  0xbde5d732bd25c69bU, 0x3bd31f80bc8d740aU, 0xbd20d7a5bde88e5dU, 0x3db934d13d664c11U,
  0xbcf67e5a3bb2fe40U, 0x3ddd9bf83d31e6e0U, 0xbdd3f9583df8d018U, 0x3d86cd2c3d9eedd4U,
  0xbdb3f424bda9316eU, 0x3d1efb06bd80c11bU, 0xbd9aa351bd261d1dU, 0x3e0c5539be033866U,
  0xbd81480abe125c35U, 0xbd8bc5cbbd3f6006U, 0xbdf2b3b43d91396cU, 0xbdee56ecbdec89ebU,
  0xbe02e93a3d82b0ffU, 0x3cd52a6bbdc1889cU, 0xbcaf59ea3d6fb999U, 0x3d0d51513deeeba0U,
  0xbbd386263db55a09U, 0x3da05bb5bdd84107U, 0x3da2ef683d8964c7U, 0xbdd146e9bbfddecbU,
  0xbd2bc2e0be11ec06U, 0xbe055e56bdb7b270U, 0xbc14caafbe68162bU, 0x3da7db73bd3f1b73U,
  0x3d7b664f3b569b80U, 0x3df70d8d3e101474U, 0xbddd039dbe3478a3U, 0x3db593a73cfa61f0U,
  0xbd6aa54a3d021facU, 0x3ddf9c1dbd78fc2eU, 0xbdbd08ffbdb5bdb2U, 0x3d318fbcbcf51a29U,
  0x3d358351bd1c6705U, 0xbc1a94e33e0250ebU, 0xbdab64193e04a5e1U, 0xbe1d0452bdc783f6U,
  0xbe776757be0b11feU, 0xbd9f05dc3d9552d6U, 0xbdfc16d73da90968U, 0x3dbea81b3d6924daU,
  0xbe02ebffbc456c40U, 0xbdc407f6be5a09baU, 0xbe1bc461bcf4613cU, 0xbe0df07c3e094ad2U,
  0xbe1131263ba5645eU, 0x3df6fa243db417a5U, 0xbd401cae3e104894U, 0xbdab73063ce963bdU,
  0xbbbbba62be1a4c78U, 0xbe08ee04be1bd19fU, 0x3cb0bec43d1c8b50U, 0xbd14ba593dbd27aaU,
  0xbe03b1833cd47d18U, 0xbd0c91eabdb10ecfU, 0xbd998694be290d26U, 0x3da176b4bd27410fU,
  0xbe18a56bbcf5dca0U, 0x3d1a36b33e0a26dfU, 0x3db6924abe5eea24U, 0x3e037ee2bd320208U,
  0x3d978a603d8d4c4fU, 0xbe6b3c943d02fe9bU, 0xbd7a4f9cbe4f785aU, 0xbe07fa233d8380e5U,
  0xbdf7b1d93dd3a512U, 0x3dd94de93d10df30U, 0x3d85f6e2be02235dU, 0x3bc2251fbdd80022U,
  0xbc506d203e07eb1dU, 0xbddf3595bc84f579U, 0xbc87706bbdf8ad28U, 0x3cea062dbe1a8c39U,
  0xbd24527a3ca36d09U, 0x3c200bf83a493398U, 0x3d954fccbd9d55d8U, 0xbe0663ca3db50ddeU,
  0x3cb000ab3cfbd2d8U, 0xbe26a889bc068c77U, 0xbd42df18be0a81fcU, 0xbbf338d2bd23f2baU,
  0xbdb08f8b3d5c89ceU, 0xbe061de4bdafc929U, 0xbdfacb4c3dcf8596U, 0xbe3d8d633e120fecU,
  0x3c829bbd3cf1b6a8U, 0x3d2005bf3cb2bf48U, 0x3dde06e4be5e59a6U, 0xbe076a543ce8f319U,
  0xbe09e71cbd37c4a4U, 0x3e010a35be272192U, 0x3d20c3a83dc58809U, 0xbd08e31fbd5243c6U,
  0xbdb2793b3ddae478U, 0x3df43276bdb73d2fU, 0x3c3164203c3c50caU, 0xbcf8145c3d49bff1U,
  0xbd013172bd1a97feU, 0x3d26be1c3dbe5965U, 0xbdb67b823d31d419U, 0x3db9796fbdd77522U,
  0x3dadbbfe3bb6f3b4U, 0xbd8a8a403d0e8a4eU, 0xbe01d38f3de990f6U, 0x3da25ddebd82d38aU,
  0xba6bbf8cbdb10771U, 0x3d196feabd9df2d4U, 0xbde6630d3df5e527U, 0xbe17a402bde21c90U,
  0xbde53e9ebd306aeaU, 0xbda474583dcdfdacU, 0x3c984f3a3da0565aU, 0xbd6ef3b4bddfd3b3U,
  0xbd07f40e3cf584e2U, 0xbde2e75a3c932a43U, 0x3d2acc26bd1ea217U, 0xbdf8a376bdcd6ab1U,
  0x3dcb4cc83d1a655bU, 0x3dec9629bda9be26U, 0x3d8e8581be4a1eb0U, 0xbde196a53d9af4baU,
  0x3d259436bdfa825fU, 0xbe068f6d3dfa3940U, 0x3e0e7134bd3a993cU, 0x3d8f1ba7bc71fa30U,
  0x3de9e8ac3dbe6e4aU, 0x3caa13cabe0e3cd0U, 0xbc5159343df02b37U, 0x3df7eea9bc5a5a9cU,
  0xbc9b47f53d3609c3U, 0x3d35b3af3b87972eU, 0xbcd89b613d370b77U, 0x3c2b7032bdd987a5U,
  0xbd274c323d1b7f1cU, 0xbdf282cc3db14119U, 0xbd282356bc8b3a50U, 0x3dacecabbde9c101U,
  0x3e00f86e3dfb2290U, 0xbd69d9cd3cd658dcU, 0xbde9fdb53d74834eU, 0xbd9bf6fabd2bde55U,
  0xbe09a4413dbda98dU, 0x3cdcc1cdbda7bc46U, 0xbd4234d9bb913a57U, 0xbcee12debe193b9fU,
  0xbd921a8bbc21f6e7U, 0xbdcdf042bdbba9afU, 0x3e0466a33dadf312U, 0xbd829282be12770aU,
  0x3d4b42503d184da1U, 0x3cf98a98be129cb2U, 0xbacc9f00be39c1d4U, 0xbe036464bd8cca0fU,
  0xbdd50fc33bb45580U, 0xbe2f96473debedc5U, 0xbdfb042a3d0764e0U, 0xbd92f330bcb237e5U,
  0xbda75883bc676cdaU, 0x3d5a43bf3d1953e3U, 0x3dc1f43abe2d3046U, 0x3d2aeb0cbdebaa26U,
  0xbdc2b0fabdb293fcU, 0x3dcb05303dd10971U, 0xbd8121cdbc025f48U, 0x3d11d530bd7b5664U,
  0x3c7741f03cc2ca7aU, 0xbc8a18583ce47588U, 0x3dd6c0de3d86597dU, 0xbdee5d273d0f6f27U,
  0x3d41a60abdbda0b9U, 0x3d16dfd5bce4596aU, 0xbcf2bca43dda20d7U, 0x3e02042c3d230da1U,
  0xbd6529b8bd184c84U, 0xbda0951bbdcdc74aU, 0x3ce31b663dec0b28U, 0x3d98e52e3cf1fd40U,
  0x3d5c87fdbe0c5913U, 0xbc5239463d93fa06U, 0x3d10af14bd364db6U, 0x3d7f622f3e0b82deU,
  0x3bb7be3a3dc6bbb6U, 0xbd1918b0be04875eU, 0xbe0321d83d83ff09U, 0x3d9da30e3d04c26cU,
  0x3be356e0bda7ceefU, 0x3df3eb28bd95f65bU, 0xbc57f680bcdda729U, 0xbe31d369be0d0d54U,
  0x3dd5c6abbda6f0cfU, 0xbe00676ebdd02e12U, 0xbd54cce6bdad7c3cU, 0x3c6a725e3d23a20bU,
  0x3c8904a4bd13719cU, 0x3da35f32bce633fdU, 0xbde422de3df159b5U, 0x3c6324aebd5b0da3U,
  0x3df31333bd51cc4eU, 0xbda1e828be2daccdU, 0xbe000068bca660eeU, 0x3de6af66be16730cU,
  0xbded919539e8405fU, 0x3cf4299ebdc2ded1U, 0x3d4106e43e0d3951U, 0xbcb7d875bdcaeb97U,
  0xbd8cec3d3bec2124U, 0x3d6abc62bdc9a8b6U, 0x3b2d948e3b87bc9fU, 0xbcc1bda8bcbe5131U,
  0xbcb971a93d72a72cU, 0x3a87b4dcbc2a8827U, 0xbd8599d63c3a4360U, 0x3dab3d643cc1cef9U,
  0xbdd458a93d9947e0U, 0xbcbdee46be0e8cf0U, 0xbda03d2bbdfbf577U, 0xbdc31fafbd8940b9U,
  0xbdb046f83da5e69cU, 0x3e2d4ceabd9725e5U, 0xbd9396933cb7db18U, 0xba5d19003d98bb92U,
  0x3d90945cbc5dede0U, 0x3e006abfbdc54193U, 0x3cc9785d399af954U, 0xbe0f1b773dd83dbcU,
  0x3cdf80b93d33bd7cU, 0x3df5542d3dc55732U, 0x3e0e7d1dbd8a92b9U, 0xbdef3ca23e076409U,
  0x3de66af43da933cbU, 0xbde1c4c9bdb2b3cfU, 0xbdad194b3d7698f2U, 0xbba3779e3d8af8f8U,
  0x3db780643e04e05cU, 0xbd8119aa3e0b29efU, 0xbdf02e20be04869eU, 0x3d98c5e83d838fcdU,
  0xbded84dabd6da160U, 0xbc46368a3dcdf892U, 0xbc9d42a2bdacf0ceU, 0xbbdf852cbd76ea05U,
  0xbc7ce1e7bdc00c15U, 0xbd99451c3cd4f0d8U, 0x3e14bda83d27c193U, 0x3ab18000bdc70879U,
  0x3e094db0be117e02U, 0x3da95db3bca71105U, 0xbe08ae50bd435535U, 0xbe0fdf6ebcab7aeeU,
  0x3de775883df1926cU, 0xbc87b0c83dbb857cU, 0x3e13506ebdc6cb9aU, 0x3df67c94be088be2U,
  0xbd6d26ba3e12808eU, 0x3d2c50b33de798bbU, 0x3dc1a773bcce23a4U, 0xbd9cd59b3d893f9bU,
  0xbdbe37193b389240U, 0x3dc5b2203d528700U, 0x3e110bb73df89c54U, 0x3dedea4c3d4a5e45U,
  0x3d459b01bbd66a3cU, 0xbd7fd6e93d31f710U, 0xbc66cae83dcd1432U, 0xbe130b763d9089cfU,
  0xbdb90b203c301d90U, 0x3d61c60bbd135241U, 0x3dd3cc43bddc6687U, 0xbd61c7f2bd92dbc0U,
  0x3d7db5373ce6ebf8U, 0xbd12b8353df21350U, 0xbd882dc3bdfc74cbU, 0xbdea25b53d671710U,
  0xbe0d1650bd17a8f3U, 0xbe04baee3d19b5a3U, 0x3dc3001bbdcbd366U, 0xbd814341bd7acdfcU,
  0x3d9b3519bdb87216U, 0x3daaeded3e111e16U, 0x3d3aa9cb3c922c51U, 0x3da7f020bc257040U,
  0x3cc70038bd95d38cU, 0x3d1732943e07c5c0U, 0xbdca525e3d85c817U, 0xbc79027b3d510efeU,
  0x3d252a4bbe02ec16U, 0x3d83556fbddf7cdeU, 0xbd9d13e8bdb10c64U, 0xbd0f628ebcf4b6daU,
  0x3da8c8e4bc04f378U, 0xbe121bdf3dea7240U, 0x3ce99bea3cf6a898U, 0x3d61fe78bda065f4U,
  0x3d79e7e7bdfadd05U, 0xbda0071ebe0ec4aaU, 0xbbf5acc03d9190e4U, 0xbd902e793d4f50afU,
  0x3c07a809bc35b0a0U, 0xbd7975403abe6f80U, 0x3d603814bdbc188cU, 0x3d8eb7d33dd77cc7U,
  0xbd0784063dc761acU, 0x3d9c94cdbe13971aU, 0x3c9723153c2a5740U, 0xbe5065b73dc1b108U,
  0xbb7167fa3b9d8ea5U, 0xbddcd6b83db8403fU, 0xbccdcaefbd88e14eU, 0x3d7b03603d9ee4cbU,
  0xbd9b6c613c0d3b30U, 0xbd5c22ec3ad18aceU, 0xbe08d80d3d2c1ae9U, 0xbd84b7a4bdcb0570U,
  0x3d98d64fbc9f696cU, 0x3d4deb82be0918a2U, 0xbda7ee7d3bbedfa2U, 0xbd5ce40c3da8626eU,
  0xbcb5f837bd782acdU, 0xbe0fdaf5bdb5e184U, 0xbc6a050a3d56a663U, 0x3e0531c8bcfedc4bU,
  0x3d2fb303bdd5986fU, 0x3e03c487bde9d1a0U, 0xbd977615be3a8767U, 0xbccca964be3c7bebU,
  0xbe00dd01bde37518U, 0x3caadda33db793dbU, 0x3d5720803db8b265U, 0x3e3848f1bd5760c4U,
  0x3d9aa7903d420a08U, 0xbba1d11a3dbaf16cU, 0xbdaee3e63cbdaac2U, 0xbdcfe9c43de5dbf6U,
  0xbd93ae3e3ddfaa07U, 0x3e0866943d6b99c9U, 0xbdb3c704be3118f7U, 0x3ddd1b40bcb0dd9bU,
  0xbd86402a3d129f19U, 0xbd373488bcc84bbfU, 0xbe8deb243c3f4766U, 0xbdab9c0d3ddc1763U,
  0xbdff84d4bd50c0a4U, 0xbdbd150ebcb35c93U, 0x3dfa668cbd1ff4f1U, 0xbd1a61803ca44eeeU,
  0x3ca526e53d64e67aU, 0x3d3b5479bbeaf8e9U, 0x3d2dc024bde7fe26U, 0xbde0ac1e3df087c9U,
  0xbe00dedcbe183f15U, 0xbb9ca02ebc52e462U, 0xbded384dbe17a9fbU, 0xbcd162413dfb5c96U,
  0x3c75102dbdfc3a2bU, 0xbba1651c3b4f6bb0U, 0xbe2d4fc53d9e5622U, 0xbdee74debdc3f2dfU,
  0xbda0b9bf3dd91261U, 0xbd13116f3d46feb9U, 0xbcd37e7b3d196ecdU, 0x3d92d2af3cd0e50aU,
  0x3e0fd1f2bc850bfbU, 0xbe14b73abe349895U, 0x3d8fff92be0369a7U, 0xbb31fac0bdad9bd7U,
  0xbe2bb3153da34b58U, 0xbd8d518e3d48d102U, 0xbdbbf6afbc363eb9U, 0x3dcc1a213d7e9e84U,
  0x3df44187be65cfe8U, 0xbd8888c8be8b88f2U, 0x3a8053c9be0b4802U, 0x3d8e0373bd6164baU,
  0xbde1523e3ddbb524U, 0x3d9977b13b79da5bU, 0xbe281f6a3e0d278bU, 0x3e37b486bc2d78a9U,
  0xbc9128f0be4bbd7fU, 0x3dc27b753ce8e646U, 0x3e10daf2bc4f6520U, 0x3cf140c83e21bd34U,
  0xbe170218bde88739U, 0xbde4620b3e0498faU, 0xbd8513c93d4f1292U, 0x3e130f50bcb353c2U,
  0xbdcad19ebd901433U, 0xbdea08cfbd70dacfU, 0x3de7a1a9bd8c30a2U, 0xbe00a260bde92575U,
  0x3b0547bd3acb7206U, 0xbdc511c1bcdfaf4fU, 0xbd2d707c3d9285f6U, 0x3decf8223c7a47b5U,
  0xbce1114a3dfcd6c3U, 0x3e1bc4653dd271e6U, 0xbd1fd95dbde9f04bU, 0xbda18a603dbcdb25U,
  0xbd378e89bdb58009U, 0x3bbdadfbbde2ba91U, 0xbe66d097bdee91a1U, 0xbd49694c3df48dd5U,
  0xbd9eb5b73d125bc2U, 0xbd19b5bebe249c13U, 0x3d9edfe1bd728a5fU, 0xbc68eb703d0819a6U,
  0xbd9410953c1e86d4U, 0xbd9ff1263cc8ab03U, 0x3d80b08b3d6743a9U, 0x3df4e051bd8ad8c6U,
  0xbdf4c0d1bc415020U, 0xbe0be491bd64f17eU, 0xbc8c0400bccce618U, 0x3dacb9373d302e9cU,
  0xbd6191ec3b928c36U, 0x3d7d9c493c2090a1U, 0xbe2b88a3bc75200bU, 0xbd190b38bdf60e21U,
  0xbdbe3cdbbd615b73U, 0xbe29f0f13c860e2aU, 0x3b9887343cfc9c41U, 0xbd0c187c3d4b060aU,
  0xbe52ce9f3ccf2ad0U, 0x3d9e766fbc6bbe4dU, 0x3cde1bc03d316059U, 0x3c9fc88ebd612851U,
  0x3abdd2803d2adaccU, 0xbdd1baacbe22629eU, 0x3d88cc63be209e15U, 0xbd6103b33d8b0285U,
  0xbdc14d24bdbf6d66U, 0x3dfbc8873ddd8042U, 0xbdf344953e1227efU, 0x3d2536803d79a191U,
  0x3cc8a201bcd70ee4U, 0xbe1aa6263d09c19bU, 0x3dcb63b7bc5a552dU, 0x3d83bb9abe03c41bU,
  0x3d88f788be06b114U, 0xbdbe48a6be1954fbU, 0xba895b00bdb618e7U, 0x3d8282d4bc75ead5U,
  0x3d4a12a9be08d91aU, 0x3d9886ea3cdd9e54U, 0x3e129e3c3d74e345U, 0xbde90ee4bdbb54c6U,
  0xbc0d6276bd2f9cf6U, 0xbe75a555bdfe6261U, 0xbdac7aee3d73b811U, 0xbd95013dbd07a53cU,
  0xbd60351d3df58a54U, 0x3d96ff61bdf6039bU, 0x3daec1483dc23a39U, 0x3d8ff8d93e10ceb5U,
  0xbde8b6773d464a75U, 0xbdcdbc313c82d9bbU, 0xbdb938fe3db3117bU, 0xbdf68052bb268201U,
  0xbdd274863d3e8206U, 0xbca55c8a3de9c376U, 0xbe031572be00dd12U, 0xbdb8d528bdc046c9U,
  0x3e08a2d8be08876aU, 0xbe274435bde992ddU, 0x3d954307bc3e5170U, 0x3d58bb81be0ac82dU,
  0xbdd385fe3b583f50U, 0xbcf8eae6bded77cdU, 0xbda0be83bde415deU, 0x3ade06c3be0b8fc0U,
  0xbca81baabd8b3103U, 0xbdb0c40cbd2fb5f8U, 0xbdd882c0be343f7fU, 0x3d0071a0be0be9c6U,
  0x3d9e26783d8413e3U, 0x3d80e26abdbc4044U, 0xbcd7b2b8bcbcf087U, 0x3d168a7e3c495b40U,
  0xbcabbd983d3fb5abU, 0x3e0de7e0be3662a1U, 0x3d1406f3bdb98075U, 0x3dd1a8c3be205959U,
  0x3d6caebcbddae9eeU, 0x3d820bce3d712775U, 0xbe03f7633d6764d2U, 0xbd890ea0be0f8567U,
  0xbdf5b1b8be2704deU, 0xbdda1b35bdb61003U, 0xbdc559a53d1c1763U, 0x3d926836be241e6aU,
  0xbd888dba3c81e4adU, 0x3d8dd4c03d9b80aeU, 0xbd384b723e10c2edU, 0xbd50a16ebdfab31dU,
  0xbda2a906bdaec33cU, 0xbe21575a3d9c4d10U, 0xbe048c21bdd8e49aU, 0x3dc45a513d7b7b87U,
  0xbcdd07d23d86d903U, 0x3db9452abc648469U, 0x3df7f3fa3dcb0dc8U, 0x3d951520bc86423dU,
  0x3c886be13cd62a15U, 0x3dacb15dbd13c425U, 0xbdd43b613b33ececU, 0x3d62e288bdc934dbU,
  0x3cb1de823d944cb6U, 0xbdd3366f3bcf0620U, 0xbdf8dfbcbdbfc001U, 0xbd83a985bd317910U,
  0xbb6a2c003dd91d19U, 0x3de12524bd3e2927U, 0x3d57adf43c868d61U, 0xbdead3cf3d1695beU,
  0xbc3ae564bd835230U, 0xbdf6f4e4bd9a3fb7U, 0xbcf7e6debc16aa96U, 0xbb7ef871bd06d194U,
  0xbda53df3bde192cfU, 0x3d8c0257bbb98513U, 0xbbeb42003d920fb7U, 0xbd368f933d570ee9U,
  0xbd67ad64bd51fdd8U, 0xbe2f6bcb3da9fe0fU, 0xbd39e51abe223822U, 0x3d9f973abd3710b9U,
  0xbd0d675b3d35aa34U, 0xbd7bb3b8bdc4485fU, 0xbcd51820bd8d240aU, 0x3d5b029a3c7e9b06U,
  0x3c5a30dcbde2b9ebU, 0x3e04b4993d117328U, 0xbe031c4abcddae51U, 0x3d9448ccbd40bd1cU,
  0xbdb7e941bd18c425U, 0xbd1416723d53b141U, 0xbdf2b965bdec48e2U, 0x3e0814723da3eb4fU,
  0x3dedbf2d3d0abb84U, 0xbcd40a79bd83c917U, 0xbbffbce03cf33243U, 0xbbd218803dcada5aU,
  0xbdf2dbf0bcc532f2U, 0xbdfe40fe3db63827U, 0xbd87cff5bd86eb1eU, 0xbdd0a746be026709U,
  0x3d8cfaff3d1e83a4U, 0xbdbda7e53cc3a5e9U, 0x3c9b076dbd9f87ebU, 0xbd28c854bda1b888U,
  0xbdc05530bb347d96U, 0x3dd6fab9bd88d62aU, 0x3dd2b2fb3df2e8b3U, 0x3dd1c5eb3bf03b3dU,
  0xbde101133dcac111U, 0x3e0aefe2bd0ef140U, 0xbcc5da703dbf79abU, 0x3e0dea503cf05225U,
  0x3d710df83c93c342U, 0x3d2177623be0e539U, 0xbcfd31333cc6ea48U, 0x3d947d273d155a04U,
  0x3dd2013b3d9a5290U, 0xbddeae2abc80d138U, 0x3e05f582bd363150U, 0xbdc4c74dbdeef2b2U,
  0xbdedeabd3d9db484U, 0xbc042d29bdde0f01U, 0x3e0a5be53d44706fU, 0x3bb30e7cbcee0563U,
  0xbc8c9160bd53e69cU, 0xbd614c033d312624U, 0x3d9c82aebdb48480U, 0xbe2d6b7e3cad4328U,
  0x3d6dc732bc54ae31U, 0xbd532242bdcc9386U, 0x3ddb4431bd848162U, 0xbdcf3ac2bcce48a1U,
  0x3d2bc1b63daf91acU, 0xbdcc0046be0724aeU, 0xbdc37e2d3d4f7b8bU, 0xbd9ec09d3e06ed91U,
  0xbb1cb3cd3d486433U, 0x3db093f8bde0ba86U, 0x3dde75813df99962U, 0xbe0429f2bd8c57f6U,
  0xbe06d74c3d7e1650U, 0xbd6f9d0b3de1379aU, 0x3dbb87bdbda457bfU, 0xbd87cf4a3d855f7eU,
  0xbd898fe73d6876f9U, 0x3d517ee7be0f8c28U, 0xbd33054f3df0a62fU, 0x3deeae683e0309b5U,
  0x3d8641c23d92d64cU, 0x3cff716e3dcdfb66U, 0xbda39d2cbd375fc6U, 0xbe0b131ebe17599eU,
  0x3e0900bebd216e67U, 0x3da47d67bdb0d924U, 0x3d809e643d8f06e5U, 0xbe0594803cdd49d4U,
  0x3df21f813cc3ceb8U, 0xbde0ecb1bd9f6b95U, 0x3e1ebf143d515705U, 0x3dde97043dad763aU,
  0x3e12af40bd0eb3c6U, 0x3b6506133e15043fU, 0x3cd0a92e3cd1bf96U, 0xbe0fc7bd3cdd29acU,
  0xbc1c6696bddd195cU, 0x3c3beaae3dbdf03eU, 0x3d057088be08edbcU, 0xbd995b13bd901434U,
  0xbc048638bd2bd73bU, 0x3dd55bea3dac0b50U, 0x3d1c1af43ba061e9U, 0xbc4c56d83de0af4cU,
  0x3d2fe1043d1fb6f8U, 0xbcc4270c3d1b8294U, 0x3de967c0bdcfd026U, 0xbe0298bf3db2f73bU,
  0x3c9112853cffcba8U, 0x3d183eecbcc06cacU, 0x3c79e79d3e0fb85cU, 0x3ce7a0033dbfd35fU,
  0xbe0f11c7bde335fdU, 0x3c9c36c2bdfc9060U, 0xbd7f0623bab11af3U, 0x3d869188bdf8eda8U,
  0x3de2f878bc3de39dU, 0x3e199961bdd9fd5eU, 0xbc3450e0bdc9acd6U, 0xbd77903e3e047db4U,
  0xbdff52dabe0790b4U, 0xbbf074c03de9fc04U, 0x3caab258be10c668U, 0x3e0322cabdaec9d4U,
  0x3e06f8583c2dae96U, 0xbde233f2bd975eb4U, 0x3ce63aa0be1daa22U, 0xbd9ac1a33da2f6a2U,
  0x3cfaf828be0d9cf1U, 0xbc26d2003de53360U, 0xbd6420f33e0a23d7U, 0xbded0acc3dd88bc8U,
  0x3cbc54703dd66152U, 0x3d68fbddbdfd55e6U, 0x3da480353dbf3a6cU, 0xbdd5e9343d6ebe9aU,
  0xbcee2ea6b99a1000U, 0x3b53639a3def4487U, 0x3d516b8f3e0b5802U, 0xbd367dbe3db6b0b0U,
  0xbdb41e8fbe1e5633U, 0xbdacae1d3ca746ecU, 0xbd07c536bb901904U, 0xbdfe00e0bdc504b9U,
  0x3c237bf73e2a2373U, 0xbdaa84aebd4da5ccU, 0xbe0d7a0abdf3ca2cU, 0xbd1335913dd53d3fU,
  0xbdbcce9f3dcf0d72U, 0xbe0d78263d883032U, 0xbd375cac3e15eaf6U, 0x3d507bffbe0df272U,
  0x3d8bd0b4bcf148e1U, 0x3e1d8f953c5791e6U, 0x3d32f4a53a5b0a73U, 0x3cd527f83df9a745U,
  0x3cbe6624bd49c991U, 0xbcd605f4bc268932U, 0x3ad534c23b6f4b67U, 0x3d8560c4b982e983U,
  0xbdf6e570bcd112cdU, 0x3c7cc5703d66e4dcU, 0xbdcc503abdb6a80cU, 0x3d2a3e00bdc2a167U,
  0x3cb675683d4d8b2aU, 0xbc53e5543af9e349U, 0xbb9aa8533d98bfc1U, 0xbdcca0ec3d98ff3dU,
  0xbe04de8cbdad1475U, 0xbd7471643d8f10aaU, 0xbe075c73bd9f5345U, 0xbd84742ebdb09fbcU,
  0xbd8d32fcbc1935a7U, 0xbe0261ec3da75964U, 0x3bab5acc3d9cd7ceU, 0x3dcdb995bd932b7fU,
  0x3dc8e25fbd28b5baU, 0x3dd339363dcdecd0U, 0x3d7cd4b83e097d2cU, 0xbdba367a3dac7363U,
  0xbd46f922be3b54f3U, 0xbca47b0d3d8a6baaU, 0xbcc08161be15b841U, 0xbdf69512bdc23b78U,
  0xbb6eb392bd07bae4U, 0x3d9ddad13cc0c961U, 0x3c06e6ca3e153ca9U, 0x3e052f293d1ac08cU,
  0xbdf64a163d86eae2U, 0xbe075e21bdc11c36U, 0xbdcf588cbdeb31baU, 0x3cb46780bde5f52eU,
  0xbc8b2b6cbd5c959eU, 0xbda351b6bdcfbd67U, 0xbdec8ed83d054520U, 0xbde41b773db0bd00U,
  0x3d2de1343dbca036U, 0x3dc392863d779247U, 0x3d01d1e03dcc838cU, 0x3d0976d8bd125a0aU,
  0x3db920fc3dabbcf8U, 0x3dbe7a013dbcea51U, 0xbd990029be06a5aaU, 0xbda9c72d3d14ccd3U,
  0x3cd57a703de551c6U, 0xbdf1c2e4bda27036U, 0x3d849fa1be036d7dU, 0xbda1ef6a3e0190b1U,
  0xbdd1f7a53d8cda81U, 0xbe026ce7bdb81638U, 0x3e213d303e188ec2U, 0x3db38ac0bdab645aU,
  0x3e01f9b43dda3b41U, 0x3d95caa0bd922195U, 0xbd38199cbdc6a1afU, 0xbd5c8160bd17608fU,
  0x3e0db0a0bcee2d09U, 0x3cd57f4c3defa023U, 0x3da84604bda37fbfU, 0xbc381e70bd29a914U,
  0xbd8fd1b03cdf435bU, 0xbcc04e1cbd705e31U, 0x3b821329bcffbe44U, 0x3df2d5693dca565dU,
  0xbe254a063d945b4aU, 0xbdf36d8f3ddd8e7bU, 0x3dbfba0a3d5fd35aU, 0x3d14a39cbbbbe421U,
