/**
  ******************************************************************************
  * @file    wine_quality_data_params.c
  * @author  AST Embedded Analytics Research Platform
  * @date    Tue Nov  7 21:50:20 2023
  * @brief   AI Tool Automatic Code Generator for Embedded NN computing
  ******************************************************************************
  * Copyright (c) 2023 STMicroelectronics.
  * All rights reserved.
  *
  * This software is licensed under terms that can be found in the LICENSE file
  * in the root directory of this software component.
  * If no LICENSE file comes with this software, it is provided AS-IS.
  ******************************************************************************
  */

#include "wine_quality_data_params.h"


/**  Activations Section  ****************************************************/
ai_handle g_wine_quality_activations_table[1 + 2] = {
  AI_HANDLE_PTR(AI_MAGIC_MARKER),
  AI_HANDLE_PTR(NULL),
  AI_HANDLE_PTR(AI_MAGIC_MARKER),
};




/**  Weights Section  ********************************************************/
AI_ALIGNED(32)
const ai_u64 s_wine_quality_weights_array_u64[5434] = {
  0x3e626b853e9a6db1U, 0x3c585011be8d1c05U, 0xbd0fb149bbea5c48U, 0xbf083cd4be99b62fU,
  0x3d21962ebd465c33U, 0xbedf26b23edd4598U, 0x3f0930b2bdc0ab44U, 0x3e2147e23e9665d5U,
  0xbe4bc47b3f56455dU, 0x3ea5721ebf021cc8U, 0xbd5297b3bc8e8576U, 0x3f5dcc27bf206b3dU,
  0xbb8d45b6bee1531bU, 0xbd103bc7bef854c6U, 0xbee848853eb60921U, 0xbf2d25653f517c93U,
  0xbfbab7ed3fe928b9U, 0x3e12df43402dbc86U, 0x405d60c8400719c1U, 0x3ff5dc39beca94a7U,
  0x3f00b8fe3f8b5b28U, 0x3fb355f1be5f1f32U, 0xbf8ef387c0202d0aU, 0xbff018973fa65ca6U,
  0xbe7e42c340891126U, 0xc03b5d583e082f55U, 0x3faf61aabd1de98fU, 0x3ff94609408a5bdcU,
  0x40397c284058adeeU, 0xbeec4e27c02420c2U, 0xc029653e3fcbfd83U, 0xbf2774b6bfd34647U,
  0xbe100f83bf565331U, 0xbfeb4416bfb2112bU, 0x4005e3813ec0ae5dU, 0xbfb594623fdfbc7cU,
  0x3fd2be5cbe60827bU, 0xc02867343fc0e91eU, 0xc01703df3fa2d430U, 0xc02665e5bf8ef597U,
  0x3ee58c66be85b814U, 0x3fa2b1eebfa32c20U, 0x3ffc9bf3bf908526U, 0xbf5053b6bfdbccd3U,
  0x3e739f943fbf2606U, 0x3df2c9d53fb04005U, 0x3fb8e9b83fbdb7aaU, 0x3b5050c03f53d4d4U,
  0xbf6323803fd1a19dU, 0x3f5ddb7a3e4afdb3U, 0x3f3e77583fd9de24U, 0x3fc2a1eabd42560dU,
  0xbe3c09233fc1a733U, 0xbf7240c03fa4c55fU, 0x3e3692fa3e5a19efU, 0x3f9289f13c939c4cU,
  0x3fa4ce323eef50d7U, 0x3f5638f73e996824U, 0x3f135f4fbf67c2e5U, 0x3f22c7053f950809U,
  0x3e930ad93f85a04cU, 0x3fd575933fa7cc23U, 0xbebc66bc3f9f1213U, 0xbf58d50c3fa8eabcU,
  0x3e8e11a4beb28e4aU, 0x3f830b513f9d264dU, 0x3fa556a7bdd9a32eU, 0x3f15bc953fb3e579U,
  0x3e6aef183f985098U, 0x3e8e343fbde3fed2U, 0x40068e0ebe954befU, 0x3f9007343f8aca06U,
  0x3e225879bdebb56fU, 0x3f97e129bf578e53U, 0x3f955e903fbc788aU, 0x3eed1c73be06710dU,
  0x3fe5806f3f04803fU, 0x3e91c56f3fb85ba7U, 0xbf6fe4f63f4e9397U, 0xbf836dc63dee6444U,
  0x3fae76b83dc90fcfU, 0x3f0127cfbe4697aeU, 0x3f7094bb3fa9afedU, 0x3f90fd453f514142U,
  0x3ec96c883e9465ceU, 0x40104dd23ea2aed2U, 0x3f32953c3fc4a162U, 0xbf8ce0653e8f8572U,
  0x3fb12b70bf9450a2U, 0x3fec4dbb3fbc11ffU, 0x3f43e1cdc017a2ecU, 0x4007164cc016a95aU,
  0x3deb0f8ebfba0574U, 0xc00933b4c00b9e6aU, 0xbeb983513ec5faadU, 0x402daea4c01f5679U,
  0xc00969bf3ead6bd6U, 0x3f8c49ef3fe9fee7U, 0x3f99f5a4bffbdeb0U, 0x3f18ce55c00875b9U,
  0x4020aa0ebe7f89f4U, 0xc0044c2c4050e6d9U, 0xbdbf7e34bff3ba8dU, 0xbfb20444c00c003bU,
  0x40566fc63fd522baU, 0x3f662fc9bfaa313bU, 0xc090e4dec001eb7dU, 0x3e5cba73c0748ce2U,
  0x4040d432bfd9fdcbU, 0xc06339e23eabe546U, 0xc0a6a63bc03a8924U, 0xc049d7893e6b9f40U,
  0x3fa2e507c09e6dcfU, 0x4016d775c07cf6b8U, 0x3f43a0cdbff6709dU, 0xc07c7b45bcac8a9cU,
  0xc0519b9ec09f8559U, 0xc04a098abff61296U, 0xc04a5b424049a5a7U, 0xc09fc35ec0a406daU,
  0x3f40beccc045857bU, 0x3e1ae3eebe782991U, 0xbf3a3f883ec60b59U, 0x3fc218974030f844U,
  0xc03fdb953ffe502dU, 0x3ddaf0cbbf90ae16U, 0xc02ae495bf7f0236U, 0x3e207395bfe61508U,
  0x408714463ea94caaU, 0xbede408bbe96ccecU, 0xbf7525bfbfb978b1U, 0x3ff6676fbec3c5acU,
  0x3d8ad615bfdee35bU, 0x3f9c0f41bf8826aeU, 0x405d9ad9bfda160fU, 0xc016b7503ee0ee23U,
  0xbe227129c054601bU, 0xbfa84fa63ee65c92U, 0x40ccbd82bfc5327fU, 0xc021146040d0c921U,
  0x40aa1289c02288c8U, 0xbfddf85f40bacaaaU, 0x4038a969c011de4fU, 0x40070748c03171a2U,
  0x3f9a6d1e3e96c388U, 0x3fe206ddc04e3885U, 0x402b833e3fdc45deU, 0x3f8333eabfb7bc4eU,
  0xbe3e3b96c054f82bU, 0x3fe98e88bfe08d5dU, 0x3f85e32c3edca85fU, 0x3f9cd8a63f971682U,
  0x3f93c865baecaf6eU, 0x3dd1ad743d298ef9U, 0xbea33d53be51180eU, 0x3e3d62343fd662b6U,
  0xc005ee67c00d8c11U, 0xbe7fa8cabe5b410aU, 0x3f1000e5bf5e500aU, 0x40116ae23ec1f98bU,
  0xbf468b4e3fa5676dU, 0x3f3ac0a9409827d9U, 0xbede5db9bd4e4f62U, 0xbf6a0b83bfbff125U,
  0xbe59e9b0c01da3c6U, 0xbf54cc803f065635U, 0xbfb822b6c02893a2U, 0xc04cff19c0322b1bU,
  0xbfd86bcd3ea937b4U, 0x3f388fda3e9ad0c9U, 0x4025445e3fa36e04U, 0xbf555ce8bf4aaae0U,
  0xbfd66feabf0429b5U, 0xbd956341bebadba6U, 0xbfc2f41f3d8e4f22U, 0x3f4cc06f3ff7d1a9U,
  0x3d9d40383e01fd43U, 0x3d1d33a83e6274a6U, 0xc0123507bf44f582U, 0x3fb5e9b2c014c61eU,
  0x40802b7dc03f19c5U, 0xc0071859405840a6U, 0x4032796640a4a951U, 0x3dce44a83fb0931aU,
  0xbfc2ebe83f152a1cU, 0x3ee82f8cc001bae1U, 0xbc308b48bd52f6ecU, 0xbebfc547bf969b60U,
  0x3fa1d4d7bea9e6a3U, 0x40144e533f698ea1U, 0x4003ea6d4029f58bU, 0x40ad22cdc0464e99U,
  0xbf065685c08f8917U, 0xc01f28493fb00982U, 0xc0a62fab3f0ef645U, 0x3f1de9173f9f5612U,
  0xc080c0e23fcc2b7eU, 0x3fb759aa3f956b87U, 0xbfbd8db63c34af6cU, 0x3c9cfdd13fd86c3cU,
  0xbf4e075ec01e878cU, 0xbdb1cac23fd5ee36U, 0xbfe8d709c0858642U, 0xbfc12bbe3fc4551eU,
  0xbfae068e3fa217a4U, 0x401897be3fade4baU, 0xbd0c398b3fce8969U, 0xbfda0ba3bf776d89U,
  0xc006fee63f8d8a58U, 0xc000c6f13f21a427U, 0xbeb75bfe3f3fe426U, 0xbf43c83fbf2253d5U,
  0x3effa5bc3f0f0fe2U, 0x3f8cca034064c33eU, 0x3f84756bc032cbd6U, 0x3e0adfe83f10c76bU,
  0x4056a85c404cd131U, 0x4057b97f4082801aU, 0x405a6193bd938cb9U, 0x3fd7457ec0f03e70U,
  0xc02b2620c079fa4aU, 0xc00c210c40080fe4U, 0x3e76f8183f4b2918U, 0x3fbe7bf9bf1f4fe6U,
  0x3fa9e8e63f4cfb7eU, 0x3f2988cac0b0fe3aU, 0xbf93a58cbe59c858U, 0x40857ca040ad0eaaU,
  0x40027c9f3ef6ca05U, 0xbf1c0eebbeca2bc7U, 0x405f46284085b398U, 0xbe5db470bf89ce14U,
  0xc007cbf13f6d1377U, 0x3ef90936400d1a79U, 0x405c6937c093da89U, 0xc022dcae3f5bbe17U,
  0x3f5217f43fa5ea13U, 0xbf9a72d1bf120595U, 0xbf972779c01e52e8U, 0x3fab8024400bbe13U,
  0x40b38a97bf760312U, 0xbf5a55203ff500d4U, 0x3f70ab35be11e162U, 0x3e70d878bebea4beU,
  0xc02d777b3ee7a1e1U, 0xbff244debfa1d837U, 0xc0521f93bfcc8d48U, 0xbcafede0bfbeb8fcU,
  0x3edcc0ffbe84864dU, 0x3f5d63aebe95a377U, 0xbc5771243dff021fU, 0xc02df43e3fb4f867U,
  0xc0d5f4bf40a74382U, 0x403c0308bfdc61e3U, 0xc02a87c1c02c725bU, 0xbf610e60bfb338b3U,
  0xc0c516bbbf719402U, 0x3f07c8053e154193U, 0xbf9b11f3c02cbd31U, 0xbfa1ec80beffb439U,
  0x3ff23c84bfbefd44U, 0x3fa1db563f4d7c4eU, 0x4012b1e3403d8b5cU, 0x3fdd84063fff34dfU,
  0xc0406e8d408dfa62U, 0x40664b0f40a2f4e8U, 0x3f711948c0406efbU, 0x40030c71bfa60025U,
  0xbfa36922bdde174dU, 0xbfeb641abf8e0cc6U, 0xc0b4303abf36af8bU, 0x3f9edbc3c04cde78U,
  0xbfdbb070bfa95e54U, 0xbfd9e218c0710109U, 0x4044d273c0217eeaU, 0xbfbebd8dbfa3745dU,
  0x3ea383e03ea89723U, 0x3f6d0de0c008ac62U, 0x3fa721fcc05b8203U, 0x3f8d8f5a3f3242d5U,
  0x3f0db22f3fe35a0dU, 0x3f7a56dfbe5070daU, 0xbf8174c4be9547d4U, 0xbf01e8b9bf6341c6U,
  0xbea7c9ca3fd7cfeeU, 0xbf3855c6c000969bU, 0x3f082a363eb3990cU, 0x3f10b14f3f92b4b2U,
  0xbf4efa39bf2d284fU, 0xbe8778ebbfff849dU, 0xbf916a8f3fe4b706U, 0xc090ac493ff4d792U,
  0xbf0892febe70a16aU, 0x40288afc4026b822U, 0x401284623d7bff41U, 0xc01525103fe7add8U,
  0x3d4619d140e76931U, 0xbeedee6f4097de0fU, 0xbed3c4debfd6202fU, 0x3fb031273f8c8802U,
  0x3fb6ed8abea2ff31U, 0xbf7cbaf03efffe94U, 0x3edc041f3e87c9ebU, 0xbfdae3db3f9a5a99U,
  0x3fcdb6a2bfe5d6a5U, 0x3f2bb63f3f6eceb9U, 0x3f10e109bf6641fbU, 0x3f1fc8ec3f97f09dU,
  0x3f75e5e53f176deaU, 0x3f901251bfa0d7a5U, 0xbf5c1e5c3fc3d723U, 0x3d908ebf3fc3330eU,
  0x3f8cc8cf3f91c7edU, 0xbf16e132befdaff5U, 0xc05ae7a23f83ba88U, 0xbfbe6efbbddeb3edU,
  0xbf58cca1c01b4ac8U, 0x3ff6bcdabf323926U, 0xbf54bb3a3f8e9a61U, 0x40073045bf3c0d97U,
  0x3ea1edc9403ab0b3U, 0xbfec262dbf677793U, 0x400d27e440803830U, 0x3fab96dc3ecdc5e8U,
  0xbe289018c0165d21U, 0x3f5eccf6bf803ddbU, 0x4048a44b3f3b3025U, 0x3e3eed733f6f05d7U,
  0x3fdadcfb3f9ab280U, 0x3f68e108befbe074U, 0x402c881e3f27cc7cU, 0xbf4d17f9bf7866ffU,
  0x3fb84a3b3ec70a61U, 0xbf05a20a3e5060eeU, 0x3efc270fbca17e88U, 0xc01ee3373eee8bbdU,
  0x4016b199bfe06b28U, 0xbfd53b4dbf5305cbU, 0x400d41643f30b203U, 0x3eb7e5ffbff08358U,
  0xbea75c043e54e138U, 0x3faa239dbe861ca5U, 0x3fda0a223fc243c5U, 0x3cd2290cbe110710U,
  0xbf84d10f3f517c07U, 0x3fb4e268bd5cf4bcU, 0x400bfe5b405de2ceU, 0xbe137292c00fcad9U,
  0xbe54af79c0233170U, 0xc009bca23f884b1eU, 0x3f4588d0bf216b02U, 0xbef6235d3cc9e495U,
  0xc02fe8e93f89ee7eU, 0xc0372d6cbe07a10dU, 0xbed70593bfb413e9U, 0x3d76f674bec8d8d6U,
  0x406d715cbff07ba5U, 0xbf70231bc0508194U, 0x3d58b42d3ff0a8c0U, 0x3d24987fbf98d071U,
  0x40295bdbbfa97376U, 0xc0119576bf75b9e5U, 0x3f8305813f39ceb5U, 0x3f9f37ba3f336512U,
  0xc04ade1d40233ccaU, 0xbfc6cc30bf806eacU, 0xbfdae7e2bf3240acU, 0xbf80dca14050aadbU,
  0x3fc3739d40235d99U, 0x3fbc0affc005f3b2U, 0x401bcbd8bf299183U, 0xbf02d98abf27da91U,
  0xc06216be3fa5f0e9U, 0x3f5b968cbeabb8d2U, 0xbfaaf1213f4fe0f1U, 0xbf14afae3f8dec9dU,
  0xc02ed352405c6964U, 0xbf2c4c0dbfe9d49eU, 0xbfc1e426c0330a8aU, 0xc015114ebfde2e4bU,
  0xbfc323063f42efd5U, 0xbf05ab5e40442f04U, 0x3fe19f603dae4bc6U, 0xbe84e6cabdd96e53U,
  0x3fada183bf3a6007U, 0x3ef12a38befb35adU, 0x3f95dc393cee94f2U, 0xbe315be3c00109fbU,
  0xbf972f8fc001c0f8U, 0xbed5a5063f62cf39U, 0xbf52af16c0387236U, 0xbec64623c03283b9U,
  0xc0f1e8263ca4da80U, 0x3fb88d933f89fdb7U, 0xc0030edfc0b8fdb3U, 0x400fdfffbebc52e1U,
  0x40ecfd81be5def94U, 0xc0510f0a40161f93U, 0xbe6dd416c0030dd2U, 0xbfa84b99bfa40564U,
  0x3f89bfaf40b03ca5U, 0x3f4346923ffee78dU, 0x3fae65c53ed6f32cU, 0x3f2cf95a3fc5eb68U,
  0xbeaaebfdc0ad4121U, 0xbe94991bc006774fU, 0xbfad7d363d122295U, 0x404807a4bff2e3f8U,
  0xbf422eed3faad804U, 0x3f4f349dbfc4b264U, 0x3fe26aeebfd80d5dU, 0x3f285bc63fecd8b1U,
  0x3fc80a8fc003eff0U, 0x3fed5425bfb2b572U, 0xc01128c8bedd862aU, 0x3fdf8a8ec064dad2U,
  0x3f9348413fa2d550U, 0x3fc2b4d5bfd5e60bU, 0x3fc38f483f360c1bU, 0xbf5de5b03fe76749U,
  0x4015c069c006c95dU, 0xc01710cbc08b21ecU, 0x4081cb54bee3b8adU, 0x3fb86eecbe09ab8eU,
  0xbf36ea00becae520U, 0xbf9c33663fbff5baU, 0xc01930bec00ea1f0U, 0x3e666693c01f7825U,
  0xc08852f0bf33d00fU, 0xbf1fc6a6c0995b58U, 0x3dda82c23fad1579U, 0xc03d0e123eb9e66aU,
  0xbff83a46bf954e1aU, 0xbf5ecf443f0eb7a5U, 0xc0876eefc0358418U, 0xbf1c421a3e8d6ff7U,
  0x3f49ebe83fd014f1U, 0x3f580e12c0111bb3U, 0xbfb883fc3ff74eb7U, 0x3e8cfd8dbf16f51bU,
  0xbe8cba64bfe6ea95U, 0x3f8ac2334016c0eaU, 0xbeec8d133ffc39beU, 0x3fdc655ebe9195e3U,
  0x3f5f0a5c3f535809U, 0xbef89386bfcf2202U, 0x3f6a1ce54033f35aU, 0x3f633443bf9c1347U,
  0x4091d977bf97d298U, 0xc06eee23bdf2f897U, 0xbfc448fc40e29bf5U, 0x4037ee993ff20faeU,
  0xbe201ab9be32347eU, 0xbfdb9538bf1c6aefU, 0x401bffa5408e988bU, 0xbf5f68a5bfa4f3afU,
  0xc0385a49bf3b754aU, 0x3f5bd6523f693e18U, 0x3d1598253fb2012dU, 0xbf825d493fd04b0dU,
  0xc047260a40314a3bU, 0xc014dd74bfeb8c46U, 0xc035d0a8bfee5b44U, 0xbf4283b6bfbd9723U,
  0x40431430403e61cbU, 0x3eb9b4804048c5a9U, 0xbf5415a840562077U, 0xc01f95c1bfc1aeb6U,
  0xbfe547cbc0899f91U, 0xbfe26520c02cf1f4U, 0x3faad36dbeed999bU, 0xbfaa4fbebe562e66U,
  0xbe2724d0bfb9151fU, 0x3ee9e7253f77b889U, 0xbddf2a7ec022e193U, 0x3f85a294be0f5a12U,
  0xbe665c3d3f2d4676U, 0x3f7f51e6c03f2ac5U, 0x4065e5354090b234U, 0xbf81925dc0211440U,
  0x3f66f086bcea30c5U, 0xbf8289fbbed840b6U, 0x401a6121c08227c5U, 0xbf904ba9be89aca6U,
  0xc0b1115cbea60049U, 0x3e1cf9573f6eda7aU, 0xbfbc867fc016ed68U, 0x3f52f024bf214b07U,
  0x3fa2f8ddbfe6f193U, 0xbfe11f20c000b8a9U, 0x40c0d3743e9e99daU, 0xbfb3fc313fd69dfaU,
  0x40516b243e53b368U, 0xbe9dcd05bf1a9ab1U, 0xbf842cc3bffe6ae1U, 0x3edb12fe3f35382bU,
  0xbfeb66d13f892ed9U, 0xbf02fff6be0265bcU, 0x404df1dcbfa6e32dU, 0xbfd5765fc02e7cd8U,
  0x404b6078c01e4a24U, 0x3f437a3040119272U, 0xbf4263c2bf249584U, 0xbf6e5003c03ae63aU,
  0xc00ab686bf06d77aU, 0x3f4456993ee4d0a8U, 0x40253312bf5f873fU, 0xbed141583f5818c3U,
  0xbf18cb553f1d0452U, 0x3f6da77fc01b180bU, 0x401a3c4f3f858db7U, 0x3e840f3e3ed205c2U,
  0x3fbf9279c0388717U, 0xbe23fda13ed2e553U, 0x3f415049bfd83d98U, 0xbe2a88f73d1b16d3U,
  0xbfd14ff8be4245ccU, 0x3f1685eb3fe3a421U, 0xbfbb19d2bdd6169bU, 0x3f0c06573e234f58U,
  0x3f915f773ec7f88bU, 0xbfb6e114bf1ea966U, 0xc036a730c02c9ceaU, 0xbf35089ebe42026cU,
  0x3f144d333ead8442U, 0x3fbd7dc74004dd5aU, 0xc05c97764002837cU, 0x4006f2bbbf8693a5U,
  0x404bdb5bc077d4b7U, 0xc03ff8ac3f5e1c6bU, 0x3f276fa6c02b585dU, 0x3f228efd3eba07f0U,
  0xbed05ff6c04d1ab6U, 0x3f6ce02bc0523d7eU, 0xbd9eaf35406f4e39U, 0x3fac40663fce190dU,
  0xc02ecbd9bfa26a0aU, 0x3e8345f14091e17fU, 0x3d7365debf6dce74U, 0xc040b60ebfe548f0U,
  0xbf8fd00c4040f85dU, 0x3f76388c3f6c9b9cU, 0xbfd26236beadce3aU, 0xbea95f42bee1955bU,
  0x3f3e9a3dc00fb975U, 0x3eb033003f07144cU, 0xbd90fba03fc3a9c3U, 0x3f8f34663f1728e1U,
  0xc04af236bf32058fU, 0xbfe6a6b3be39374dU, 0x402a6a03bf64563aU, 0xbec131763f9c69d9U,
  0xbeb27b68bf9a5644U, 0x3e477f603f67e259U, 0x40210c333ff4035dU, 0x3f8e436e3e893974U,
  0xbf1fadb6403e2804U, 0xc057c1a8c03a379aU, 0xbf749df1bf17de7cU, 0xc0089350c0418cceU,
  0xbd5fa810c02974e8U, 0xbfa33f5c408a39d0U, 0xbf0cfd5f3fc441c9U, 0xbf338f6d3b1c8db9U,
  0xc03c7951bf21a072U, 0x3f372a6dc0cfb909U, 0xbc58f93dc0abbfeeU, 0xbf7c72a840de2432U,
  0xbf602e3b3fd78f88U, 0x3f923ddcbf63e1e5U, 0x3fcc8db8c038f8cfU, 0xc008310bbeca02aeU,
  0x3cd8b27a3e0f2fc9U, 0xbfd958ed3ce4f61fU, 0xbf5450c73fc39ba9U, 0x4017333fc03dadf2U,
  0x3fb74a02c05a2f43U, 0xbeca4936bdd5a378U, 0xbc402b7dc0004032U, 0xbfb7a00c3fb7f8dfU,
  0xbf87bcd93ec039aaU, 0x3eb206603fbfdc24U, 0x400992edc063f320U, 0xc01e0ff8bffe0779U,
  0xbf6ae886bff8e2bbU, 0xbfc75516406258f3U, 0xc03150d6c073b799U, 0x3f0eab52bfa169caU,
  0x3fa919b9bfed5d55U, 0xbf6d9799bf4af74fU, 0xc059acbd3ededa9cU, 0x3f1dc10f400c8dfaU,
  0xbfd7c921405bf75cU, 0xbeffc9bc3ed5d134U, 0x403ec92fbea4085cU, 0xbdabf03f405ad8baU,
  0x4024ef213fb8af32U, 0x3ec574d9c089bb82U, 0x3f2323f7408a9d41U, 0x3e847ad33dd2c345U,
  0x3f842a58c04ffefdU, 0xc03d3d1f3f8f1cc9U, 0xc03cb7153f91e274U, 0x3e842b87bf4f1fd5U,
  0x3fe6d8283f5681fcU, 0x3f59408fbf3916ccU, 0x400804804091b7a2U, 0x3fae11093fe2ab3dU,
  0x3ff63286c02afc53U, 0xbf70e5973f8dfb6aU, 0xbf62ee18404f7498U, 0xbd86548c3ea09dccU,
  0x3dbe6d42404a1c31U, 0x3fe359813fd36f20U, 0x4016d6dfbfdc6289U, 0x3f1fcf313f0f8302U,
  0x40239d9abf05fbf5U, 0x4024f763400b731bU, 0xbf8148c7be64d858U, 0x3f833701c01f700dU,
  0x3ca2ce75bfaab2dfU, 0x3fb0c59a3ea17002U, 0x40343cd5408c5fabU, 0xbed36c00bf1dd914U,
  0xc01e1b093f413b68U, 0xbf48dcb9406a14acU, 0xc05e46cc3ef9d992U, 0x3e8f49cf3d95c595U,
  0x403f9e323e72f84cU, 0x3f22e4c23f6dfefdU, 0x3ed8073f3f1a1835U, 0xbf7d084bbf293b93U,
  0xbf55c4b54099585dU, 0xc014f8df3fc88b2aU, 0xbfd318ac4015813fU, 0xbf012e66c009c8a7U,
  0xbfa3cd3e401ce4a7U, 0x40042c0e40cfaf09U, 0xbfe2b7974024a625U, 0xbe9f1654c02dcef0U,
  0xbfdb788b40038169U, 0x3fe78ad6bf7b290aU, 0xbf4e8fc5c00af9e7U, 0xbf92e4fc3f12808aU,
  0x3e832cf83f5c74b1U, 0x3fceeac2be1ca7baU, 0xc01818923f26991aU, 0xbfe420aa3ee8fb6eU,
  0x3f1a6c74c08f2941U, 0xc027e127c0378817U, 0x3e43a0d3bfdb530dU, 0x3fa87dc1c023c5e4U,
  0xbf39106c3f46e26aU, 0xc041af733eb7bb93U, 0xbfa434263ef94eaeU, 0xbf6d59923f31a4b5U,
  0x3fb809d0bdf12e04U, 0x3f0659ff3f829e59U, 0xbf77e1bd3fc659a6U, 0x40339cb7400c5d3fU,
  0xc025856fc0078311U, 0x3f85263fbe4b3fa0U, 0xbfa5984d3eded2afU, 0x3efeaee5be5146f7U,
  0x3f36b3e13ca9f295U, 0x406e5f4e3fd5e470U, 0x4046e3dabf4ff4b1U, 0xbf918ff9c083406aU,
  0xbcd21d683faed55cU, 0xbd75b8293ea47a7dU, 0x3f38a910bd8e8b44U, 0x3ed66372bf525ff8U,
  0x3f8c158a3edfe134U, 0xbf3bc736be2e4bceU, 0x3fbc3087bee70257U, 0xbf9a81a33f64f114U,
  0xc06d7bf34001c59eU, 0x400300d5be8a4f30U, 0x3f812c83bd19510fU, 0x3f81910c3fba67a2U,
  0xbf58cc2e40097dd3U, 0xbf20d2aec09b06b2U, 0xbfc5022fc03eea85U, 0xbf4fd1e0c013eca4U,
  0x3f7c8118bf62661aU, 0x3e3c979fbf99ab4cU, 0xbfb323373f99bddbU, 0x3d2c34a3beaba7bbU,
  0x3fde1e48be478153U, 0xbf6f1792405182b0U, 0x3fcaf0633f0d1240U, 0xbf2575a5bf8f910eU,
  0x3e9976463f2456a7U, 0x400af812bd5abd5dU, 0x3fa40f91c0718748U, 0x3ff05809c080d813U,
  0x3f9417eabfd48477U, 0xbfc16d35bf2005d6U, 0xbef26c5f3dc9f2e0U, 0xbd87cd203f17f675U,
  0x3ff48f6bc08c7af7U, 0xc029b090bf47578aU, 0x4019c128c0488c56U, 0xc0519966c01eb11bU,
  0x3ece22dd4055df84U, 0xbde39b993ef73f42U, 0x3f9db6cfbe5afe68U, 0xbf472f443fba8638U,
  0x3f651b77bfae7447U, 0xbf9790b23fc12224U, 0xc0919aad3fe0ceaaU, 0xbf0ff6843eee8385U,
  0xc029ce04bdcea55fU, 0xbfa5f590bfaa5d73U, 0x3ec627c3c0115d7eU, 0xbf6b2d8bbf2ddbfeU,
  0x3e7588ed3f5e8e4bU, 0x3f40f98dbf06b312U, 0x3ee65ceebe83dfa6U, 0xbfb365c6bf14022cU,
  0x3f937e564034ee0dU, 0xbe7f3f963f179144U, 0x3e11e74a3f8ee3fcU, 0x3fc82c42bd494dedU,
  0x3f02ebc1c02d05deU, 0x3ec53f79c0400466U, 0x3fb73e504013423bU, 0x3dd5728ebf878a18U,
  0xbf14a05dc01f27c4U, 0xbf54e617bdcbcd20U, 0xbff325e340064b9dU, 0xbf8d5a37c040dfe2U,
  0xbfaba2cec085ba1eU, 0xc004808cbf96b96bU, 0xbfdd38263f2f4782U, 0x3f2517d9bf002706U,
  0x3fd24c52404c35ecU, 0xbfdd8bc2409a2153U, 0xbca3d580c034dd27U, 0xbf9ea1973f022cbdU,
  0xc01a39c4409d8105U, 0x3f7b8df5c0dfee3eU, 0x4052e809401e1756U, 0xbf1ca4693f587e60U,
  0xc079c33c3f8ba42aU, 0x3f004277beae6b89U, 0xc02b0b7b4042a2a7U, 0x3fb2b58b3cff3daaU,
  0xbe82c4e64033df01U, 0x3f927b43bff2bfc9U, 0xc04af1a83f272a21U, 0x3f839b663eba505dU,
  0xbfaf6af3401e947eU, 0x3ff4b857c0011fccU, 0xbfa346863ee8aa5fU, 0x3f97357c3e148a35U,
  0x4063b44ec00a76aeU, 0xbfe32b333f076795U, 0xc0a1270d3fb8ed4aU, 0xbe1d129dc099b9c3U,
  0xbfa52c81be874ffaU, 0xbe4039c23e2ca381U, 0xbfa0e345c068622eU, 0x3ec711babf4f4a5dU,
  0xbf81faaabf778ba7U, 0xbff302b6bfb99436U, 0x4027b728bfe88faeU, 0xbfbbbdc5bfd806d2U,
  0xbeb82a973f023ecdU, 0x3eba42be4019a096U, 0xbf4ea36e3e0aa762U, 0xbfb7ae203e110c54U,
  0xbff1fc2e40496cceU, 0x3eddc2753f61ac4dU, 0x4007efa2403e7504U, 0x3f7619f64012566fU,
  0x4024ac693f5eeb38U, 0xc00942be3ed785a3U, 0xc05768fe3fdf8630U, 0xc0434724bfd702f5U,
  0x3ff1c9c1bf6fdc8aU, 0x3e8b1ff93fd1512fU, 0x40ceca13c0c529bcU, 0x3f110e613f072594U,
  0x3fe5f01e3fc90d2bU, 0xc0591e3ebfe7cb0dU, 0xc000d0c83fc8f313U, 0x3efbf3df3fec91f9U,
  0x3e1f438cbfb486f1U, 0xbf8b5421bf071005U, 0xbf7766c74108a8bdU, 0xbcf1a7c2401f162bU,
  0x3fd43725bfaa7122U, 0xbfdd125d3fcea93fU, 0x3ef640d83fcf8e8fU, 0xbe78f2fbc0157236U,
  0x3fb659a040292a21U, 0xc02ec6c93fd08b43U, 0xbe8ecb32c01e9816U, 0xc0381b91bdaf975bU,
  0xbf4b51d63f6e4b1cU, 0xbf0a9dcebd3beb23U, 0xbef70f1a4041ca54U, 0x3f872935bf8d2d35U,
  0x402fd6723e768018U, 0xbee759c9bf068697U, 0x3f7174c5c0261affU, 0x3e011cc5bec235c5U,
  0xbee583f43f2b8793U, 0x407163f6bef04ca3U, 0xbec462b4bf815df6U, 0x3fabf0cbbfea2b1dU,
  0xbfdbed26bf57d27dU, 0xbf442c08bf8ea29eU, 0xbe381a143f2f5596U, 0xbf9d948e3eca0118U,
  0xbfe9ab653f270889U, 0x3f5973c64039f00fU, 0x3fd330bb3ea39de1U, 0x3f116095be1d49baU,
  0x407c1c26403421c1U, 0xbfe6399ebf8bbb3fU, 0xbff163593fdd48c1U, 0xbf10c6a5c0613f97U,
  0x3efabfe23fac9e6aU, 0x3fa1b22b3f8ba650U, 0x407b8882c01c0b97U, 0x402bad7b3f8d398aU,
  0x3f8e2932bf2f5889U, 0xc0270880be55eeb9U, 0x3ff2ec43402d5bfbU, 0x3f6120ff3fe1ff65U,
  0x3f3fc3f4c030c66cU, 0x3f90d7e03fe46602U, 0xbf2f63003fd9126cU, 0x401656b3bfa12050U,
  0x3f9f5f7a3f1537e2U, 0x3dc7acb6bfc8efc8U, 0x3f54c72ebfc8090bU, 0xbfc5b92a3f3707a7U,
  0x402bf60dc04ae9f7U, 0xbf5881a4becc2bbaU, 0xbf682755bdea8ce9U, 0xbf2cdf3fc02fa486U,
  0xbee3351b3f58883fU, 0x3e9af8f2401720abU, 0xbfbdd2033ed03732U, 0x3f16e0893fec45abU,
  0xbc51422bc023e134U, 0xbfa92c1dc0403cceU, 0x3e1ca8123eacf040U, 0x40262ee03faafbc8U,
  0xbf636f5dc0089231U, 0x3fd815e33fbc5588U, 0x401e8c4e3fc5d2a7U, 0x4041e10bc05eda09U,
  0xbf8f0448404d9200U, 0xbf806d0f3efdcf77U, 0x3f912ed0be4a1a9cU, 0x3f8d7293bfc78db4U,
  0xbfcaa943be238aabU, 0xbf3aff2e3f77d787U, 0x3ff2ad0bbfd727c8U, 0xbfcc568bbeb2bc17U,
  0x3f033e47c0015f9eU, 0x402876413f8c6c54U, 0x3f8fae863f97d7b4U, 0x3e0dd6debdc2ebdaU,
  0x405dace5bebaf35bU, 0x3f68d2ec3fa90341U, 0xbf99d3e4bfe0d480U, 0xbfaec22fbe61a27bU,
  0x401e05363f900076U, 0x402cbeb5bfad88e6U, 0x3f69a10b3f5ca3bbU, 0x3f3093f13ed06289U,
  0xbf9e00953e840c5dU, 0x3bf379d8bedeccebU, 0x3f7812783f1b8a4eU, 0x3e11b8823ea7d18dU,
  0x3f3a3bf63fe63198U, 0x3fb509e23fe7ca26U, 0xbe8104514042c049U, 0xbfbb9ec6bfa644dcU,
  0xbf54ae22bec3baf3U, 0xc03a0b7dc0103dfaU, 0xbe133dd9beb4a899U, 0xbfc4cab03fb921d8U,
  0xbf931946bf514153U, 0x3fe7f5bfbed980faU, 0xbf9b4a904001c051U, 0xbd41b14dbec44104U,
  0x3f9f3ad0bdb13737U, 0x3fcad757bf87476dU, 0xbfdbd7c840055e74U, 0xbfa87557c050952aU,
  0x40140ccbbdfeb84fU, 0xbfd1950d3fbdc7d4U, 0x3d1dfe764012e9daU, 0xbf5a0518bfcb0df2U,
  0x3fa1638f3f06fed5U, 0xc030ee63beb6e216U, 0xbdef2f1bc0692258U, 0x3ec86ece3ff9e9f5U,
  0x3e8bf0dc3d9d3974U, 0xbece0b203e7dee1aU, 0x3e876843be3356a7U, 0xbd9a195cbd9058a3U,
  0x3dacb139bdaf13d7U, 0x3ee0c7f83cdcf4faU, 0x3f22259d3bea0480U, 0xbf7349843f0d6208U,
  0xbef57cd73eb5a9daU, 0xbd8096403e91a519U, 0x3e54c2403eb55f67U, 0x3e63a3b9beab0b91U,
  0x3e0686af3e950924U, 0x3f0ac5943f4bdeedU, 0xbe2ff8a9be131bdcU, 0x3f116bf4bc84bf36U,
  0x3dbbbcfcbe40e4f1U, 0x3e82294fbe277267U, 0x3e0b721dbed29f64U, 0xbe6c5bebbd1001f6U,
  0x3efda1483ee646afU, 0xbdeca16cbe5d3bc5U, 0x3cdbc09f3f83c57dU, 0x3eb3d3b83e51e497U,
  0xbd84bed1be5ed27cU, 0xbdbeb100bdb94da4U, 0x3f2682803e669da9U, 0xbec38c47beb5dd32U,
  0x3e27000ebd86dea2U, 0x3f65fd6bba2aee5aU, 0x3e5be7ebbe8f8ad3U, 0x3c825397bb82b0cdU,
  0xbe8ee88e3d02f95dU, 0xbf0994c53c37b15fU, 0x3df9d5dfbe00075fU, 0x3f14c685bec4438aU,
  0xbe996429bfaf2d2aU, 0x3dafa9023e4a21ccU, 0xbed105893eb45b69U, 0x3eddbbbbbe9c6d30U,
  0xbd4aa8803ee75d81U, 0x3f393f5fbd1d01efU, 0x3ea14685be7ff605U, 0x3db7c5923e4f8d53U,
  0xbe1c002ebd54fba9U, 0xbf2e51253de1fdc1U, 0xbd7c8368bd0078c0U, 0xbf3c95573defcdf6U,
  0xbd58c874bd82b132U, 0xbe8005933edbcafbU, 0x3f33c512be80c921U, 0x3f05539d3f182801U,
  0xbf293498be8a53f4U, 0x3ed36cdebed64bc1U, 0x3e8d33e13e62eb5aU, 0xbe2d6f66bee08d59U,
  0xbe6154433cfd6d2bU, 0x3eaf97bc3defce52U, 0xbd87dbfc3f0212c2U, 0xbdaa0ac6be4517f6U,
  0x3f82024fbea50598U, 0xbef698acbfba1092U, 0x3ecacf26bd444d28U, 0xbbc8aafa3f2eb126U,
  0xbdf0d883bf2570d3U, 0x3e8e980dc0217005U, 0x3ff579053f89e58dU, 0x3f91f6b13f623f60U,
  0xbd9ea5e3befaad0dU, 0xbcfbe4f8bdb69aabU, 0xbf564d2140043dd4U, 0x3e953434bc2cb8a8U,
  0xbf169e16be8bfdb9U, 0xbee37729be6d3104U, 0xbe6628adbd5a35ecU, 0xbf2463703f02fa47U,
  0xbe4c732fbfa42d41U, 0xbf2397713f5ba35bU, 0x3e70fe89bed4d84eU, 0x3dbbd476bd8ab2a1U,
  0x3fadfbadbf3ac1e3U, 0x3e809945be5d9424U, 0xbf2380173fb6a6dbU, 0xbf3c9bbcbf20a246U,
  0x3ef76479bec4a77eU, 0xbf30d1593f94de16U, 0x4024383cbf745f62U, 0x3eac8a94bf94f040U,
  0xbf68cef73e89acc0U, 0x3f30232dbe82b233U, 0x3b263b0c3efa11e1U, 0xbeebfdfebe1150e8U,
  0x3e14eec33e4a3251U, 0xbf30914fbe86c2a6U, 0x3e4b4a483f2a7539U, 0x3f9b9d143e9170c1U,
  0xbef0244340079ca8U, 0x3fb7c146beeef526U, 0x3f153e963eb0508eU, 0x3e600847bd0babc7U,
  0x3cd173f33d9ce6deU, 0xbf98e0703e6cb376U, 0xbf6d5f81bf456d60U, 0x3f885ce13e8849a5U,
  0xbf221afebeccfcffU, 0xbf134c81be30f8ceU, 0x3f9aa1c43ecee772U, 0x3fff97a5bff9bd48U,
  0x3e271e3d3eafb569U, 0xbf3b88493c8b4d2dU, 0xbf72275cbf2fae93U, 0xbf8d4e373e726693U,
  0xbe13bc793fa7baf1U, 0x3d49de0ebd8ea9dcU, 0x3f8f5a6a3e9547d1U, 0x3f900f933f82fe14U,
  0xbfbbe84ebfa67090U, 0x3f1ed5ec3e5ec6d1U, 0xbdcbe8c03e6dfbc2U, 0x3cea5eee3e9161d7U,
  0x3dbb56303d7806dcU, 0xbea869ea3dfcfc35U, 0xbec995eebd1b0d2fU, 0xbe8012b63c8df255U,
  0x3e61e7a73e8aed93U, 0xbe1c8056be53db6cU, 0xbd3bbabbbde9793bU, 0xbde7da743c79a3feU,
  0x3d8518adbf1b3ed2U, 0x3e43e7513d3cbb88U, 0x3e2104e53d28db01U, 0xbe8aa6683f2cacd1U,
  0xbe26d72c3d8270f6U, 0xbdec49e03e8020a1U, 0xbe71542e3de3368cU, 0x3d6f7d193e02dc95U,
  0xbe3fbbb1bdca8fa1U, 0xbca33440bd5dd81aU, 0xbeca885dbe4626ddU, 0xbd483e11be97d710U,
  0xbe82cd19be9e7feeU, 0x3e12bfcd3d2d48adU, 0x3d281c87bdb28dc9U, 0x3ebf5163bdb68f0dU,
  0xbcc9259bbe6f2483U, 0xbb8021b13ee9d954U, 0x39ebad6fbe0bf11aU, 0x3f3af5b3be3eb6b9U,
  0x3d7ae4363e08601dU, 0xbec3c24ebe46598cU, 0xbeaca1113d324e46U, 0x3d0f76ac3dbd23ceU,
  0x3df82ef7be87d654U, 0x3e00c0bfbe1185dbU, 0x3e0fc3e43e702a0aU, 0xbe66228abde6034fU,
  0x3d045053bd1e3eabU, 0xbee833e3be2bb49fU, 0x3f1c0af6be409bfbU, 0xbdb0b03f3e3bb4baU,
  0x3e038af0bb31c7caU, 0x3df705a7bb2acb16U, 0x3e0fb7f8beb3885cU, 0x3ca93722be7aefbcU,
  0x3ecadc95bbc1df74U, 0xbe8d2f103bfd030fU, 0x3a80d898bdc9a453U, 0xbe82a3dbbe4e37c6U,
  0xbdc46abdbdde62c4U, 0x3e8a6d743c1f5c85U, 0x3e0bb8c2bbfdc2eeU, 0xbdaf1992be92be35U,
  0xbd8c2d42be8cb8c0U, 0xbe495c8fbe940097U, 0xbe030ab1bd2a43baU, 0x3e1218f1bd920143U,
  0xbe3e7705bcac322dU, 0xbec0c7f5bd89064bU, 0xbdc6ce52be85be80U, 0xbeb6eb7c3e4c1402U,
  0xbe3c88a03e902467U, 0x3f4c2588bea69883U, 0xbf36fe16be9398eaU, 0x3efd3fc23de76340U,
  0xbe44fdb1bee1aa3fU, 0xbecbf4943e80af54U, 0xbe3c4b2f3f568323U, 0x3dd14d263ee7a7d4U,
  0xbf48d601bfbdc512U, 0xbf09d696bf9dc93eU, 0xbf298b493f893561U, 0xbfa56a453fc18fb6U,
  0xbf44a7ec3f53d5a3U, 0x3ef2e76ebef0f1a9U, 0x3ebbe9903e629ea4U, 0xbd9d546abeffb040U,
  0xbce62e6dbfa1c9baU, 0xbdf15e01bf006831U, 0xbf37d041bd52b414U, 0xbeef4a94bf1e0b5eU,
  0xbf0158813f5fee9aU, 0xbed238133e0afc22U, 0xbfc1217fbd47e5ebU, 0xbd01ae6c3ed67c0eU,
  0xbfafe6ef3e0f096dU, 0x3e2ba931bda1e9fbU, 0x3fdc68efbf48fe59U, 0xbf1c907bbe8b872aU,
  0xbf18a930beb60e8eU, 0xbfa358193ec38e86U, 0xbee01db73f06f486U, 0x3f262f323f3b3c84U,
  0x3ed531883f333543U, 0x3fd41e1cbf6c72e1U, 0x3e7fe5703f2a993cU, 0x3f470284be4430a5U,
  0xbf42fb533ee3d433U, 0xbf31a98cbd6bbc71U, 0xbf96f8763d45834dU, 0x3f8328bbbf8162f5U,
  0x3ea019053dafccfbU, 0x3f02c1913ebf90ceU, 0xbf099881be581731U, 0x3de3bba0bf99a318U,
  0xbf97f33ebf2c7a73U, 0xbf9c33d93ea9edb9U, 0xbed6a2f33dd110bfU, 0xbf61569c3f6025f4U,
  0xbf1d9256bebf2226U, 0x3ec1d5733e99ba93U, 0x3da9e92cbf7968e1U, 0xbeac5b373eea4ac1U,
  0xbf4a1c01bef7406cU, 0x3c1fce553fa46517U, 0x3f82df333f06e7e8U, 0xbf250425bf705523U,
  0xbf8a48c2bec15411U, 0xbed62c2d3e8a1decU, 0x3e3a9f3f3e494cf1U, 0xbe2ab80ebf66fbdfU,
  0x4049ee583efff133U, 0xbf749dc13eef44b6U, 0x3e7baa343f1bd56aU, 0x3d9ce796bf9b9b9fU,
  0xbe9f890040347d47U, 0xbf113ff640105996U, 0x3e3ba9733f446e99U, 0xbfda8be73f90ea37U,
  0x3e045ce7bfc8db2dU, 0x3eae496ebd6e0634U, 0xbda9aac5bfdcf07bU, 0x3f9c69d63f5de907U,
  0xbe2955d6beae4369U, 0x3f9574843f97c9cdU, 0x3f0e299e3e941d0bU, 0x3f7a7a6ebd93f63bU,
  0xbec62494be3f68fcU, 0xbed8d6aebf0860e6U, 0xbe9819df3d9e2f11U, 0xbeae47bdbdc36d1dU,
  0x3e99abd03e152b3eU, 0x3f575845bdb8b989U, 0x3f0fab38bf4c314eU, 0x3ef55f0b3e474064U,
  0x3fdb0c88bef22557U, 0xbf1b402d3ff59e5fU, 0xbf125268bdd5f6bfU, 0x3f244c3cbe4de418U,
  0x3f4c5dab3e53a74aU, 0x3b1601f13f38f2dcU, 0x3eb587ff3f888c22U, 0x3cc9a6fe3e8d0dddU,
  0x3eff82613e2e0811U, 0x3f426800bf0e6369U, 0xbd99e3aebf72bbaaU, 0xbf2dfbf63dda4f8eU,
  0x3ee495e7bfab2933U, 0x3f5a64133f4ee28dU, 0x4022dd2c3ec7901fU, 0xbfa1b78d3f24a090U,
  0x3f1df09ebf890f8cU, 0xbe8d4edcbe6412cfU, 0x3ed879a5bf2cfe9dU, 0xbf45045cbeaee8c1U,
  0x3ef757f03fb1e01fU, 0x3f8da8b8be97c821U, 0xbe8502e4be8faaedU, 0xbe521cd83f0a4838U,
  0xbe7992f93e817406U, 0xbf43265cbf64e1b1U, 0xbf6593093f30c907U, 0x3f057cb83d8f2384U,
  0x3f3d9e783f13622dU, 0xbeb23d693e24edb3U, 0xbf54e2b73ed25464U, 0x3f65ee5f3fa7084fU,
  0x3f0855ebbf20d04cU, 0xbe108ee5be8165f3U, 0xbf61b3093f8f01daU, 0xbeb9ceb33e31aacfU,
  0xc03a0840bf1fcb87U, 0xbe9a5d4fbf0d3d61U, 0xbe1fe2b1bb85f8d7U, 0xbede2bf0bfbfcc90U,
  0xbf307e42bfd357ccU, 0x3e98f6c33fd1918bU, 0xbf78695dbcf46c96U, 0xbe519bafbcd073f2U,
  0xbd31ca6ebe03c415U, 0xbedb22dabf06bd7fU, 0xbfbf38083fa6ac62U, 0xbe9c67ef3fdc2718U,
  0x3eda4c86bfee97acU, 0x3f22014d3eb144d5U, 0xbdbfdeb6bd52a794U, 0x3eaff13a3f84c53eU,
  0x3e7de69b3ee1a077U, 0x3ec6ced2bef21dfdU, 0xbfb9d71f3ecd5ba6U, 0x3f26a8f5bea52186U,
  0xbf7b01b83ee84745U, 0x3f66ef303d1fd3aeU, 0xbf8bfb4dbff4b65bU, 0x3d933fc0bf0688ffU,
  0x3eff4faabec1e3e5U, 0xbf4c61693f08623eU, 0x3f5d30533e7929e2U, 0xbff876af3f10c216U,
  0x3ecb3493bf494f76U, 0xbf481d29be7321a6U, 0xbf8666a3bec8a8e0U, 0xbf1956efbf4fe71aU,
  0xbe148c853ec7c8bbU, 0x3f09fe0bbe01a510U, 0x3ec4d5cabe6aed6eU, 0xbfe51f45bdffaff6U,
  0xbe856de6bf278716U, 0xbedb341cbf310573U, 0xbe9c91843bbf89d9U, 0x3df2a10b3f9c06ffU,
  0x3f6ceb38bf0307c3U, 0x3f839e2a3fb9092fU, 0x3e1377353ee02755U, 0xbe11c4bbbf893791U,
  0x3ea08fcc3f83a0f2U, 0x3f08e33cbdc0b831U, 0x3ee111f1beee8493U, 0x3f34baf7be199cb6U,
  0xbf3d260e3f6a9803U, 0x3ea0bbaabe90f064U, 0x3f802873bedc7be2U, 0x3ef7f2f33fa6370aU,
  0xbe7b4c063f8b2a75U, 0xbf69c8c5beda60d1U, 0x3e050c38bfb51c5bU, 0x3efe98b9be9e8650U,
  0x3e1c0f58bf1ab305U, 0x3f5b65dfbda80495U, 0x3ef056ce3f737bdcU, 0x3fb0a69a3f425eecU,
  0xbe8539b83ee208b4U, 0x3f8565663e5619e1U, 0x3fc045293f32478fU, 0xbef4f3d9bd2ab756U,
  0xbd293d26bf9f453bU, 0x3f2e5459bfcf13cdU, 0xbeb28cf53dc2c195U, 0x3fa8152940153f7dU,
  0xbfd359803fc532d5U, 0x3e8422debda6d516U, 0x3eb8b5153f9b3e89U, 0x3fe06488bf527c18U,
  0x3f0c63b83fbdb674U, 0xbe00cd133e180e43U, 0xbe6be5a3beb7abfbU, 0xbd444568bd7da51dU,
  0x3cdb597abfb48ee7U, 0xbeb1e2c83f170f45U, 0x3ec472f5bf1ce4acU, 0xbf2b1662bf2471e6U,
  0xbe999bc73eda62c6U, 0xc0194bcf3f4caa7fU, 0xbf9cbfedbe5ba684U, 0x3fa75cf3bdbb522fU,
  0x3f272d8c3ff76df6U, 0x3e2d0c6ebf73f5b1U, 0x3dca8dd43efb56cdU, 0x3f5e8f59bfe43a88U,
  0xbea40bee3e0c0e6dU, 0x3f0382a8be7491f6U, 0x3e34faaa3fb45da1U, 0xbf2a60d73e86f4a0U,
  0x3f1e8601bea72f96U, 0xbfafe0c2bfc22c52U, 0xbef2e043be3baf8dU, 0xbeb78250bf042167U,
  0xbf374c94401ec210U, 0xbe939f02be437c64U, 0x3f0009bdbed237d8U, 0xbe6059d5bf770809U,
  0x3f9426b8bf125311U, 0xbea83926bf49b053U, 0xbf010f9bbff15d53U, 0x3e82a45e3fc62ff6U,
  0x3f6b72353f735d8fU, 0xc00292e4bd447327U, 0x3f1273273ddf6087U, 0x4004924f3f80156fU,
  0xbee122da3ca2b5d5U, 0x3ee923183dd3a7fbU, 0xbfd661e0bf2bc17aU, 0x3f0418243f6ba15fU,
  0x3eaf3eb0bf1eae0dU, 0xbefe1240bf4d3dbaU, 0xbe00ef9640632fc6U, 0xbf08c922c0014078U,
  0x3ea46438bf058483U, 0x3f977957bdf39f58U, 0x3fb035823f9bc01dU, 0xbe842f973e983b69U,
  0xbeb00d43bee5ee1aU, 0xbf1651dabf32556fU, 0xbfc50cddbf15406dU, 0xbd3a85563f18f215U,
  0x3e6c56643e86d97aU, 0xbeb5449a3ed90684U, 0x3f0cee2bbf14a26eU, 0x3f01da92becd2ff9U,
  0xbed9fe06bf893b58U, 0x3e71e8e2bef91860U, 0xbda2ba7b3f146714U, 0x3f86eb2abf28953cU,
  0xbd79a4153e9df8d1U, 0xbe9d582cbb937180U, 0x3d80c3a4bf6e4c5aU, 0xbd69ed3bbe76be65U,
  0x3e88335b3e7e096eU, 0xbd4e4ebd3e95913aU, 0xbecaaf6e3f37e8b9U, 0xbd0233e63eb63ee2U,
  0x3f21e2f0bdd04472U, 0xbe7f23063e52d1c9U, 0xbe92c012bf8b627cU, 0xbec63740be96c3cbU,
  0x3ea16c74be130df1U, 0x3f1ea8b73f4cdd3cU, 0x3f71885abed55814U, 0x3f1314183f9bdc8fU,
  0xbe75642c3f087b76U, 0xbf1662013f877d0bU, 0xbf9a79ae3f43dd0cU, 0x3e9c08423ecddb51U,
  0x3de6c055be6ed86fU, 0xbd8d2324beab9e1eU, 0xbe9514263f3e6d01U, 0xbf35bce93dfec4b0U,
  0x3c54eee53f7a3240U, 0xbf43dbdf3ed23acaU, 0xbd22a6ff3e26ec6dU, 0x3f1fde1e3ef641f3U,
  0xbf3e06c03f0d896fU, 0x3e07a9643f44d0d3U, 0xbe84011a40020e72U, 0x3e41e79dbf3e859fU,
  0xbf81420fbf760756U, 0xbdcacc073dfc5670U, 0x3de1354a3e265996U, 0xbf11b26fbc658b08U,
  0x3e0555cebdbd0126U, 0x3e299c423ef0f3e4U, 0x3d6c64dc3f44ff88U, 0x3e13985c3daf23fdU,
  0xbd2faac23e4d1beeU, 0x3ee171853f740b28U, 0x3fc235d43e7369adU, 0x3ef4d1203f7ec693U,
  0xbf20a85d3ee0314bU, 0x3f5df8fa3ecea865U, 0xbf7db644bfa54b9eU, 0xbfa258823e74e5e7U,
  0xbfa0b189bf017167U, 0x3db4a4a93f4291c3U, 0x3e4bcb693ec5b30bU, 0xbdbdff25be6d8ab7U,
  0xbf8f5459bf5e42c6U, 0xbfaf34e03ea52614U, 0xbde0c6933f0c94bfU, 0x3f3ad151bf702a2eU,
  0xbec8ffd4bf834a3dU, 0x3a87dc2e3e387181U, 0xbd6f821d3ecbad8bU, 0x3f5f8d5ebeb2ab70U,
  0xbea4d1163fc1c25bU, 0x3fa34d353f2343deU, 0x3f2e1e2b3cf45acaU, 0xbe0d1722be2b14cdU,
  0xbf1f2f55be7e0626U, 0xbe3798e53ee08974U, 0xbf073627bf25fe79U, 0xbfdd4678be4b95edU,
  0xbfbe6dda3e4d0519U, 0x3f90a0cb3eae5fa3U, 0xbfa8adbe3f404d32U, 0x3e86b5d4bf3ef681U,
  0x3fe42fac3eec867bU, 0xbe6a6dc73f6c6e39U, 0x3e7984e4bf897cf8U, 0xbf0fc50c3e83be5fU,
  0x3f6b7d2cbebf6165U, 0xbf6812dcbe9f3607U, 0xbea0e9873feded0eU, 0xbf1ef814bf324207U,
  0xbf1acc1e3f2564fdU, 0xbf067e22bf8caaf3U, 0x3f7e0e863e50ed86U, 0xc0109a953f913267U,
  0xbe876b44bf94212dU, 0xbdacd4debd867390U, 0xbf99a2313f41f9afU, 0xbf33e3bcbe74c917U,
  0x3f442e9ebf6f3f58U, 0x3f3deefc3eeb7d2bU, 0xbf7bf9aabf3080feU, 0xbf32b663bcb6fd1eU,
  0x3e47db6bbeafcde5U, 0x3e25fff2beced60eU, 0x3f3b0f843f1fc9b1U, 0x3fa029573f8b5db3U,
  0xbecc8f863f733d5aU, 0xbe1a5edbbe371cfdU, 0x4000badcbea9995fU, 0xbf5b29553ed187d5U,
  0x3f2e276cbeaf18c8U, 0xbf811da93f54b026U, 0xbe7eec3abf59c4c9U, 0x3ea433c6bfa3d464U,
  0xbebd2a38bf0f567fU, 0xbfa267f3be86f446U, 0x3d65edc5be000287U, 0x3fa9cc7f3fa55fabU,
  0x3e9d246b3f95d4a8U, 0x3f154f963f716ed8U, 0x3ed550ba3cbfa3dcU, 0xbe5409a23f8efaa4U,
  0x3f22344fbfc9a749U, 0xbc04daf6bffba809U, 0x3f21136c3e0b65f0U, 0x3dd6a6c640449456U,
  0x3ef183f73ea301ecU, 0x3f36fdbc3fe1598bU, 0x3fa74ac83d4e0e40U, 0xbf66b629bfff2c3aU,
  0xbe8a214d3f5d117cU, 0x3f06e6713cb146e5U, 0xbeca4c6abb1c498dU, 0x3efa72cfbf13c260U,
  0x3ea39c52bdaae439U, 0xbd51e1453f2dd552U, 0x3fd23049bf63002bU, 0xbf73d93e3ec3770bU,
  0x3e775386bf7a80b4U, 0xbf2ef3503e1b6599U, 0x3fb240df40148731U, 0x3f34cb8f3f2e0eb2U,
  0xbdbd824b3fbe1a6bU, 0x3d9f2b3bbf030c7eU, 0xbea469333c874483U, 0xbee759f3bf3811bfU,
  0x3e8327183f5a3b62U, 0x3f76d0a9be8d93a0U, 0x3f302104bef642bbU, 0x3f6794173ef10e8fU,
  0xbf70e2e9bf5863cdU, 0xbf4cd9b53eae2efbU, 0xbee4b02dbe2a0158U, 0x3f678749be9577d4U,
  0x3cf1bca03f3fd402U, 0x3ebdde5d3f1d6701U, 0x3f1604f93f5d091cU, 0x3e42580ebf6c2220U,
  0x3e9c03653f80d286U, 0xbf94fa5bc0049125U, 0xbdcec94fbfcc8451U, 0x3ed0e2813f8adac2U,
  0x3f1498d0bf52df72U, 0xbe0600d83e3692a7U, 0x3e86260d3ed8ab89U, 0xbe6460533dcf7efaU,
  0x3f313944bfcdd1d3U, 0x3f830cc1be70af63U, 0xbf10578cbd69ac01U, 0xbf75e82abfd0b88aU,
  0x3e155b9cbf87d733U, 0x3e9cb067bf0f0182U, 0xbf45027d3fbadca7U, 0xbf58d812bd9b2948U,
  0x3eab54583f846336U, 0xbf7c7042bec3eda5U, 0x3f123e54bf25a2b1U, 0xbf1c518d3efe69a7U,
  0x3ffabc5d3f0508bfU, 0x3e017f863eb1c75fU, 0xbfb3c591bf747676U, 0x3ca188a73f1018e4U,
  0x3e71204d3eff7b44U, 0xbf6d032dbe432bd8U, 0x3e5cd4d93d892c82U, 0x3f400deebf1267f2U,
  0x3f00dca0be47aef9U, 0xbf6df90b3f40b5edU, 0x3f3bb82dbfc61cd9U, 0xbfc3b112befc03baU,
  0xbf24516f3eb7e88fU, 0x3edec47ebeefb424U, 0x3f559c6d3ec6a302U, 0x3f17c4d6bf5e1cfdU,
  0x3f4517c9be174c6aU, 0x3d6184a23f4f77daU, 0xbdebcaf0bd996446U, 0xbcc2aca73f5b8ecbU,
  0xbf100871bf815d73U, 0xbf808a7f3f3b838bU, 0xbe9d2bad3febd1ddU, 0xbe7c17b0bd167ea5U,
  0xbfb893fb3e893eadU, 0xbe727744bf7b3438U, 0x3ec1acdfbdc15562U, 0x3f6220d939badf11U,
  0xbeb62fa7bf5af8d6U, 0xbf024f453efe4f44U, 0x3f16e8613f033f52U, 0x3f409c6b3d851f61U,
  0xbe99e747be8ce2a6U, 0x3f3c4c263f7a228eU, 0xbe1e19f4bdaf5db8U, 0xbed662713ec42b87U,
  0x3cf1fe223daabb7cU, 0x3d39de8a3e69111bU, 0xbecd2e5c3f67caf7U, 0x3f4236b8bf2f7f75U,
  0xbe632d263e82447bU, 0x3d0ac7b1bf92b00fU, 0xbd9fd68e3f2d4a55U, 0xbf29d420be77241eU,
  0x3e4d6f99bfa1d141U, 0xbf21d9a83f1e90c3U, 0x3f1336533f20c5b9U, 0x3fa150e03f065645U,
  0x3ef3f117bf1438b0U, 0x3e9e69223ec1f517U, 0xbfc5258fbf73f1eaU, 0xbf9954bac00cf912U,
  0xbf41ac6440060ea7U, 0x3f0d08683f21ef24U, 0xbdd58b343f899098U, 0xbf10f8b4becbdd4bU,
  0xbf2b16383f37fa29U, 0xbf1f94593ecb2dbeU, 0x3e2c20d33f4a34d8U, 0xbfd3de963ec4b0e2U,
  0x3fd3901abf6567b5U, 0xbf8890363fb931ceU, 0xbd6cfdc23ded0178U, 0x3d0ca961bf25f1b5U,
  0xbf042e313f03358eU, 0xbf71e14f3f19feaeU, 0xbe8592de3ed4e871U, 0x3f7f51b3bfed8ab4U,
  0x3f85c865bf81e148U, 0xbf09de99bf845c88U, 0x3f403ebdbf32d1d8U, 0x3efaffb5bfe0a704U,
  0x3d26a3d83eda74bfU, 0x3f268a5d3ec9c32fU, 0x3f9bb138bba3e765U, 0xbd9d9492be8ba4bcU,
  0xbdd42dcdbf4ef2e4U, 0x3e3cb2e33dcbdd7cU, 0xbfa13e413e9bd79fU, 0x3e2d44abbe530f1eU,
  0x3f52b70c3e2fcf05U, 0x3f7033593f12eba8U, 0xbf65bc5bbbab55dfU, 0xbf9c98b9bf6cb0c2U,
  0x3fc65345bea2d443U, 0xbf826b273ecf55fbU, 0xbe96ac7cbe74bcfeU, 0x3f5da5a5bf2a2154U,
  0x3f8f1577bf3cdc1cU, 0x3f506008bd5b7451U, 0xbdbe1751be28c2f2U, 0xbeeeb2c8bf98df90U,
  0xbf199b2b3ec69849U, 0x3df2e8543e55edfaU, 0x3ef231ebbe1eb334U, 0x3e3e9b933f66d873U,
  0xbdae9e2fc004fc6fU, 0x3f1352f6be9c8a6cU, 0x3ed7a9ea3f14a11cU, 0xbe7c52fa3f8e0540U,
  0x3d6b8554bf461beeU, 0x3eb4a3b83ff5273cU, 0x3e608249bf204146U, 0xbf6dc4f83e40e765U,
  0xbea717ff3f104651U, 0x3fdc49dbbed0ce2aU, 0x3e2516553d526a95U, 0xbf4049463fa7c45aU,
  0xbe9d48093f931f05U, 0xbfd87d5dbe88dd8fU, 0x3f82f52c3f197c64U, 0x3efce3223fc18b05U,
  0x3e98c4dd3ec0fa59U, 0x3e0bae7b3f360853U, 0x3e033287bf5075e4U, 0x3f0485b0bfc29a05U,
  0x3f716062be30a188U, 0x3ea090093e03fc4eU, 0xbe4f3839beafa5b0U, 0xbde96b76be058c7eU,
  0xc02b3285be9b6038U, 0xbd9dd68fbef4e47eU, 0x3be69a90bef3f0f4U, 0xbe81980bbe75a9f5U,
  0x3e0356313bc24546U, 0xbda69b0d3f8f265dU, 0xbf9f1e6d3eba1db3U, 0xbef4f8653fc75389U,
  0x3ebc8c64bf3641c1U, 0x3dc8e5a7becb289cU, 0xbf47e6ae3e6070f7U, 0x3fa8286ebf7f3fe7U,
  0x3f2b1a00beb764a9U, 0xbf918cacbeb21ef0U, 0xbed44648bebaf9daU, 0xbec4e43b3f528591U,
  0x3e14f35bbf68ef3eU, 0x3eeff8ecbe9adca7U, 0xbf25f3c33d459f04U, 0xbe2b11c3be04d821U,
  0xbf7ed9863ee6da26U, 0x3ee1a866be77631aU, 0x3d8218dcbf3e8fe4U, 0x3f6e05a8be9337a7U,
  0x3f5d9fb9bf282647U, 0xbf85269f3ec6bd18U, 0x3eccd7af3da9e820U, 0xbe204decbf006dbfU,
  0x3f1764803e932364U, 0xbf5f8708bec23c0fU, 0xbfc906213f1ea41bU, 0x3e9bdb6dbe948eb6U,
  0xbeb9af413db7e793U, 0x3d36c802bf555343U, 0x3ee50db93f4a263bU, 0xbf2db949be6b64ccU,
  0xbdba1a0cc0251f10U, 0xbfc53d61bea647e6U, 0x3f4e484b3e448401U, 0x3e22b6313f281655U,
  0x3d9d46aebf82558eU, 0x3f14013dbed98beaU, 0x3d361be53f22967cU, 0xbe21a1f03eeb976eU,
  0xbebe8fcd3edfce64U, 0x3f657f3fbee7f2d4U, 0xbe05532f3f3bb97fU, 0x3f1200e73f13c685U,
  0x3e4460923eb58ee6U, 0xbd84fb17bbf8fb97U, 0x3f8956593d472caeU, 0x3f0d17833fcf8cb8U,
  0x3e8107213e8a6679U, 0xbf1a135ebeb73380U, 0x3f1d9358bf91ec91U, 0x3e99f7aabdfeff75U,
  0x3eda49b1bd088655U, 0x3f0d9ed6beb9092aU, 0x3d3fbdc3becf0016U, 0xbf1380d93f42cb4aU,
  0x3f7e2728bf14c753U, 0xbe6ff5ed3f3df3fdU, 0xbeaf43ab3e9c610aU, 0xbe92235fbec8ccadU,
  0xbec4a6b6bd2f3b46U, 0xbf6d1dcc3ff3c2f1U, 0xbf4fa24cbfa568c9U, 0x3eb400c9be08dde5U,
  0x3f8de2c13f569be9U, 0xbe910af23fc8fde4U, 0x3f2badc5bfe04fdcU, 0xbfa2cbd1bf981766U,
  0x3f0fd3a13e60699aU, 0xbfc0fcd93daa7e44U, 0x3f4477443d85b61cU, 0x3f09865a3d9b19bfU,
  0x3f015431bf1fdf72U, 0xbe149d5c3f94aea9U, 0x3e206ce43f04dfbcU, 0x3dbe93fd3fa83941U,
  0x3f6ba19abf1d39daU, 0x3ed445eb3f312c71U, 0x3fcbba4b4046dc42U, 0xbf648ad1bf37b07eU,
  0x3f109a1a3fdc1718U, 0x3e147e0ebeae7469U, 0xbfc938363f08dc62U, 0x3e7468d7bee129ccU,
  0x3f5876b63fc5a898U, 0x3f10c7f33f7909dcU, 0x3ebdc3413f26557eU, 0xbee21791bf328054U,
  0x3f03fa76beb2c1d7U, 0xbf5e58c43fac1968U, 0xbf53556dbf638883U, 0xbf2024dabf36a21cU,
  0x3f951c66bcf53b7fU, 0x3f6a67613fabdc07U, 0xbf24a4c33ee70445U, 0xbf00e9fd3fd6fec1U,
  0xbdd810aabf3c8dc7U, 0x3d9f0ece3f021a1cU, 0x3e5d3bb9bf52d534U, 0xbf3b78ce3fdf5c24U,
  0x3f65c02abed264e1U, 0xbfb9c1573d95bd8bU, 0x3f3dda8e3d1432e9U, 0x4010e4743f4a0b8aU,
  0x3e1f0c103f5090eeU, 0xbf32f2c1be864dc6U, 0x3f3d77473f51c838U, 0xbe05e82abf68423dU,
  0x3eb291463ffe369bU, 0xbfa29a113f19e1abU, 0xbf426b0fbe580ecfU, 0x3f8c0f1c3f2b9848U,
  0xbe8410633f3587b2U, 0xbf697c76be65d9dfU, 0xbf4bfc303edc6bedU, 0xbec5723d3f87c819U,
  0xc0638ad03e277c03U, 0xbe9d33763e88284eU, 0xbefa58a8bd3375a0U, 0x3e6bbae6bd8b475eU,
  0x3eeddd93bff0d031U, 0x3ee977ac3ef7afd5U, 0x3e5f7610becd6cd5U, 0xbe1b8ce43ff5ba27U,
  0xbf96f341bf8d3080U, 0x3f4eb001bf5c8ee5U, 0xbd9374543fd3643cU, 0xbe01d6843f0b50d3U,
  0xbdc336203f50f6deU, 0x3f0daf8d3e69044eU, 0xbf2182d7bed2f5acU, 0x3e137397bec6b74cU,
  0xbedc0298bea4b3bfU, 0xbdb55981bf6999b5U, 0x3e2b63a1be97332cU, 0xbf999d663dae50b2U,
  0x3eef0d583dbd5c0bU, 0x3f9e71f3bed40067U, 0x3ef5c50c3f69bb2aU, 0x3e5052e23f9100b3U,
  0x3e7417d3bfc584aeU, 0x3f637eff3f623973U, 0xbee3329fbe9c09a5U, 0xbf94aa313efdbfb6U,
  0xbed932af3e924ad2U, 0x3e7257b43eea933cU, 0xbfafe95b3bc05e04U, 0x3efcbfd03d243d13U,
  0xbf6dc26d3e477f43U, 0x4007815e3e6e135aU, 0x3f295c5f3f6a06aeU, 0x3f1c8eb4bef4da0aU,
  0x3d8b33f8c023ad67U, 0xbfbddc203f83f919U, 0x3f5c105d3ecb6d13U, 0xbe0c9f893e11ab80U,
  0x3bc778b53ece9979U, 0xbf8913a43ec8ed46U, 0x3ebcdd663f346da6U, 0xbf2906f3bf82953aU,
  0x3dba6e2a3d8b3178U, 0x3fb1d38e3b6221f0U, 0xbf34e36cbf1c5cf4U, 0xbf9a43323ecfdd8aU,
  0xbe5c8ea5bf0fb671U, 0x3f609a14bed9e0cbU, 0xbec86f2b3f79a162U, 0x3e8aeaa5bee1f523U,
  0x3ebe7e43bf2e2bc9U, 0xbf009f5f3f17d067U, 0x3ebf824b3efddfd7U, 0xbee0a266bef14498U,
  0x3f4ac3a6bcb60b0fU, 0xbf3918fbbeb960e5U, 0xbeeda4f9bef3d182U, 0xbf19c9a4bf289e04U,
  0x3fe60a143e889903U, 0xbf2198d0bda60afdU, 0x3f2a8fca3f6c7223U, 0xbda305d0bf1f39c2U,
  0xbf54a8c2bfa38944U, 0x3ef9dee3bfa73d7fU, 0xbed8fa743d8066b0U, 0x3e0ec5633f8969c6U,
  0xbf098b1f3e3a44beU, 0xbeee5dec3f07657dU, 0x3d79d9d53e1bbadbU, 0xbf5454de3fa9a26cU,
  0xbf47fdc23fafbc5dU, 0xbfc0e67bbd76f894U, 0x3f3332bb3eea2e9dU, 0xbebfa582bf249a0bU,
  0xbeb34a1dbd9dda49U, 0xbf21bef83afe415eU, 0x3f6e1ae0bf097c49U, 0xbf457038bf26c83dU,
  0xbf4b4f613e909c98U, 0x3fba0bc33eb4818bU, 0x3ffa6fc1be1edc5dU, 0xbf6509cbbf3ce9e8U,
  0x3f44105c3f5f2d68U, 0x3e7a7edb3f89926aU, 0x3f0d6427bf913ff6U, 0xbf8e9374bf408049U,
  0x3f46beebbeafd99bU, 0x3fb79c3c3f1756e1U, 0x3f9daf4c3f9465f5U, 0x3e66aa3fbed4e861U,
  0xbc8162b73e25b84bU, 0xbedffb09bf174462U, 0x3e5ea4d9bf3a2016U, 0xbe9dd56d3d8d5341U,
  0xbd1f43fcbf3f6815U, 0x3f787c443e155b04U, 0x3f1a990cbcac31d9U, 0x3ef8be46be149330U,
  0x3f9571abbd3407bcU, 0xbfa8b17a3f15985fU, 0xbebb82b4bfeaf69bU, 0xbe4b17b6be5ddf9dU,
  0xbde3e8bd3ee2ee95U, 0xbe06ab433d33e08cU, 0x3f8a6204bf738c75U, 0x3f0bf0a3bd7a61e9U,
  0xbf5edeba3f17f79aU, 0xbe0f5bf4bf3d9555U, 0xc0067762bf764680U, 0xbfa4f3e2be50055dU,
  0x3ee01d51bfb341f0U, 0xbfa7d0f43f1e8108U, 0xbe5ef5013f1875a9U, 0x3f4255fabfbf9fb3U,
  0xbe403be83db582e1U, 0xbeca94b23d171a81U, 0x3ed8f34abe4a9559U, 0x3e2917c93f13e751U,
  0x3f8585d93daebf4aU, 0xbe5b73513e308d0cU, 0xbeaef92bbe8502c2U, 0x3cf61b9fbe042b94U,
  0x3eb73fe33eb5ebeeU, 0xbe22f343be2737e6U, 0x3f16140e3e07248eU, 0xbe2691903e68e37eU,
  0xbe96d230bf017772U, 0x3d86b6d03d063053U, 0xbee4220c3dac75abU, 0x3eb385fc3f32709cU,
  0xbc9b69163e017459U, 0xbe8012a33ef27cafU, 0xbbaae016bb7e4eebU, 0x3ea687bd3de90d46U,
  0x3db1891dbe022f8dU, 0x3db12f7a3df0b6f4U, 0xbf10fc3abe9ec381U, 0xbf1b5647bda03998U,
  0x3e5a56d43cdbca66U, 0x3e87bc8dbd4a376eU, 0x3e659c2d3eedec6bU, 0x3ed2982d3ec60f7cU,
  0xbe7cf21fbe9a03d1U, 0xbe700d603f188b6bU, 0x3dfa6afb3b8e03bbU, 0x3f5eb806be870b04U,
  0xbc526a983e97c14eU, 0xbf0f782cbeea40fbU, 0xbedaac9c3e0a2c1bU, 0xbd9b1c5c3dcdd69cU,
  0x3d91e653bd8952f7U, 0xbda3c7043e2d0e25U, 0x3c2e43713e4e6721U, 0x3eda166abe8bdb89U,
  0xbdf69d37beeb8a67U, 0xbf029eeebd2dbb3eU, 0x3eb0920fbe31b647U, 0x3c88e3553d35f781U,
  0x3ec472b73e64f830U, 0x3c842b20bdc78010U, 0x3ddf74bbbf1e105cU, 0xbdb281ef3cb7d9c8U,
  0x3de009a2bce8454dU, 0xbeadd6a63e32bfe2U, 0xbe0d2035bda292c1U, 0xbf03ce7dbe8652d8U,
  0x3c4b74edbdf19bfdU, 0x3d5533fb3c906c87U, 0x3f572fdfbd7a5584U, 0x3eaf4cdabe138fecU,
  0xbe6cef7c3e34384aU, 0x3e850298bf0051fbU, 0xbce14a243d4aba81U, 0xbc35810a3e9db467U,
  0xbe0f9929be993425U, 0xbea687acbe41a6b7U, 0xbe4a75fbbdfdc682U, 0xbf3ba4973d6f004bU,
  0xbfab5c69bfc4d139U, 0xbf034cf9bfa1b405U, 0x3ec85d12bf1f1939U, 0x3d1ad741bdbc1d77U,
  0xbe75a702bd8d8281U, 0x3e861830be96567eU, 0x3f170d64bf0fb480U, 0xbea0ea53bec6df14U,
  0xbcfa6598be6e5ccbU, 0x3f00ba69bdbbf448U, 0xbe7877c93eac4b96U, 0xbeb9099ec0152289U,
  0xbe073a753f4fe934U, 0x3f980b2abf6a283fU, 0xbeb32939be7ab57cU, 0xbfb97f613e479608U,
  0xbe25a973bf96899eU, 0x3e554e4b3ee39770U, 0x3f0481043ee22008U, 0x3dcc544f3edcf8adU,
  0x3f764cd4be8de98cU, 0x3f3eb11abdf76255U, 0x3f96e2da3f704427U, 0xbf3956a2bf3b4933U,
  0x3e7bf034bf3aec0bU, 0x3f1d0f1f3f66e298U, 0x3f4ee641beb6a20fU, 0xbe63b2ebbeb781c9U,
  0xbee510c63ed21c77U, 0xbf44f0253fa5eab1U, 0xbf08053a3f55a7ceU, 0x3ea7dd9dbeceb0faU,
  0xbf235b9f3e8f5c28U, 0x3ddf79aa3f4f7ddbU, 0x3ec579f93f8704a6U, 0x3dbb4f32be961e8fU,
  0x3e84bb70bf3839b2U, 0xbd6b26563e799b52U, 0x3f8caccb3e2b7fbdU, 0xbeec64ae3f88549aU,
  0xbf9a53ddbef33724U, 0xbf42459f3f37e5a8U, 0xbe9b1b1b3fb6023fU, 0x3efebee93dc83b10U,
  0xbf241b73bfb256deU, 0x3edd6123bd0498c6U, 0xbd91e9083d9af41eU, 0x3e5b40d73e07f7b4U,
  0x3f051cfb3f3a91abU, 0x3f2ec7183f495de8U, 0x3f78174c3fb097e1U, 0x3d502636be7bc574U,
  0xbdc21a883e68132aU, 0xbf29a7393f8cd1f1U, 0x3f743c42bed98de9U, 0x3eed8abd3f8f8511U,
  0xbecdfb223daf11d5U, 0x3f2ef1b0be9cc78aU, 0xbf9ca2c7bfa0b185U, 0xbefc1c803e98046fU,
  0x3f8bf8033df40a00U, 0x3ecc4c903f492443U, 0xbea54e3a3e572655U, 0x3ddc2364be1fcf3cU,
  0xbddbbf7f3f322b79U, 0xbf35b01d3d53647bU, 0x3d70e9ba3f05c3d7U, 0xbee6711a3d4e2693U,
  0xbefa71c3bf94d58eU, 0xbdee92fbbec1ef86U, 0xbf231b05bf1d2a94U, 0xbf2adb4f3f83f60cU,
  0x3df329f63e2a115aU, 0xbf806e063de51a4dU, 0xbd0bdda2bc4298caU, 0xbc82039c3d8644d9U,
  0xbe39f4d1bd23c9b7U, 0xbd845ab13e27d6aaU, 0x3f0e38113dd60149U, 0xbe9dd7d5beffe582U,
  0x3f1db7d5be6e0583U, 0x3e6eacb63ea998edU, 0xbe85d760bef3a7acU, 0x3da6baaabe157babU,
  0xbead6b5abe7acc90U, 0xbe7f83053f626c5eU, 0x3f1d5334be2a435fU, 0x3f92bdcabe7185eaU,
  0x3ea9b08bbdeeb826U, 0x3eb0de5bbdfac9ccU, 0x3eb46afe3e849235U, 0x3c770b9fbe4332c2U,
  0x3f11c60c3e383eb5U, 0xbf3a70593e69b253U, 0xbdb8ac8fbe34aa62U, 0x3f6f37ac3da6c811U,
  0xbe1667dcbf98e965U, 0xbf027ddcbe78faeaU, 0x3f4a8f74be3e3497U, 0x3dea009d3e244b2aU,
  0x3ee82292be7638daU, 0xbeca2d0f3f329efbU, 0x3d63f370bfda932eU, 0xbed69e79bde96c24U,
  0xbc2bde4f3edc8716U, 0x39fbc050bc2d5165U, 0xbe5ab08dbe780062U, 0xbe5a46603d50b062U,
  0x3d8418c6bf4fb554U, 0xbe867ea8bda00c56U, 0x3f2b739f3eee60f3U, 0x3dafec31bf0fe9f5U,
  0x3e0e3e3bbe7f8833U, 0xbe8f1dc6bd2674a7U, 0x3c4c1570be763686U, 0xbd4237473eae9766U,
  0xbba9d4b4be909b5bU, 0xbced32c6be050af0U, 0xbdd0529a3de9dc9eU, 0xbcb91b07be2a7387U,
  0x3ff3af053f1b84dcU, 0x3c1403ca3f0b2220U, 0xbecd3829bdf28bd7U, 0xbf1654ffbe9bb6f9U,
  0xbeac971f3ee485faU, 0xbfa5584bbde15938U, 0xbee5d6e1bf6ab1ccU, 0xbf44ff25bf557da4U,
  0xbf19ff0a3e8fa7beU, 0xbf8249303f3a900fU, 0xbf694d06bf4a5008U, 0xbebc4fae3f84fe46U,
  0xbe9ea8293f871eb3U, 0x3f731bf8be917166U, 0x3f6206823e962c08U, 0xbefd05f2bf635c77U,
  0x3f8ae7ac3f8aff83U, 0xbe7c64303f38e483U, 0x3e37f3ea3f8f5b99U, 0xbfd5e1433f0f209bU,
  0xbf36c5c0bf2dc144U, 0xbf74a4553f82d0a9U, 0xbeeb7c4fbe1cbee2U, 0xbe8710e63f0f80d9U,
  0xbce6e4453f90a11bU, 0x3ee01248bf070b53U, 0x3eac849abea617ebU, 0xbfbb2e9bbc7eddbeU,
  0xbe95b5413d353f6cU, 0xbf8d4e7a3fe085a6U, 0x3f09e9113fbb6e15U, 0x3f4a8d763eaca85eU,
  0x3dc9754dbe538e9bU, 0xbf1c9ecf3f059625U, 0xbefcd666befa9ae4U, 0xbf99f58f3f201b2aU,
  0x3e74474d3f3bf7c8U, 0x3dfa28683f797b83U, 0xbeab7ca2bf75855bU, 0x3f8115e5be7a7c89U,
  0x3f2694c73ef295c3U, 0x3e162cf6be40bcb6U, 0xbf245f1dbdc7a291U, 0xbe94c700be2f0c40U,
  0x3f65954abf957847U, 0xbe0a07053f4096a0U, 0x3f293fddbf2a8025U, 0xbf389cd63eb671c6U,
  0xbf629bb6bef76ccdU, 0x3f75ba49be185e72U, 0xbf7d4656bf4700f9U, 0xbf7a8d13bf3ab6caU,
  0xbf0934f0bf4446d0U, 0xbeb096f03f514940U, 0x3e2cfcbd3fa1022cU, 0xbce5490e3ec74dbaU,
  0xbec4b6823e84667bU, 0xbe93b2733c00f2d7U, 0xbe6518e53fa2ae59U, 0x3df245913ead29e5U,
  0xbf8e1c76bf0e6499U, 0x3f38ec143e92b569U, 0xbf3eea04bf269ba6U, 0x3e9b49be3f499615U,
  0xbe4012b3bf91660cU, 0x3c9796a8bfb23411U, 0x3f4d39c23edd58beU, 0x3c903011bed411dfU,
  0xbf548524bf492b11U, 0xbea08cd9bee05f2fU, 0xbf24acfb3f4838ceU, 0xbf1fc5a63f6ac768U,
  0x3d67f076bd06d623U, 0xbf4994443e9ba645U, 0xbee54261bea6abe6U, 0x3f2a96e83d9ee710U,
  0x3dd5fc2e3f0ad852U, 0x3e805168bf362088U, 0x3eddfb30bf227f4eU, 0xbe56dc7abe9d7700U,
  0x3ed931a73f629029U, 0xbefd246fbece06faU, 0x3f5b7284bf22f278U, 0xbe6bbbe33e0a3b00U,
  0xbf8ce095bdabf461U, 0x3e991894bc9798faU, 0x400c1a233f07551bU, 0xbf67f32e3f6771d7U,
  0xbf35047dbeb135cdU, 0xbf44d16c3e8df32cU, 0xbf2a2310bdd918a1U, 0xbdbe4edd3eb66fb0U,
  0xbe38ac90bcb42713U, 0x3eaaa2bbbfa9c711U, 0x3d98394a3f3bcda7U, 0x3ef1904e3e00597bU,
  0xbf8e34553fffe7f0U, 0xbfbd0604bf84c5dfU, 0xbfbef6c0bf3f83cbU, 0x3fa3b0d7bf6d46f8U,
  0xbdbdc6f53f80733bU, 0xbe1b4b0f3f448569U, 0xbf3246403fb67917U, 0x3f115dc9bfa98408U,
  0xbf472a30bf3b67eeU, 0xbf7ed6ad3d0a178cU, 0x3d29fad7bdf5cd09U, 0xbf2f4901bf5631f7U,
  0xbed3371ebe1eba70U, 0x3e9d5e4c3f7c02a7U, 0x3d3dccd4bf99501fU, 0x3f34ab1c3f896676U,
  0xbf6a64f1bfe9a7ddU, 0x3fc433b23eabe680U, 0x3efc83833f505c51U, 0xbf8d457b3e7075adU,
  0xbf0d8c683d82df5aU, 0x3e4df4c73f11321aU, 0x3f155acfbf512104U, 0xbdeca3f6bfa6569dU,
  0x3f305f83bd2f6258U, 0x3e86801e3e1747caU, 0xbe6c2b80bd95a6b4U, 0x3db9bdadba763fa0U,
  0xbd59c44dbd0f375fU, 0x3e3712c0bd807edeU, 0x3eb4fe663e8c1c93U, 0x3eb74756be48ed26U,
  0xbe0aecefbecc6332U, 0xbe21b452be70a8aeU, 0xbe50f2eabdad46b7U, 0xbd23ff253db93070U,
  0xbe6cfbe8bd0bc3d3U, 0xbd9e205d3ec9342cU, 0x3e4523fcbe501bd1U, 0x3ea59c953e85a5d7U,
  0x3d3388b2bd1cd207U, 0x3da0a7c6be43d1ffU, 0x3e677f9fbd8518a7U, 0xbe85c867bddd12b2U,
  0x3e873cb73e1db9f6U, 0x3e822f353d55cdafU, 0x3e1ee55cbf0b9eb8U, 0x3c8a65aa3df18faaU,
  0x3df240dabd99d661U, 0xbdf2f4ba3dd9da3aU, 0x3e10aa0d3e54841dU, 0x3e711238be924eadU,
  0xbccf8e06be283551U, 0x3e782bfabd108a11U, 0x3f0ac842be875c7fU, 0x3e31d7b6bd5c3f1dU,
  0x3eab10e63d55bf56U, 0x3e2e2d503da92164U, 0x3dd02efdbdcb2c5cU, 0x3d309211be0906b4U,
  0xbe28e1cebee3c6c5U, 0xbe1957e9bd088f48U, 0xbee1074a3e58fa26U, 0x3ddd61e23e016baeU,
  0x3cd1fb213e86e327U, 0xbe5b3b443ef98c61U, 0x3e3bb1dbbe94ffa2U, 0xbe9841edbe43fe78U,
  0xbddee3203e1c0e49U, 0xbd823ad83cf43d84U, 0xbd9de3463e2313d6U, 0xbe53f1d43c7e5ed0U,
  0x3dedd803be769176U, 0x3de94a1a3e2a7affU, 0x3f17de733d924ba7U, 0x3e1649a83dbe902bU,
  0xbe04b347be14b16eU, 0xbe2f3915be1d6282U, 0x3dc63e2e3ebde034U, 0xbe492da4bd9a1d07U,
  0x3d86b813bd02dc11U, 0x3e5ec5c53de2fd32U, 0x3e2fa903bde13d0dU, 0x3ef264213df4477aU,
  0x402ddc7fbf80969aU, 0xbfa3d360bfa5cf61U, 0xbf41fdc8be27ebabU, 0xbf254f863fa08389U,
  0xbf2c3398bfbcd9e1U, 0x3bf201b9c00b6242U, 0x3c64251f3f2c705eU, 0x3f715486bfc4b146U,
  0x3f2b76b4bfb76791U, 0x3ed54b973f1133c6U, 0xbcd955debed0fc0fU, 0xbef4fa13bf986578U,
  0xbeef86003ec3cd73U, 0xc02d3ba23f18286dU, 0xbea2c7c8be3ade6dU, 0xbd9e422a3e1c0976U,
  0x3ee15cf8bfbc739eU, 0xbe7ff6933fcf6208U, 0x3f4ebc953f0ffbe1U, 0xbea9f8513e814a2eU,
  0xbf37a2bc3e4ab07eU, 0xbeaf53703f0525a3U, 0x3f6645a83f8bb96cU, 0xbf879d38bfdf5d32U,
  0x3f2eb11c3fe7da9aU, 0xbfc5fa4f3f09aadbU, 0x3f93cd3a3df6244aU, 0xbfc10662bf1b5a50U,
  0x3cb4e1183f8f7008U, 0xbe91f2b74005425aU, 0x3de229b53f33c501U, 0xbf2d47703b113ee9U,
  0x3f1e5c93bd356969U, 0xc004515e3ed27cf7U, 0x3d12e5d23f04f2aaU, 0xbf684a25bf9224cbU,
  0xbd37093c3ff02fccU, 0x3fb0d5c2bf238603U, 0x3f5e3b00bf4bfa10U, 0xbdf69de5bce5cbabU,
  0xbe58fb6dbea402f5U, 0x3f626a093e0df5aeU, 0xbf265455bf101ce1U, 0x3f56c7a73ff2cb12U,
  0x3deb8dedbfaa80dbU, 0xbfe4b0d63dfbfb40U, 0x3f65070f3f00fcd2U, 0x3eb38224bf2c52c0U,
  0x3e975a403f7393f3U, 0xbef04af23f417c79U, 0x3f9591ee3ef76d38U, 0xbfa6c46bbf1f826cU,
  0x3e5b38db3f949024U, 0xbf793f7fbe966b06U, 0x3f57f5963ea96673U, 0x3fb05ed33edec731U,
  0xbfa6523ebd03f3c3U, 0x3f6f734ebcbd7637U, 0xbed219a8bf1a9eeeU, 0x3e8f38823ff9e86fU,
  0xbfca85efbf0cdbcdU, 0xbe34f47fbf541559U, 0x3ea574f2beeb3bdaU, 0x3e94d028bec8af6cU,
  0x3ddd3151be9905dbU, 0x3f49b620be89749dU, 0x3eca248f3e881774U, 0xbf106fb9bfc8d4c8U,
  0xbf8e6fc53fa5d8b9U, 0x3ea74e6bbd4761abU, 0x3e4238033fd2f048U, 0x3d9f90033ee72e34U,
  0xbcd7bc7fbf39600aU, 0x4003dbeebaee8e1aU, 0xbeab57c9be0e30f8U, 0x3e92fd103f28932bU,
  0x3cc17800bfa0b90bU, 0x3eece732bf336e2aU, 0xbeb0d185bf5dc8a3U, 0x3d26b8043d41ffa8U,
  0xbf0a2aa53e8e9378U, 0xbf03354ebeea0f83U, 0xbf65aaa53f2b1ccbU, 0x3df5aeb43f089cbfU,
  0xbf58c0dd3d7051f1U, 0xbde78f71be44406fU, 0x3f1bbf963ec4b918U, 0x3f04e751beb4caa1U,
  0xbdffef08be1413e5U, 0xbdb51112bd816834U, 0xbec66c69bf0061bfU, 0xbe57f2433d761b95U,
  0xbf189741be188479U, 0x3ed98ab2bf013ae1U, 0xbdc9af853f4377c9U, 0xbf447a97bf141b60U,
  0xbf1ea1c03fa5c13bU, 0xbe9b82f8bebe2fb6U, 0x3d912224be2b7046U, 0x3ee4c66bbeab9b16U,
  0xbea90b503efca2f5U, 0x3e9923d9bf308bbeU, 0xbedd8ef63fd4d3a9U, 0x3e8e4dffbf0890f9U,
  0xbe99653cbea671ecU, 0x3f6d6f56bdfffb47U, 0xbe1e53423e64f68eU, 0xbecd0c433d2e56d3U,
  0xbd06ff3a3e1352dfU, 0x3f1545643f43bf0bU, 0xbf4e9337beaef4b7U, 0x3f00cda13e99a26cU,
  0xbf4aa44a3f87012aU, 0x3f2400f03d6ba4edU, 0x3ec9a1593daf2f0aU, 0xbeb3b2863dc07914U,
  0xbf10f873be46abdcU, 0x3e81b14c3e2d472eU, 0x3d014fb3be3f95d9U, 0xbdb3bb35bf98fec0U,
  0xbf079f653d50a3d6U, 0x3ebddb743d9589d4U, 0xbf55656bbecfb43dU, 0x3e268f803e44cf6bU,
  0xbc841be5be02db28U, 0x3e33ad20be0ab91cU, 0x3e18fa293e126572U, 0x3fb53cc43ed11424U,
  0x3ea9601cbf268397U, 0xbdc337f2bef76f62U, 0xbf0bd317be64b8acU, 0xbe9453c93b65292cU,
  0xbcbdc4b8bee2c1d2U, 0xbe7498bbbe3d2ee9U, 0x3d2e05dc3e4970ebU, 0x3e08b9883e817612U,
  0xbc2fbbaf3d244921U, 0x3f01d3bcbe93d799U, 0x3dcd7a55bdc0f512U, 0x3de542da3c5a58baU,
  0x3edba363bea96cf5U, 0x3edbdb37bd964a42U, 0xbd78daaabeaa4499U, 0xbc0994d43e811c4aU,
  0x3d43c655bd5e7179U, 0xbdefac91bd83c91aU, 0x3cac08c93eab52b1U, 0x3f2f871e3e13508dU,
  0xbe47aeb73d9e10ecU, 0xbf1fd7753d348be6U, 0x3eb34affbe686161U, 0x3e9ca9c3be58b139U,
  0x3e356bfd3de14ad6U, 0x3f11f7223bd9ec5aU, 0x3ce222163c2c3507U, 0x3edda3a43d4d2fc2U,
  0x3e881f313f1c5072U, 0x3e30b382baa9f397U, 0xbe58f8b2be2a4472U, 0xbe095caf3e83228eU,
  0x3e578f30bac79396U, 0xbedf24843f0c7ffeU, 0x3e4ee7e4bcbec31cU, 0xbe908ec8bf3ea311U,
  0xbde2d2593e110d07U, 0x3db3c9cf3de18239U, 0xbf0039413db5e6b0U, 0xbcb424943e89c299U,
  0x3e23bbd1bdc405e7U, 0x3e171008be5c6b61U, 0x3d23e9c73f298ee9U, 0xbe001167bec71f95U,
  0x3ec617723ec529b3U, 0x3e80a97c3de703f8U, 0x3d175c753eecfe5dU, 0xbe468485be3c3d7dU,
  0x3efed5583ecc1fe6U, 0x3d1e9d2dbe1129b0U, 0xbe23e79dbe7b5e70U, 0xbf4105793c1bbb3cU,
  0xbf7e47b0be9b9bfeU, 0x3cc7cfa4bed87f6fU, 0x3f1b6f3fbe9106f6U, 0x3d904de7bee90f54U,
  0xbe5a9beabfba8353U, 0x3eaafeb5befd0edeU, 0x3dfc28ac3f82bbebU, 0x3a5d4231be4a90b6U,
  0xbfe0fb8fbd8bb514U, 0xbe03c7a0bee85169U, 0xbed7ab4340280416U, 0x3fbbda5c3e06a3c5U,
  0xbeb33c26bf683b73U, 0xbf97391c3d124cf4U, 0xbef27be8bcec22afU, 0x3eec45423f304d01U,
  0xbf0d7d93bf88a3b5U, 0x3ecc3f86bfa6eccbU, 0xbf80f117bfba294fU, 0xbece843cbfa77a2fU,
  0xbf8cbdf33f8d32edU, 0xbd8b5c14bf5a11b0U, 0xbe8358d5bf3fdc04U, 0x3e03ec943f4d2289U,
  0x3e3d4b91bfa79311U, 0x3f32c3d0be913cd8U, 0x3fe0644cbefdebb0U, 0x3cd1f12bbc55b88aU,
  0xbf73caa1bfd8f5e1U, 0xbee5306cbf0a2eb0U, 0xbf6854d63e5d5e97U, 0xbdbd3a14bea348b5U,
  0xbe677c1a3f00e0f1U, 0x3fa708aabfc6ed57U, 0x3f968dba3f84644eU, 0xbf183d5fbeed7c30U,
  0xbf97b5f93e2fe889U, 0xbf0aad3fbf979d8aU, 0xbfcbf9563f153772U, 0x3f93ca4abfcacbe5U,
  0x3f1c5cef3f23f015U, 0x3f016018bf2ded98U, 0xbf66ca683e471b15U, 0xbd376096bfe587f6U,
  0xbe352ffb3d03fbd1U, 0xbf192dd5bd3b4158U, 0x3e1d23f53d35bf6aU, 0x3bf8ee71bf0e9f0dU,
  0xbf84876cbef3bd77U, 0x3f6039143eb6136aU, 0xbfb8159dbfd07a86U, 0xbd9ae0d03f8f0077U,
  0xbf1dab19bc97938dU, 0xbe02e6313e4266deU, 0xbe323782bec3f6b9U, 0xbf4f96d6bf964bf8U,
  0x3cf8aee1bf19bf35U, 0x3f43cd933ceec43dU, 0x3f48950fbf689b90U, 0x3fcc8ffdbfc7bad2U,
  0xc00258a03e0b0c3dU, 0x3d83c81cbf3ffa92U, 0xbdc10fbb3f6d904dU, 0x3e9017bf3f4faa09U,
  0xbe509b1dbd1957bfU, 0x3f67caf4bea59039U, 0x3f0213ab3e897605U, 0x3e885d4a3ed343e1U,
  0x3da792443ce6e349U, 0x3f3bb5ebbfe51257U, 0x40027c033f94868fU, 0xbe6c6b473f4bd733U,
  0xbceeaafc3edd3b51U, 0xbf0d19d83f2b3141U, 0xbea230cebeed5898U, 0xbea6c25ebf483377U,
  0xbf28a44d3f708cf7U, 0xbf86a2f5bda3ab10U, 0x3f3fff723f270515U, 0x3f7ed7acbf0c0334U,
  0x3e68bfd93fc4d690U, 0x3e9e7c4ebe0ba318U, 0xbece652bc0322d6eU, 0x3f408b12bde89217U,
  0xbf2308b0bf492f71U, 0x3f5cc5d53c2d2e57U, 0xbfce0071bf36ba9cU, 0x3f98129f3fded686U,
  0x3c6337ec3e859538U, 0x402184a23ea57259U, 0xc00b60a7bf4b3d97U, 0xbf84a6633fbaa888U,
  0x3fa349533f1bf48eU, 0x3f0dcdd4bfc2440cU, 0xbeaa126a3eb8b7f7U, 0xbee8f0093eee872eU,
  0xbf44340d3fa3e6ecU, 0xbe5b7fc5beb8fed7U, 0xbdf75dffbf87e419U, 0xbf0c4100bf5cf51aU,
  0x3f1782f73e0bb9bfU, 0xbe69465d3f2665c6U, 0x3e3a55c73fd1bf68U, 0x3f7193463eb6a311U,
  0xbfb031ac3f041761U, 0x3f2d1651bdf82b48U, 0xbe89dd35bf88ae0fU, 0xbf7166d0bf46b18fU,
  0xbdd2c61e3e29e79fU, 0xbf55099abedfbe7fU, 0xbf846b5bbe0b48b8U, 0x3ee32cc43f6aa048U,
  0x3e2e2342bf3bf976U, 0xbe35499fbe49c7b8U, 0x3f813069bf41744bU, 0x3f30c1e83f629954U,
  0xbeb771e8bf93db94U, 0x3eea3e0b3f2c478bU, 0x3e6f287f3f9255f1U, 0x3c727ffebec6277dU,
  0x3f2a105b3daecf03U, 0x3d88b5493f2ba2aaU, 0x3d0b4f21bee51f91U, 0xbd12c0e43e692618U,
  0x3d53c4a5beed0bdaU, 0x3e2aa51a3f2d6a45U, 0x3d12a755be4d3601U, 0xbf65e56fbe631b67U,
  0x3db313bd3fac8c7cU, 0x3ca1f4543ec2c899U, 0xbe7771193f19498bU, 0x3ed7e0f9bfaa5ec4U,
  0x3db6c3833e80cbefU, 0x3e558da3bb3efdf4U, 0x3c514d5fbd3752b4U, 0x3e921ea3bd685b20U,
  0x3ee58841bef2c233U, 0x3ddec1ea3e8727faU, 0x3f49e98b3de528ceU, 0xbe8183c33e1959a7U,
  0x3ea151a63ea3a435U, 0xbe8b1fd53e87928dU, 0xbeb504e23eac8142U, 0xbe9a890c3ebb5ce2U,
  0x3ead46fe3f3dd381U, 0xbec66db7bf8c13a6U, 0x3ef1e8693e143479U, 0xbfd06924bec4c9a6U,
  0xbdcfd7053e965199U, 0x3f7a8154bd1527caU, 0x3f1ae239bf0ccf88U, 0x3ef8a2143ea3858eU,
  0xbdc16bd0be1e5a84U, 0xbf046e643de81723U, 0xbe5911e83d58965aU, 0x3f80ac8fbefa208aU,
  0xbdcdd46cbe7ee823U, 0xbd5ddfd03ed18d5cU, 0xbf3b27403e6f4c7fU, 0x3f73d9b1bdfe039fU,
  0xbf3044b53db2b43cU, 0x3d6394ab3be04502U, 0xbdab4e533ea987cbU, 0x3e2e8a293f092a58U,
  0xbf0ea3d7bf0005f4U, 0x3ed6d2803e9d1393U, 0x3e4e6e613c78c72eU, 0xbeb4e29c3f1554dfU,
  0xbe1ee497bea0ed35U, 0xbf0d5cb93e834c2dU, 0x3e2b1f9fbec1fa10U, 0x3ebdeac83f37a644U,
  0xbeb256ba3f625c19U, 0x3eb28a323dbf0265U, 0x3ebbd051bf1775dcU, 0xbdc73affbe5b8640U,
  0x3c5662133e564544U, 0x3f8324333e7392eaU, 0xbe4b84b43e454c04U, 0x3fafc1ddbe9c6decU,
  0xbf8e2064bf03649bU, 0xbf9d1d34bf5ee911U, 0xbee86338bf5824c9U, 0xbec5afb0be59b7e2U,
  0x3f7ea62f3f8cf7dcU, 0x3f398b9f3f259855U, 0x3f270327bfd278a4U, 0xbfa8ae50bf79efacU,
  0x3fa490dabe29bf1eU, 0x3eb5be7cbfaa38d4U, 0x3f36dba8bf728ff1U, 0xbfaea9f6bf4f5906U,
  0x3f214273bea50d60U, 0x4020a0503e0c941fU, 0xbf87cadabef35099U, 0xbf83b1d03dc63560U,
  0x3f9a3d053f5f119aU, 0x3e9f30cf3eed76bfU, 0xbf32a1b53f929c75U, 0x3f6fcf4c3feeb2e5U,
  0x3f1c8e85beb4c0b6U, 0xbee132c6beaba378U, 0xbd2cfd34bf2a661eU, 0xbe4c04d73ebdd372U,
  0xbfd7dec83f7a8698U, 0x3e524150be96fae7U, 0xbf88a1bf3f11620eU, 0x3fcfe74f3eef4e57U,
  0xbf2e54cf3fbe2720U, 0xbf15a2e63fafbad7U, 0xbe9b9a74bdc4710cU, 0x3f29da94be853a76U,
  0x3e15ccb6bf69344bU, 0xbf77bb903fc70611U, 0xbf65d2ccbe2c6110U, 0xbf6dbeb2bea64a0cU,
  0x3f5872d83eb53c20U, 0xbe520e0e3f4b27bdU, 0x3e4d3f48bf0a4651U, 0x3d07dfe63f92c6e3U,
  0xbef975c63ee65d41U, 0x3f13a5b53f9ac78cU, 0x3f031fe73ee9c522U, 0x3e36f4313e74981cU,
  0x3f3f4fcdbf2e6ba0U, 0x3f401d0e3ebedae4U, 0x3d589f76bd3bd5dbU, 0x3f6733c8be99770bU,
  0x3ee3819f3cd8c178U, 0xbf25ef7c3d92903fU, 0x401e2ce73f8d678dU, 0x3f3b06883ee2b5f6U,
  0xbf3524a93f08de63U, 0x3f2e6e0bbf537fc1U, 0x3e7b1c233e363788U, 0x3f86485140058ed3U,
  0xbde3860b3f85daa1U, 0x3fa70660be9e742cU, 0xbfc5ed633f0b70e3U, 0x3f33ce43be82b61bU,
  0x40242f293ebed04fU, 0x3f0d6d62bee89c5dU, 0xbee57a293f11b1c7U, 0x3ecc9fcc3e421638U,
  0x3e5a1fb63f895e62U, 0x3d9c91fb3fdc3569U, 0xbecc348dbe11b549U, 0xc02793713f6fde94U,
  0xbdf13ed2bf4d3bb3U, 0x3f3e69d3be6ac9bdU, 0x3e7bdeacbf9220c8U, 0x3f341ce33dd7a8e7U,
  0xbea7fc2ebe149b4dU, 0xbf8dbe7cbea4ab94U, 0x3d469cef3e7380f6U, 0xbe86e2a8bf5e423bU,
  0xbe9385313ef1880fU, 0xbeff939fbf01b415U, 0x3f899e9d3f832b75U, 0x3ede5f69bda7cedcU,
  0x3f2303cf3ef1ebc9U, 0x3f0e9c48be5044edU, 0x3e4f71bf3f115ae4U, 0x3eb6cb8b3e47c3e4U,
  0xbcb1076bbf6a6ee7U, 0xbec01226bedc1a36U, 0x3e9224f4bf0ce203U, 0xbf2bac393f1a3099U,
  0x3ef88d473f9df581U, 0x3f7a459a3dfe6eabU, 0xbe0f33213d4c381fU, 0xbd5b761e3f90e076U,
  0x3eb64f953f203749U, 0xbee361093ed83503U, 0xbf1931debea158e3U, 0x3f5cb07f3f13ee79U,
  0x3dad528bc02514dcU, 0xbe43fa3e3f3a6c12U, 0xbf1c2cdf3f55ff3fU, 0xbe5f899c3e5ae877U,
  0x3ec9a5fcbf8771dcU, 0xbf84a42fbe00d75aU, 0x3f0fad8d3f14de5eU, 0x3f00569bbe1f499bU,
  0xbf505f9e3ec4b11cU, 0x3fa26c4e3e76818dU, 0xbf590ca53e33a2c0U, 0x3fc1014b3f40a375U,
  0x3db4b43bbe9a8445U, 0x3f04d3f9bf31aeacU, 0xbf5d2d0e3f3c3d0eU, 0xbe5050343d07f317U,
  0x3ea574fabdf6aabfU, 0xbf64c79b3f502aecU, 0x3f0fcd5c3fad384bU, 0x3e3e4a35bfaf0edfU,
  0x3d7893f5be80d442U, 0xbe9afcd83ee7c5c3U, 0xbf0d3c573eb110f3U, 0x3e32fba03d896f30U,
  0xbe4926773e84cd5cU, 0xbcc8a5b8bdda718dU, 0xbe6a69513e593645U, 0x3e27a951bdb49a8aU,
  0xbe8fc5d8be57ea41U, 0x3e5ee72b3e083a4dU, 0xbe82ff36be235c92U, 0x3f69b27b3e80bd3dU,
  0x3ecbe9803eb28f85U, 0x3c859f70bcb5e799U, 0xbeba8e4ebe60e540U, 0xbd68544ebeddf588U,
  0x3dc81d3e3dae1624U, 0xbe0b95ccbef82b9bU, 0x3e5616293dd4bfadU, 0xbda079a5bc40a43fU,
  0x3e5383afbea45e31U, 0xbdb8a098bcc34f34U, 0x3dd8a2213dc6464fU, 0x3dab68e43e1c689bU,
  0xbe6e327abd9dcb21U, 0x3e74b0373d8a27eaU, 0x3b1602523b002808U, 0xbdc2e0633d1f0133U,
  0xbccbfd793ea882cfU, 0xbe5b49fbbf2315ebU, 0xbf265f45bb57d704U, 0xbc26ef163ec09430U,
  0xbe78c236be5766b6U, 0xbea2ca3c3e523a80U, 0x3db041ddbcdb027aU, 0x3e4404613da0d3ceU,
  0x3ec23430bd5c4139U, 0x3ee0b119bebe58c2U, 0xbe6b3968be79c161U, 0x3e32ec3fbc016e70U,
  0x3e6849993f34e1b7U, 0xbdbf4062bdae08cbU, 0xbd0650cbbd21d4d5U, 0xbef088fb3de4bfb6U,
  0x3b252217be2fbeddU, 0xbbbdaca13e9a0e34U, 0x3d4355683f0e8122U, 0xbdfc7894be1a0f6fU,
  0xbe886646bc34268fU, 0xbe8d514f3dda7638U, 0x3e4bca7cbe1ab108U, 0xbe6d18f83cf26fb3U,
  0x3db9ef6b3e2268b0U, 0xbe96df8dbd2ea7e9U, 0xbe7778e5bde40adaU, 0xbeaf726bbdb3db9cU,
  0x3e8b427f3eb4f727U, 0x3e14dbdc3eddb6deU, 0x3d03a7b0bdc26152U, 0xbd356a62be1b0cd7U,
  0x3e3b8ee5bd30d46cU, 0x3f06d8003ea0fd7eU, 0x3e942d3ebe967f55U, 0xbf5903863d5054c3U,
  0xbd6a7c5ebf8970f7U, 0xbdc04804bf654d6bU, 0x3f8d064abdf380e1U, 0xbf57fb9ebfd449d1U,
  0xbf0274993f76d49bU, 0x3f2cef303ed2e837U, 0xbf3d7841bef814a0U, 0xbee27aa83fa3475eU,
  0x3f1a5b4a3fe9b856U, 0xbfac9a873d09f009U, 0xbfcc98babfa0284aU, 0xbf97f0593f8a0590U,
  0x3f7d6f84bf292261U, 0x3f746cfc3e9b26bdU, 0xbee843c9bded0b0fU, 0xbfae999e3f993dbbU,
  0x3f4f5a323f871a53U, 0x3f14421b3dbc35c7U, 0xbf3bc9cd3f37efc6U, 0xbde7e1683dee8300U,
  0xbf9dc41a3ee16ee4U, 0xbf55fc013eca0393U, 0xbee238b1bf570169U, 0xbd91504bbf4cbcf0U,
  0x3e2232d73f1e8a64U, 0xbe894a73beccf726U, 0x3eb92b813f4c8c12U, 0xbf57de703f2e58adU,
  0x3e2fd229bf2e8a72U, 0xbf9f252abf033c44U, 0xbf305f7d3f9d82c7U, 0xbeb889adbfa16deeU,
  0xbe1c20e8be90581bU, 0xbfbc51493f11ac18U, 0x3d2fa6efbe9e734cU, 0xbfb6c0603ee3edfdU,
  0xbd5e984abdc0026fU, 0xbf3fe840bfad61e4U, 0x3f2025b4bfc83b9fU, 0x3f5675703f97963dU,
  0x3f247aff3e0fc4aaU, 0x3fd5da1c3ff0bbc1U, 0xbc96c04ebeb68fc8U, 0x3f12df07bea627f0U,
  0x3f8ab4f23ebb70aaU, 0x3df25fb63c88f718U, 0x3f570954bf91298dU, 0x3dcc787abf18f10fU,
  0xbf858dc43edeab9aU, 0xbd6b1b6e3f0ebcbbU, 0x405ceb0fbf901d3dU, 0x3ec310b83f9b1755U,
  0xbf7389073e3aef6dU, 0x3e7a3948bf35aa10U, 0x3dbe4d00c02349d4U, 0x3f30bb883edc1595U,
  0x3c553339bf06ccf8U, 0x3fa32417bec3168cU, 0x3f3069a93fe288d7U, 0x3d96ac0e3e63c2b9U,
  0xbf82c39bbf1a1e0fU, 0x3f11bd153de3055aU, 0xbe670db7bec1977cU, 0x3cded9ee3d87dd9bU,
  0xbe977efd401cf3fdU, 0xbe9091e6be278dd5U, 0xbea1d2a13ee96faaU, 0xbf8402993fc6fe4cU,
  0x3f2715b93fd9503dU, 0xbf79b57e3bf8f2baU, 0xbf7d0245bfc65ff5U, 0xbfaed67d3f8509b3U,
  0x3f6fdc74bf8e790cU, 0x3f8335ea3e4e22dfU, 0x3f8b77f73e021d39U, 0x3fd47914be5ad5fcU,
  0x3f4ee7e83d224972U, 0x3e9638d5bb642402U, 0xbf2fe002be6ed6c1U, 0x3f81df2e3ef69d39U,
  0xbf8597bbbce84a44U, 0xbfcc330f3cbee61bU, 0xbff2eb753fc5ffc8U, 0x3fc08375bf36240fU,
  0xbf492aeebe584695U, 0xbf4623dbbfcc5668U, 0x3e843e7b3f96db26U, 0x3ea27ff2bfa5e82aU,
  0x3e5d3329bf91dee1U, 0xbf8f5cecbfa54211U, 0xbf4a8cd9bf9e371fU, 0xbf5d42bcbcd08fd6U,
  0x3d1844d03d0a6259U, 0x3eb74c523cfd8d10U, 0xbeb51ffebf06ce81U, 0xbf445b4e3f39c256U,
  0xbecf79bfbf8de880U, 0xbfb25749bf87ba7cU, 0x3fdbb39dbf948fe1U, 0xbf0fc47a3e8d4cf6U,
  0x3e8980a3bf14a0e6U, 0x3fb5c7ce3fe84971U, 0x3f0b3985bf0972d3U, 0xbec1baa9bf45afefU,
  0x3f02e9a43f346caeU, 0x3f10b26bbb4bf40aU, 0x3ee05343bea17084U, 0x3f88a6f53e501787U,
  0xbe4ffc133dbaf4a3U, 0xbf547a803f0fc58eU, 0xbeaa2b0fbf634f8eU, 0x3f802d523f2ee9ccU,
  0xbf721c58becbb01cU, 0x3f67fc71beb793edU, 0x3e123da3be7b22e8U, 0x3e18567c3fab7e4fU,
  0xbf03aa91bf2aee2aU, 0x3f70ab023f19289eU, 0x3e767e983f9ae875U, 0xbf859f16beec7c8cU,
  0x3f5c7ca13dba1c6fU, 0x3f26640d3f5396deU, 0x3ea7c1edbec79401U, 0x3ec9c4c3beb71fceU,
  0xbee3a1873e85169aU, 0xbf24f1d8bf035536U, 0x3e819c60bd85ca57U, 0x3d22c1e0bf06fb87U,
  0xbfaafdf13ed6029aU, 0xbf83ae1b3f8071e0U, 0xbf919c44be38ae69U, 0xbf8909993fb3cde3U,
  0xbe09fa9dbecfdb83U, 0x3fd752f6beba50caU, 0x3ef9eeaa3e8ff0f0U, 0x3f4ef597bea07673U,
  0x3e9c10f03c73a258U, 0x3e636b0abf345f39U, 0xbdc7c2a0be83375fU, 0x3ea30622bec02cffU,
  0xbf96b3463e622ae1U, 0xbfd6c4c13cfa5862U, 0xbf0bcb42be3d4793U, 0xbeb673b33f06d1cfU,
  0xbffa9465bf461248U, 0x3f7c1ccdbf7761d4U, 0x3ff9b28f3e884876U, 0xbe94ce5c3ee422b4U,
  0xbf47ae4bc0042b91U, 0xbf87a0073f5ac287U, 0xbf1494bd3e5b0237U, 0x3f634a9e3e1667ceU,
  0xbedb54853e784a6cU, 0x3f8476c7bf8410e6U, 0x3f10497b3e29d60aU, 0xbf7bf4103f087787U,
  0xbf4989fbbf866f87U, 0xbfbf375cbf6269c9U, 0xbd4c6612bfb35be6U, 0x3febb018bf7f880fU,
  0x3d7796ae3f8ae870U, 0x3f1675463f1b437aU, 0xbefe89803fabf741U, 0xbb3c5839c0157ebfU,
  0xbe434008bf3c9b42U, 0x3f07b8fb3e92f550U, 0x3eb26660bf431f73U, 0xbf8fef283e731ec9U,
  0xbfa9f23cbfa4909aU, 0xbdc88be53f614cf5U, 0xbccb6c85bfff525fU, 0x3ed8644e3d74b444U,
  0xbfa8456fbf29b86dU, 0x3f91148c3f399958U, 0x3eb5110e4019efbfU, 0xbf6038153d3637eaU,
  0xbf57de143f1769e3U, 0xbe8c15ae3f432d23U, 0x3ef3c7b33f8ae733U, 0xbe1d7b01bf93595bU,
  0xbe87eea4bd4c05dcU, 0x3d1d60b3be75d3cdU, 0x3e1c4dfa3e2e4260U, 0xbe1c6f7a3e3b8c2cU,
  0xbe8ee6963d469d70U, 0x3e5d13d23bf6958fU, 0xbef76501bea97126U, 0x3e52317abe6da232U,
  0x3e89a77c3f500840U, 0x3e365a2f3d8bed88U, 0x3e0ad608bec11c17U, 0x3e0b5bd8bf647ea4U,
  0x3df14712be4223deU, 0xbeacaea1bece1387U, 0x3ea25474bc8cb4b3U, 0xbec26054be19fbd6U,
  0x3dc2069d3d5dd344U, 0xbe0684e3be3edb9dU, 0x3ea125313d59262bU, 0x3e1e50c33e334cecU,
  0xbe7ae0773de5fbc0U, 0xbe39dd32bd9a7325U, 0xbc69ae19bd4edb45U, 0xbee86096be858774U,
  0x3ec372b43e51b512U, 0x3dcc7407bf2e9127U, 0xbec072e0bd629ec1U, 0xbec452d13ed41146U,
  0x3c4c92d3bddfd2beU, 0x3c5242d43f0c7415U, 0xbde54ddebe48be08U, 0x3ddcaf57bdb37bc4U,
  0x3cc4179b3c01a699U, 0xbe08766dbde707c5U, 0x3d890702bea91c75U, 0xbc47385a3eb0e84fU,
  0x3e8c54ed3ed01b7fU, 0x3e7b3de63de4bf43U, 0xbd7eb13bbe3128b2U, 0xbe9a8a68bdb40868U,
  0xbd05cbe2bd79c1f7U, 0x3e0d8a4e3e0142b4U, 0x3d344c3a3f5a1ce4U, 0x3d6e2aea3e8e8f2eU,
  0xbeaccef3be5d2f9cU, 0x3d843fd53d7bf7c7U, 0x3dcefdf4be4caef5U, 0x3f1409bd3e17e9cfU,
  0xbe0e6f2f3dca3154U, 0xbd86ecaebd209579U, 0xbef82ae9bd3d0d67U, 0xbdf5656c3e3278c4U,
  0x3d55f2163dce1a9cU, 0xbe93b5ae3e22fd47U, 0xbd69555dbdf50ad3U, 0x3e6196bebe8b13ffU,
  0x3ea007c53e988300U, 0x3ebf64713e2fe0f7U, 0xbdd4a8a33d5be940U, 0x3f9d9fad3d94bbdeU,
  0xc002e09e3f0e7d46U, 0xbf1b31f93ee49de4U, 0x3fb9ea5e3ee9f3d5U, 0x3ead06fb3eb1e7d1U,
  0x3dabce993ec2509dU, 0x3e3de3013f50b9cbU, 0x3d2608df3e20080bU, 0x3eddd42e3f1d715dU,
  0x3eaf4ad83fb43a20U, 0x3f3dbf7cbe02fbb2U, 0x3fb6fd16be0f3be2U, 0x3f27cd54bf21186aU,
  0x3f0060c63ee308f0U, 0xbf6107773efcf260U, 0x3b92f173bcc7a7e8U, 0x3e1b0aaabea7e0aeU,
  0xbefee7663f2e4ce0U, 0xbee1b70b3f035ae9U, 0x3f848dabbe96ab23U, 0x3f3fcff53def28ebU,
  0x3e5c7a4f3f1ace85U, 0xbf568f8c3e41750eU, 0xbf8e475abff4a580U, 0x3f111a68be169be0U,
  0x3f329a993e89d62fU, 0x3d9a02c5be6ad57fU, 0xbfb0fb503edd4304U, 0x3f93bc323ef38cafU,
  0x3ed604da3f4f947cU, 0x3f9caa89bfb6dfeaU, 0xbefeeaf7bef6ecddU, 0xbf37520d3dcdc3beU,
  0xbeb4beb4be52f62dU, 0xbf55b159becf9f13U, 0xbf33b5aebeadaa42U, 0xbf55c9593e81d772U,
  0x3dff4f8fbfafe2beU, 0xbe37ac72bf191638U, 0x3fb9b6ad3f1755c0U, 0xbf637424be71f284U,
  0xbe9cf448bf6b04c6U, 0xbdd7ed5fbf8b7010U, 0x3f13a2dabe27d622U, 0x3f122acc3fae9084U,
  0x3d6591dc3f18ee0eU, 0x3f207bcbbe839373U, 0x3e611d133de00946U, 0x3fd6ccd83e5f6305U,
  0x3f4d1fcebf3bc276U, 0xbf611d56bdf7ce76U, 0xbd2705863e5d01d3U, 0x3f1718293e41f8c4U,
  0x3ebe40a2bf498f0bU, 0xbf78a380bf6d1a52U, 0xbee6602abe8de10fU, 0x3f7469013e0d2309U,
  0xbf33799dbf40f254U, 0xbfb4690e3df1aa29U, 0xbe59e7083ec8fab0U, 0xbf260271bb2e890bU,
  0x3fa69aca3ef36e99U, 0x3dae52133fbd03a3U, 0x3fd11f883eb0a283U, 0xbed0c503bfbe88f8U,
  0xbd945a11bfcffee4U, 0xbc199de9bf2faabfU, 0x3dd2bbc8bee2dbc4U, 0xbf7ad4b93e8e6e07U,
  0x3e842a003f622f85U, 0xbec324773d1b4395U, 0xbf2c12813f0ae1c8U, 0xbe74f6b7bdd75bf0U,
  0xbe59d2223f8be08fU, 0x3fc24c743f88fe2aU, 0x3d0c71b93f052378U, 0xbf3d125bbdf74954U,
  0x3db50d853fb0f63fU, 0x3e233382bdecf257U, 0xbebf93cbbe9e4a8fU, 0xbfd3cb8f3ea7d382U,
  0xbf03e10e3d392fe5U, 0x3ef40c4f3d1ea26bU, 0xbfff83db3d1f4635U, 0x3fd06fca3f500748U,
  0xbd99099d3dff0fa0U, 0xbec128893ddbdf28U, 0xbf1f9bacbeaaf4e3U, 0xbf4c4a693e80cbd0U,
  0x3f208a66bee239fbU, 0x3f834eacbfec7b20U, 0xbfb2aa833f856d8fU, 0xbf3303acbf98e895U,
  0xbdbd015d3c6124f9U, 0xbb84b1a9bef78b36U, 0x3ea1200fbf4319dbU, 0xc00996e83f6364a3U,
  0x3d90cc523fcd4f11U, 0x3eba5f823ecf1118U, 0xbf559a233f8dfdbfU, 0x3d72cac8beb5050dU,
  0x3fbc3566bee6bfd7U, 0xbe974058bef6916eU, 0xbe90bd4f3f1149a9U, 0xbed8568fbea0078eU,
  0x3fc8a2d63f3f18edU, 0x3ee3c7afbe0f8f09U, 0x3f6b073fbc59f304U, 0x3f6d3d803f8ed9c2U,
  0xbebce380bed0c098U, 0xbd4c1c97bf931c03U, 0x3f8bf38abf3e2f42U, 0xbf30b5023e7c26f9U,
  0x3edb445bbf990262U, 0xbf8abbb7bf437e56U, 0xbf9d9fe9bf9c0c3cU, 0x3e0a534bbf9c6089U,
  0x3f2e793cbf28af44U, 0xbf159c32bf5ea2f8U, 0x3f2518623f1918a6U, 0xbfb1a1093cde63eaU,
  0x3fcd3a693ee45f93U, 0x3fab70ccbf58a16aU, 0xbdd934a4be478186U, 0xbcbfa1413e0ab101U,
  0xbe9c92d53f5d312bU, 0x3fb0f3ffbf1fe0a7U, 0x3f0abc353e5dccebU, 0xbfef5e473eeee433U,
  0x3f8e5648bfcc6900U, 0xbf37c5863fd0b83aU, 0x3f0a88f6bfbf8eb3U, 0xbfaf90ddbff7bd54U,
  0xbf8dade93d23344eU, 0x3fb9f4013e8af80eU, 0xbdfac4be3f5131e6U, 0x3c621ce9beca66e1U,
  0x3e84edaabdeab2faU, 0x3e3310adbde4507eU, 0xbf5d910ebf1f3881U, 0xbf32390d3dfa5002U,
  0xba85f709bf33fc1eU, 0x3fa43facbf08285fU, 0xbfa4a76c3f8c252fU, 0x3e3f3f04be6d7d3fU,
  0xbfb2bd89be40c4adU, 0x3f34857e3d1e5e77U, 0xbf188c4ebf830488U, 0xbf2b7dcdbf845810U,
  0x3ef18a1ebf427108U, 0xbf3af3d43db55c44U, 0x3f3cf721bf0342cfU, 0x3eecf2c03e698e50U,
  0xbe900e023ee8b7e8U, 0x3f92bb2d3f96732cU, 0x3f3e57d0bf017464U, 0xbf7cd56bbeccc3dfU,
  0x3d1e953b3f9ca0ecU, 0x3fbfcaff3fc5b38eU, 0xbf8408e83fcfc407U, 0xbef300cabf39061aU,
  0x3e1d65c6bed72256U, 0x3e4187cfbfaecd0dU, 0xbef5f0f3be67a801U, 0xbef1f52c3d158fb1U,
  0x3f399610be511bf4U, 0xbb86a6613e9c33d5U, 0xbd8130293fd0f9f0U, 0x3f9bfdf83ec743daU,
  0x3e8351ac3fa28ae8U, 0x3f5766163e18328aU, 0xc0043b2bbead5abdU, 0xbf9cab20bf446bfbU,
  0xbdf8ee19be38ececU, 0xbf177908bf1450c9U, 0xbf84b2dcbf32e18aU, 0xbf2e263bbfc04b82U,
  0xbcd18170beb4fa8aU, 0xbf44d91abf7a94e3U, 0xbde355d73f4c57ebU, 0xbf3ec10a3e3bc53dU,
  0x3d5a09543dac54b8U, 0x3ede1848bf3e5b86U, 0x3e830ba43e775a4fU, 0x3f28758c3f189fb3U,
  0xbe19b5663e019974U, 0x3d6aaed2bf7370b7U, 0x3f8b9be93f9b7761U, 0x3f81f90c3f7caf98U,
  0x3f879313c005dc89U, 0x3f6ac2523f35dd5bU, 0x3dff2fe63ecf0f68U, 0x3ffc14d5bf87b88eU,
  0xbf2fd9743f4614b4U, 0x3e6ae4b0bd9ca885U, 0x3e10abc73e3630c4U, 0xbdb3992abdf9b460U,
  0xbf667d5fbef3adb1U, 0xbd1123323e7a8388U, 0xbdc2a9b4bf28f92eU, 0xbe7e9caabebcd0feU,
  0x3f5b20e1be95caf3U, 0x3f8c3b3fbf2ba70dU, 0x3f6a2dc83f82a9daU, 0xbf810583bf1e9139U,
  0x401713c8bf92bbe0U, 0xbf643e233f2317c0U, 0xbf1e82e6bf4b76f9U, 0xbdebd209beef0deaU,
  0x3de66ca43ec3d2c0U, 0x3ced28adbf8294eeU, 0xbe9197353f44e846U, 0x3dcb7bb73ec6e22bU,
  0x3d18bf2e3e9a1afeU, 0x3ef1f862bf555791U, 0x3d341d5b3e5f8e24U, 0x3efdc7433f481d00U,
  0xbd5ac046bf8e7c16U, 0x3eba211b3ee8e359U, 0xbe8b608f3f4ea824U, 0xbf42cef9bf0620e4U,
  0xbf7c2c65bd6f401cU, 0xbf3739fbbf2a5831U, 0xbe88932b3fedba32U, 0x3f600bc03d8b52c0U,
  0xbf2f995bbddb3fb4U, 0x3e2c48c1be6eccbbU, 0xbeecafb73f0b5810U, 0xbf11b55fbe05a363U,
  0x3f1da8c33f07f266U, 0xbf042d923dd8f605U, 0x3ec0d9893e7b7e62U, 0xbf4a96bdbf37b6e7U,
  0x3f878abdbf38d717U, 0xbd88f07f3e210cb8U, 0xbecf0ad43f9616c3U, 0xbed0637dbf74ceffU,
  0xbd630bd3be96ed1dU, 0xbf9df0a73e12292fU, 0xbe84abb3bfe8d2d7U, 0xbe1f21143ec549dcU,
  0xbd1bc2f43e87e8efU, 0x3f47245f3f22cfb4U, 0xbf018662be0521cbU, 0x3e9604013ee7addbU,
  0xbe670055bfdf82faU, 0xbdbe9e90bf9febc1U, 0x3de20feb3f0ef2f7U, 0x3fb705e83fecf65aU,
  0xbf2cc33ebf6597b7U, 0x3dbd6e46bd1be0c0U, 0x3f74eaf83fae99d8U, 0x3f2c6494bf8f9cd1U,
  0xbc05bdec3f1cceeaU, 0xbf21e160be8c6883U, 0x3e2bee7dbe0d5660U, 0x3f70fef8bed41bb3U,
  0xbf20c0d53e8a620eU, 0x3e0208dfbe6843f4U, 0x3ebcc8fbbf854b44U, 0x3f86acbcbf748961U,
  0xbf0983533c268f03U, 0x3f316deb3ea67766U, 0x3f3fb925bf39b724U, 0x3f79b48b3e3adfbeU,
  0x40046eb4bf5a0a74U, 0xbd46f6f83d3e43d4U, 0xbee8c87dbe93c9e6U, 0x3edf6a05bea6cf7cU,
  0x3ef09673bf1edba7U, 0x3ec7e9e6be5d2d97U, 0xbfce593dbf522e02U, 0x3e6ae7babe8be132U,
  0xbf1432583eb334c1U, 0x3f9138b6bdbe9235U, 0x3f3cdddf3f026fa2U, 0xbfcdda95bd4c764fU,
  0xbe6bcdde401e6231U, 0xbfaae053bedf5245U, 0xbe889e033f5473b4U, 0x3e3da7c5bf71d9c4U,
  0x3eb86496bee85402U, 0xbf3f1886bf8828bbU, 0xbe2b9c43400b0d63U, 0xbf2baf04be3fa061U,
  0xbe0dae213de90b5dU, 0xbf23f247bea6b1f9U, 0xbf10026d3f480f99U, 0x3e7595433d897948U,
  0xbd3fb60c3eb60da1U, 0x3f94476bbd2c1900U, 0xbfae78873dc68c7bU, 0x3caa5bf8bf816d37U,
  0x3f1a98bdc01ef563U, 0xbf4561f23eaa97beU, 0xbda8f5223f7c8d85U, 0xbfb6927bbfd22a03U,
  0x3f3108a0be2436e2U, 0xbfb024ed3cfbdd75U, 0x3f6ec9ebbf0de8dfU, 0xbea28e0d3f039fe7U,
  0xbe1703893f15b0bcU, 0x3f4c74ed3f1c615dU, 0xbf1c58a23eb5256fU, 0x3edc2b2f3e80f5aeU,
  0x3dbf377dbf31def3U, 0xbe99bf94be3332c8U, 0xbd4611893f0831cbU, 0x3f027c323f19f76fU,
  0xbf2ba45dbfa70dfdU, 0x3eb154a83f9cb0efU, 0x3f59c6f03e9cb306U, 0x3f12a8d2bfa63bc1U,
  0xbeb00de03fd1f91bU, 0xbfd367233e8deb74U, 0x3f7c4e593dc0f93dU, 0x3f06bebebf71c007U,
  0xbf2149eb3cb6fc89U, 0xbedbd9b53e877a32U, 0x3db130ebbf01fe87U, 0xbf35892ebf0deb64U,
  0xbf657b79bee27be8U, 0x3fd8deb53eff4ad4U, 0xbed6e6b93fb95d2eU, 0xbee6db9f3f0ebb6dU,
  0x3ef6fbb33e93c5abU, 0xbea6df683f78904bU, 0xbfdce2e0bf37cdd6U, 0xbfbbcd973d127ac0U,
  0x3f856d88bef160ceU, 0x3fa6f7cdbf2a254bU, 0xbf23bf793fae796cU, 0x3f0f00803f45d885U,
  0xbe198f653e9eec46U, 0xbdcc697dbf8a156dU, 0x3ee44c7b3df55a64U, 0xbf83ce6b3cdd10bdU,
  0x3e0abadb3f021c44U, 0x3ef0c2773f8499d3U, 0xbf2121b23fb2a6f1U, 0xbeb1d875bede48d9U,
  0xbf30fa62be4ba5f1U, 0xbf3d3c02bfbca95eU, 0x3e0323b23d012dcbU, 0xbef0b4903ea35e18U,
  0xbe9515c13e1aa638U, 0x3f17dfb3be11766fU, 0xbf0764d83f26de4dU, 0x3eecb3e73e853627U,
  0x3e923529be3cb94bU, 0xbe9a00b0becb471fU, 0x3fbae0f03edbf457U, 0xbed7097abf710995U,
  0x3f3aea423f0b6eeeU, 0xbf52fab83f519b4eU, 0xbef450c03f835e96U, 0xbf784229bfe3f1a7U,
  0x3eead8453c717ee7U, 0xc007881a3df8b5caU, 0xbda7fe55bed00466U, 0x3f3dfc5e3f6bb00dU,
  0x3ff4fe633e92e7d7U, 0x3f2da0fabfbefbc9U, 0x3f246fbd3ee3ef0fU, 0x3f7132b13f3eda7cU,
  0x3d8c1133400a52eaU, 0x3fb77c3d3f850560U, 0x3df932703ec2ff38U, 0xbfd94386bed96fa4U,
  0x3f30f5d2bf98b029U, 0x3f21652a3e8ef973U, 0x3fbb7a05bfaca6a8U, 0x3f3dcc9dbe93bb34U,
  0xbdfb2912bf96f77aU, 0x3e9cac66bf602843U, 0x3e9c2dc53ea963f9U, 0xbd9f33a9bf8a7d78U,
  0xbf47c173be999a43U, 0xbe76487bbcc40063U, 0x3f02d5e33ee1eb26U, 0x3ff7e5443dde8278U,
  0x3ed04196be620ad5U, 0xbfce306cbe86e9efU, 0x3f6fcf7c3f68aaa9U, 0xbef2be4ebe995903U,
  0x3f0c99b3bf6274b6U, 0xbed9f7b43d02c5feU, 0xbf709c52bf2051c9U, 0x3f4cd229bf161c60U,
  0x3df2cb7e3f29c83dU, 0x3f9c05bebf3f764cU, 0x3f7f9f01bfaac4e6U, 0x3cbc32b43fa31f6dU,
  0x3fb0f83f3ef819f1U, 0x3e2547eb3fb1f78eU, 0xbf0f7b15be0693f1U, 0x3f88d59b3e9a24edU,
  0x3f02ddddbf779a94U, 0x3e34a36e3f5fecefU, 0x3f8b33583f19a355U, 0xbf1549493e8487eaU,
  0xbf9392c63f2d0ecbU, 0xbf720961be7a630bU, 0x3f76f06abf4fa3b8U, 0x3ed3aca73de9b9daU,
  0xbfa425b43e5501aaU, 0xbf06cbe7bd817491U, 0xbfa5d7debe9cc8c5U, 0x3f1ba3673dfc0651U,
  0x3f4afe323dcf4958U, 0xbc8c7007be743313U, 0xbf5877873fa630fbU, 0x3eb8c5f1bec1e33cU,
  0x3ead2c2ebf83eb2cU, 0x3e4a4dc23eec24caU, 0x3e83cb013faa15e8U, 0x3ee2e0783ed96e44U,
  0xbf311144bde49288U, 0x3dae10323f856f2bU, 0xbf6b5b613f9235c7U, 0x3e5d5e73be828d29U,
  0xbea921cc3d9a5124U, 0xbea240f93e439baeU, 0x3e77ae493b45a597U, 0xbcd7a8413cbdc718U,
  0xbd3342743e0a9f8eU, 0xbdcb45f8bd9a4845U, 0xbee5be9fbe599751U, 0xbf41945abe67ed5bU,
  0x3e4245cfbe14e995U, 0x3ec299e33e9fa71cU, 0x3e55100e3e3e896fU, 0xbdd9443d3ddeec09U,
  0x3e300decbe9c3ec0U, 0xbc59083bbdcc1c9cU, 0xbe136c7e3a9981a1U, 0xbe023ce23d814f24U,
  0xbddc36cd3cbe16a4U, 0x3d546e7f3d8f7c09U, 0xbea1bff03c9ea901U, 0x3eb8814a3d13af00U,
  0xbeaa293bbbc90365U, 0xbe97aa82bdd0fe17U, 0x3ea4caba3ec59c3eU, 0x3e66b65abe593e88U,
  0xbe0fa3b0be93ad88U, 0x3d63956a3bc737feU, 0x3dbd91b3bedf9efeU, 0xbc9472e33dab846aU,
  0xbd7eb09b3edcee88U, 0xbf10a70ebe6db2bcU, 0xbef8f2313e7ba59bU, 0xbe44936cbc193917U,
  0xbdc9e66fbd37b495U, 0x3d1d3c57be1343f2U, 0x3e269a6f3d968a44U, 0xbe750ee13e80785aU,
  0xbe3fb7623ea2bab4U, 0x3d5c41103de4a5ceU, 0x3f7688f2be4951f1U, 0xbe9de59abea3ea28U,
  0xbd07f4d9be728586U, 0x3ea9526ebf0a80c7U, 0xbe9553683dd974f4U, 0x3e098ec03e6b78ddU,
  0x3e3eafbabd87e42cU, 0x3e4a14693db40801U, 0x3e6cccb6bd9a49dcU, 0xbe0967c23e04f55fU,
  0x3d432adcbdf91458U, 0x3e2b430abcf270fcU, 0xbee9225ebdf3e94eU, 0xbea285b43cd675d3U,
  0x3c88e34ebe78ed89U, 0xbe0da608bd619651U, 0xbdc0e6cdbc1338c4U, 0x3e04adcd3e991b2dU,
  0xbc784415bde13981U, 0xbf12c5cebe298298U, 0xbdec4224bce73f30U, 0x3f674d9fbd4283a3U,
  0xbf6f96963f951cacU, 0xbf37b4f8be0f41b6U, 0x3e1ac5ce3eecc362U, 0xbea21903bf24eeecU,
  0x3f1c4ae1bf069c52U, 0x3ed6ab5140024ee1U, 0xbe5a6bc7bf7148baU, 0xbfdf8e81bff1d0e9U,
  0xbf08acb33ebc1263U, 0x3d99dd17bf8b309fU, 0x3d0bfc1bbc481170U, 0xbf0206763ebe50d7U,
  0x3e312b8a3d9f3dd4U, 0x3e3a92d43f1c6c58U, 0xbef5b396be6a5bbfU, 0x3df0eb04bece62e8U,
  0x3f24c1cd3f507328U, 0xbe9f5594bebe9e26U, 0x3e2b3eb5bd2a3ef1U, 0xbfa4b9453f171d00U,
  0xbe72c901bcbbaa65U, 0x3e8c86b0be3d55adU, 0xbef4df0dbfe9f530U, 0x3f59a88d3fa63b45U,
  0xbf27f5a33fac52c0U, 0x3f3c1254be82508dU, 0xbf6ffa5e3d5f0dd7U, 0x3f5d05643f3f3c0bU,
  0x3ef7a8cb3f5a745fU, 0xbe52fb2c3fa9f63eU, 0x3f01d604be61f129U, 0x3dc241643e788f07U,
  0x3f835409beae5f65U, 0xbfe33509bdff5c5cU, 0xbef8cb01bf1d0b37U, 0xbe35c6c4beb2f6b8U,
  0x3d26e9593fb36719U, 0x3dd0947c3f6e82b4U, 0xbfb8b629bf09137eU, 0xbe08545bbf1852dcU,
  0x3f990cc73d66c711U, 0x3f03b22bbf0de2f2U, 0x3def36b2bf827839U, 0xbf2605f6bee2a3e5U,
  0x3f7804143f1a8ecdU, 0xbe4ab63c3e81c2aeU, 0x3ed84128beba99ecU, 0xbe282fb4be446ffeU,
  0xbe822a63bf53499aU, 0xbf0d685cbf804831U, 0x3f0ec6e23eb4ea06U, 0xbd8152683f38bad2U,
  0x3d322d0dbe57250dU, 0xbf573815be48644aU, 0xbed086363f5307deU, 0x3ee2157d3e861378U,
  0x3f1a53613eff006aU, 0x3fad61bdbeeb3977U, 0xbebf4a023f89b024U, 0x3f08d531bec93910U,
  0xbf8c650c3ddecb0dU, 0xbf6dac1fbf15d24fU, 0xbe881cb93e680f0aU, 0x3da696c9be2edf8bU,
  0x3ec13f133db2a91bU, 0xbe7688093ec7557eU, 0x3ec4b954bfaebb22U, 0xbf30ec36bf5f83b9U,
  0xbd73803abf890acaU, 0x3e3a212cbeba1dcbU, 0x3e259d403d597f96U, 0x3fa888c53ef0058dU,
  0xbe85892f3e1b0ce9U, 0xbda7b4943e70b62bU, 0x3dc65657bebb4af0U, 0xbf683a67becdbc5cU,
  0x3e3062983fdcdb6cU, 0xbf0edd923ec10c96U, 0x3f2bd9983f8ba1a8U, 0xbb8413c13f756e5aU,
  0x3fcb1e80bf184f60U, 0xbf36596b3e8827deU, 0x3fc1cd5abf3f966bU, 0xbf77ed573f392a23U,
  0xbe44eac13eb9f2f3U, 0x3f0ca11a3cfc1b33U, 0xbeef7f8abe7deaf6U, 0x3f1d6f9a3fb6006aU,
  0xbeaf6ba13f9001c1U, 0x3e5107d33fcc1822U, 0x3db52c2e3f614a4fU, 0x3f29beb93e621a95U,
  0x3ebc5c0cbe2711c2U, 0xbf80ecf63f0bedb2U, 0xbf4a61e9be0c1147U, 0x3ef0b2023f319a14U,
  0x3f67c8023f80178eU, 0x3ee025293fbdb6ceU, 0xbe6eae75bf0dfa17U, 0x3f1bcab83f557ffdU,
  0xbf1e0a3e3f88aae7U, 0xbe012b2a3f0050b8U, 0x3ef4a5363f8a888dU, 0x3d85de013d6be1fbU,
  0xbf53c522be71ed8fU, 0x3f64681f3f025fcfU, 0xbe97414ebf4f5078U, 0xbf1cd402bf6f65a0U,
  0xbead2260bf3bb08fU, 0xbee0907abdd1ebc9U, 0x3e5fe98a3f6b65e9U, 0x3d7aa242be557960U,
  0x3e2a44aabe082023U, 0x3f0a4f1a3f1db9e7U, 0x3f47e7e83fa9a0fdU, 0x3f1173a53fa4844bU,
  0xbe808e453f3ee2b6U, 0x3e7c27063f318bb5U, 0xbfba8adabf0f0e34U, 0x3f89149abed6348dU,
  0x3f96b0f93f835f5dU, 0xbe2defdebf531e96U, 0x3fbd680e3f034895U, 0xbd949398bf2e617aU,
  0x3f3a07e53f23374fU, 0x3fb64305bf2f5919U, 0x3e19f39b3d695445U, 0x3c3628493e6f6348U,
  0x3f315a963eb3229fU, 0xbe75e8efbe98f81dU, 0x3f7e1f2ebe683460U, 0xbe371d22bd012156U,
  0xbe1b14f1bf9b215dU, 0x3f5384eebee1b2a2U, 0xbf0cf6e03e2ebcccU, 0xbe4dec6c3ea5ae85U,
  0x3e557adabd466599U, 0x3dfa44a6bef62b6cU, 0x3f9ce2e2bd684625U, 0x3f3a1ba6be1d7617U,
  0x3f2e0232bef6e8caU, 0xbebd5f6ebebc8e33U, 0x3f059d29beadce91U, 0xbc869e513faef159U,
  0x3eae85183f59a94aU, 0xbf075d61be91d1a9U, 0xbf6b221c3e7e46d0U, 0xbf1c5a9bbf630eeaU,
  0xbe963971be89f2e6U, 0x3f4acc3f3f4d6abfU, 0x3f1de39cbfc18d8eU, 0x3f77ab903ddf9e0cU,
  0xbe89787abf1b88d8U, 0xbf71bce53f733a47U, 0xbef8fee6bf0550ceU, 0x3fab004bbf6264bbU,
  0x3ec6af263ed8ede2U, 0x3f4c3a6b3f1a05d3U, 0x3e7d5c61beceec90U, 0x3f132c63be955f6bU,
  0x3ee3a7633f985f27U, 0xbf5c88543eba77b6U, 0x3eb7e15bbfc557d6U, 0x3e72b19ebe5a079fU,
  0x3e8565c03f0cf466U, 0x3debf0443d27bab9U, 0xbcc47693bf4e222aU, 0xbff73816bf8632f8U,
  0xbe20ce1fbfbbc1bdU, 0xbca2bc40bee9581eU, 0xbf7248fdbe29de93U, 0xbf1400c7bf351d7cU,
  0x3e40a4323f2e994fU, 0x3f8a7ccabf93d41aU, 0xbf0751253fc4eb1aU, 0xbe9d6f403e8f5ce3U,
  0x3f2b40963f509a9dU, 0x3e77a8b03de8f20cU, 0x3e07f5d1bf60f781U, 0x3ededbe3bf1d0bc1U,
  0x3eb8d9453f72f9bcU, 0x3f762238400f7981U, 0xbf754f3bbee3f0e6U, 0xbdd25e803f5e30e6U,
  0x3ea387663f2da5f2U, 0xbfb71fa33ee0ac76U, 0xbf7775783eb366d0U, 0x3df6b78cc02d0061U,
  0xbf2f7c01bf9c01f4U, 0xbefa00cf3dfb9cd7U, 0xbf98e2f4bf91f0e0U, 0xbf9d13bbbe7cb148U,
  0xbe06836a3ed64b05U, 0xc056e47ebe8966d8U, 0xbd17daf83db16221U, 0x3f4fa5b8bebc5799U,
  0x3e76e607bf4ff545U, 0x3eb401d4bea15ab2U, 0xbd914b01bdb93dc6U, 0xbec96f92bec3463eU,
  0xbf64ac33bd805afbU, 0x3f06f7fe3d918e56U, 0xbeed33e83f4c9d1aU, 0x3f585e4b3f0a1e53U,
  0xc008859abe2caf4bU, 0x3e133155bd0c3651U, 0x3f5f2f983e0730c8U, 0x3e96f48cbc3986baU,
  0x3c92ebc8bde84d87U, 0xbf6399cd3f82f2eeU, 0x3f7f7136bf14506fU, 0x3f2675a33f6761a2U,
  0x3e16ba19bc93db60U, 0x3ec17e9dbed14b1eU, 0xbe0b420a3eb3e35dU, 0x3e51abf7bf0dba84U,
  0x3cb34991bfd97ecbU, 0xbf3aa07a3e651d6fU, 0xbe07969c3b1cc9a5U, 0x3e80eb9cbf488476U,
  0x3e961d20bf6b2ddfU, 0xbf1fbf71bfb149e4U, 0xbca8d00cbf99ab20U, 0xbf33d5cbbe2fc450U,
  0xbd428134beb08ebeU, 0x3e708f1f3e3ee308U, 0xbf1b17513f9887f7U, 0x3fa85b683fb66403U,
  0x3ed2c0f9bda9b7a4U, 0x3f429e38bd98a2e1U, 0xbf946213be3de6acU, 0xbf4ae631bec142b2U,
  0x3e3d3c7d3f8c73abU, 0xbec109863ea3c06cU, 0xbd131803bf02eddcU, 0xbf56c2e1bfa385feU,
  0x3ec959bcbbfc5ac5U, 0xbf50dbe8be78c1dbU, 0x3e9c79f7bd83ae7cU, 0xbf73464dbb82a12eU,
  0xc02340a7bde1fe60U, 0x3f2ac9e03d0f4d70U, 0xbe2a75d1be69fbaaU, 0xbe493ff8bf6f8e7dU,
  0x3d703b47bf8182bcU, 0x3f18fd7540016196U, 0xbf460dbabdac708bU, 0xbf0c77523fedbbf4U,
  0xbd8098b13dc17419U, 0xbea2a3b5be0b3607U, 0xbdd9cf7b3f7143beU, 0x3ecba6fd3ed1cae5U,
  0x3dccc60ebded630bU, 0xbfa091da3d01e1faU, 0xbf1305c93def3d51U, 0xbbdfab6f3f484928U,
  0x3e2c79e0bf4ecc02U, 0x3f29ffb6bfa00270U, 0xbfb0a62bbed6fa1dU, 0xbfbd41ebbed0b09bU,
  0x3f575b4a3f2cddf3U, 0x3fe4388cbf21e31eU, 0xbdd37a183d82e0f1U, 0x3f41e0313f0dc946U,
  0x3f0076fabf85d367U, 0x3f3d7a833de623e9U, 0xbf92f7dabe9ad24cU, 0xbf2cc182be460d90U,
  0xbde7194abe340ec8U, 0xbe636dd8bf11322eU, 0xbf8fcb913e08d452U, 0x3edbb9a3bf1a97e6U,
  0xbcb7dc853eaa3a72U, 0x3fa500eabcf195ddU, 0x3f6676cfbdd550ddU, 0x3e414154bf380cebU,
  0xbd29d689bf844dd7U, 0x3dbfdf623f103dd6U, 0xbf6a55c43f6db000U, 0xbe3e93513eb97f8bU,
  0x3f6fdb7cbf448ce3U, 0x3eccd1a4be89fe1dU, 0x3c4223923f15ff92U, 0xbf1f90b2be8acd2dU,
  0x3f57c5ee3f33d9ddU, 0x3ea417a5bd29742bU, 0xbe2efdfa3f0c60c1U, 0x3dae55a33f6ba04fU,
  0xbe003f383e93a8c2U, 0x3f5c78d6bef553e1U, 0xbf53c2723ec18c30U, 0xbd4885493fa94fa1U,
  0x3bf68b513f20266cU, 0xbf5e0b4abea21dc1U, 0xbebe455abf278c1aU, 0xbef31ff4bf3a14f3U,
  0x3f913dbfbdf90b2dU, 0x3f29d09bbf9d07deU, 0x3ed37a6ebea263b6U, 0x3d64a796bd0d423eU,
  0x3ecddd2dbe200d4fU, 0x3e2a4af03ca5200bU, 0xbe3c0fdc3db79eabU, 0xbda62dedbe4909f1U,
  0x3cdf8a093d93f1cbU, 0x3e1e4a3e3d5895c4U, 0x3e7bac143ec63c57U, 0xbe8b20183dc40d28U,
  0xbee2b035bf3af2e3U, 0xbde8ebf5bdd4a330U, 0xbe444d903ebea4daU, 0xbe932e213ef8aa8cU,
  0x3d9353783dc4af5eU, 0x3f1d35a83f13d80bU, 0xbeff96e0be05e77bU, 0x3ec83f243ee12361U,
  0xbe57d29abed5cbd3U, 0x3e09ebc4be15ec6eU, 0x3e765e5cbeede2a0U, 0xbe765688beb99a67U,
  0xbc1394a7bde1ccdcU, 0x3e0edf843db123d5U, 0x3eb8a9dcbf32f554U, 0x3ecb2f903e09818dU,
  0xbd460460bda62fbbU, 0xbe0821003ea3823dU, 0x3f2931febda5f1b7U, 0x3f8918fdbf399711U,
  0x3de016acbea43f34U, 0x3ee1a970bd575d73U, 0x3f2c2b743d6c58c7U, 0xbe02d8f6be0c60f9U,
  0x3e2355b13d99bbd1U, 0x3e86e0aebed1e834U, 0x3e835bf73df8e81fU, 0xbe8c4dd4be86747bU,
  0xbe91792fbf240aaaU, 0xbd549e09be4b4ac3U, 0x3f1f0671bd0f57faU, 0x3ed049fd3d158f3cU,
  0x3c6dd8413d1aeb38U, 0x3c88b274be610ca7U, 0xbe24b93bbf5f13abU, 0xbe60a778be8077e5U,
  0x3e98fd523ead4612U, 0xbebc413cbeb7eb9aU, 0xbe04b82f3e00d3aaU, 0xbf0274f03e01c895U,
  0xbe143d36bcef852eU, 0x3e5ca7a53ea34897U, 0x3f24dff13d1528b6U, 0x3e56885e3e1ee1f8U,
  0xbe48e0bcbe97c343U, 0x3e0381f2bf145c5eU, 0xbe5e94b43f625d30U, 0x3dd28d13bee7859eU,
  0x3e22e4d4bd610c77U, 0xbdd17a5ebe089ddeU, 0xbda47e963ce50d2fU, 0xbed324673d722d59U,
  0xbf2397a3bf4ae006U, 0xbc855d07bf8640f8U, 0x3f3685e33e63d036U, 0x3e5fb4babf56672dU,
  0x3d59edf73d0ecbcaU, 0x3f1d4f343fb3214bU, 0xbdc5d6f2be9f1dabU, 0x3d399cff3f1b058dU,
  0x3d9efe3bbf3bff34U, 0x3eab7cb93f286c86U, 0xbeee2352bee3b9fcU, 0x3dd7dccdbf7eaca1U,
  0x3e669b09bf87a38fU, 0x3fd06aef3e8ca914U, 0xbf2346243dc3f7beU, 0xbf451d613f2f8b1dU,
  0xbf13d6813d2b4f50U, 0x3e39f818bef58d34U, 0xbe504f303f1a20abU, 0x3e2e8d42bebebf85U,
  0x3f9fd2e6be6c0dd2U, 0x3fd4392abef56f18U, 0x3ecb43404006e35cU, 0xbf3a9145bd727e4bU,
  0x3ef268a5bf476571U, 0xbe866d803f85fd8aU, 0xbf7cd2d2be8dc790U, 0xbf2901333eea2d4aU,
  0xbdaa0b063e8e40ffU, 0xbf00ead43f9189f3U, 0xbf373a99be0a780fU, 0xbd8f130bbe47d7c0U,
  0x3d9bd0963e876c75U, 0xbf9241d83f7a98dfU, 0x3d6db2683dbef87cU, 0xbeb4fccfbedc7bd9U,
  0x3ea75923bea7a9bfU, 0x3f11226f3f25a348U, 0xbf5df96d3f0c8843U, 0xbf702ea93fb87f22U,
  0xbe7fee9fbf47318fU, 0x3f20c970bd9c03a9U, 0x3ed50e383fd530ecU, 0x3e03302e3f507f0dU,
  0x3e2d01533f262ce3U, 0x3f11414abe7f8503U, 0xbed2793e3e547435U, 0x3f86c526bee57f39U,
  0x3e8b39003f72172bU, 0x3f04ba1a3cb9743bU, 0x3ff395653f8369aaU, 0x3ed8c507bf0cddc8U,
  0x3ed74df53fa8f501U, 0xbef47d16beb808fcU, 0xbe2ca27cbf8603d4U, 0x3eaa25523f32a524U,
  0x3ee720f8bd81f789U, 0xbfd076bdbee7d9e7U, 0xbef657383ec4e0dfU, 0x3e77e6bebdf13ad0U,
  0x3f5d044abd844079U, 0x3e61a8f63f17454bU, 0x3c080d91be5228a9U, 0xbf622eef3d0a865bU,
  0x3eaeb9543e56ae3cU, 0xbf358d293f1ea5beU, 0x3e5a4c79bf07e256U, 0xbe6d16dbbfa8b59fU,
  0x3eb559dabdefdffaU, 0xbeff001abe48447eU, 0x3d172708bf240bdeU, 0xbf485055be89c032U,
  0xbcd8694b3e8c4b17U, 0x3ee204c5bd91344fU, 0xbe4b12db3efe4e7dU, 0xbe7b977bbea1581fU,
  0x3f275ee33ea24940U, 0x3f07dca23ecf490dU, 0xbf533e213f23e720U, 0xbe2f0bf33f227528U,
  0x3ed9bcd63f25e965U, 0xbf6878c3be4b6d31U, 0xbf859af73ee53608U, 0x3d394c6c3d1a0b4bU,
  0xbf2a1b9c3fc22348U, 0x3e179009bf6f0778U, 0x3e24e3843e09a171U, 0x3eba5f94bdcf0422U,
  0xbf63bed03eca4d07U, 0xbf521520bdb268b3U, 0x3f80724d3e5385ebU, 0xbe566e553e41db54U,
  0x3f0f7021be825cdcU, 0x3f03e181beade1d1U, 0xbe9d489b3e06470fU, 0x3f5a5bad3ee583f7U,
  0xbe0dcf833e8513feU, 0x3f25752abda0d243U, 0xbfa37cd43b85f5bfU, 0xbb790f62bf7286ceU,
  0x3ed42db1bea480beU, 0x3f83317ebe98517cU, 0xbf03d5b0bf9b3b1bU, 0x3ebe646dbeacdb7aU,
  0x3f8fe3c8bf823542U, 0xbfaf7cf13f2a9245U, 0x3f11a1df3ee4e76dU, 0x3f7d9ab43fbdc94bU,
  0x3e920de03e5277bfU, 0x3f36962f3f23a282U, 0xbf1243ecbeeb57ccU, 0xbef9fe133e411e0cU,
  0xbf795525bf180a3dU, 0xbeeb4b3dbe5a6ef0U, 0xbd2edfddbf53ff46U, 0x3e35c509bf2552deU,
  0xbf12da17beefdc72U, 0x3f378f0ebf15717fU, 0x3d8357033fcd7cffU, 0xbdd20596be7fb6fdU,
  0xbf315099bf03a373U, 0xbefc40d83eb8c58fU, 0xbf2205963e2a63ceU, 0x3e53a1553f4386e0U,
  0xbe0c3706bf325563U, 0xbee2ab71bf5815e2U, 0xbf3c8cb4bbcfdcb1U, 0x3f05e3e0bf9b17d4U,
  0x3ea08af9bfde4d00U, 0x3ecc404ebf3062faU, 0x3edbbb963f43ae5aU, 0x3f13b2123fbc2b8bU,
  0x3ebd16e9bedee0aeU, 0x3dd7757b3e4efb64U, 0x3ef73cb5bebf3b2dU, 0x3f1d2a4abd708388U,
  0xbf069f8abcf8ceddU, 0xbe9e969f3d8d491aU, 0xbf5ed561bdfafc1cU, 0x3f42c669be8cb227U,
  0xbf0256393d23bfc1U, 0x3f6d20273e6e7968U, 0xbf8328d0bf940511U, 0x3e40ec34bf015fb6U,
  0x3f8fa9bdbf65bc82U, 0xbf44f4223f76488dU, 0x3e6d08a2bf1fe788U, 0xbe4e77873eb62494U,
  0x3f8596a53d982c5cU, 0xbd1acfcfbf821377U, 0xbf6c09ffbf1896e4U, 0xbf3bf82bbe9677d5U,
  0x3ea10f1a3f07c13dU, 0x3e902f20bf070038U, 0x3efd55113f156000U, 0xbeafbc943f17c0daU,
  0xbda355283cc76b46U, 0xbecb70ebbf1aab16U, 0xbf4782b73f336ef7U, 0xbf2af8363ee7bc99U,
  0x3e588667bf459be2U, 0x3e7403233f1b1734U, 0x3d6e82cf3de64dd9U, 0xbe37747b3f4e3c11U,
  0xbed1a92e3f261473U, 0x3d85d74ebf2d50a8U, 0xbe9619e23f006380U, 0x3cacf44a3ebb4818U,
  0x3e9cd3fa3f60bf85U, 0xbf34506fbea68482U, 0x3f938dfb3f145575U, 0x3edc56523f779ca8U,
  0x3f1e2f5e3e2fabb4U, 0xbee47194be867f7dU, 0x3f009cebc00a1633U, 0x3ebf2570bf1d453bU,
  0x3eea6ad5bf26c30cU, 0x3f31de5a3ec4a28eU, 0xbe911a55bf8ed4f1U, 0xbf5459c83e97dff5U,
  0x3fead0bcbf92e448U, 0x3c902e4dbf348b4dU, 0x3e106cddbe9a5bd3U, 0xbe9f771fbfb34e91U,
  0xbf1f9edb3f588731U, 0x3d8f56b63f0924f6U, 0xbe82a55fbf372385U, 0xbe81966b3efbc292U,
  0x3fb070043ebab692U, 0xbf93a7883f9655c9U, 0xbf9af310bf9b1d34U, 0xc004d6d63fa09205U,
  0xbd39a6e7be8faaa8U, 0xbfc851873f30a7dcU, 0xbd017ed53f3a0224U, 0xbf19b30f3f5bdda9U,
  0x3f2499eb3f21dc01U, 0x3f01530b3ee3dd5aU, 0xbf782d6f3e8bf1e3U, 0xbd3b3e6ebd8ef90fU,
  0xbeb6216a3e2504f5U, 0x3ede55133f05c853U, 0x3fa1e0b93fa13e8bU, 0xbf713cb4bf02fb2cU,
  0xbfda681d3f73af0dU, 0xbf237dc1be8288b4U, 0xbf7c81723ef77009U, 0xbf9e7f183ece0c87U,
  0xbdfbad47bfac66e9U, 0xbf6603cc3f4db01fU, 0x3f647b754002e81dU, 0x3e766aa2bf9348eeU,
  0xbfa3ee3abe017143U, 0x3e1764723f583179U, 0x3bb51cb5bf1149efU, 0xbf52e5433c935034U,
  0xbdcd3c20bf68a5ccU, 0x3e951990bef84b83U, 0x3f4215ecbd82e858U, 0x3f6f04973f970ef8U,
  0xbdc833dfbe8fa750U, 0x3e484fa63fe6a9edU, 0xbdc55292bf3b24deU, 0xbb814adebe337290U,
  0x3f4b44743e5d1e2dU, 0x3f0896bc3e551a5fU, 0x3f4f59d1bf08f4a8U, 0x3e1ef002be9b547cU,
  0xbf15c7fe3f895731U, 0xbc16dac53f594aafU, 0x3fff1138bf4c087eU, 0xbf16e6803f05c877U,
  0xbf798d083f9a1a37U, 0x3ecb340bbe2c4a21U, 0xbf242fa5bfdd1cdcU, 0x3f316b6cbf0a3e5bU,
  0xbf15d7443efa707eU, 0x3f32550abe5dbec6U, 0xbe1aaddd3f44ade7U, 0x3f30f56cbdafcfcbU,
  0xbf0f1a6dbe7ff2eaU, 0xbf4fcd1ebca79fc3U, 0xbd2790243ef38a9fU, 0x3f17a3bf3f28d707U,
  0xbd995fedbe89e71eU, 0x3f54318abf6ee4a8U, 0x3f99016a3f14422bU, 0x3fada99ac00f0147U,
  0xbd43985dbf8ed4d4U, 0x3f1c3877bf6aca26U, 0x3f0cf7823ed1402aU, 0xbe7886723f28a3f5U,
  0x3ea5bb9d3f68b3a3U, 0xbfea3cb23dbb5c58U, 0x3d2a6bfbbf03a17dU, 0xbd0267c0bf116d67U,
  0xbebb41fc3f101a69U, 0xbeef2038bf27dc80U, 0x3e850d2c3da7b0ccU, 0x3f31982fbea4382cU,
  0x3d6c90c63f8193dbU, 0xbf251ca0bf185bc4U, 0xbf979597bfe4cdd4U, 0xbe8f9c4ebf082938U,
  0x3e083db1bf801e66U, 0x3f0f04023f0a0369U, 0xbf9a0e2b3d7eb5ebU, 0x4018f3c43f88059bU,
  0xbf0574933ed5bccbU, 0x3f0809dcbf6cebc9U, 0xbf8daadebf561a5bU, 0xbf821590bd841386U,
  0x3f49df353e0e774aU, 0x3e46fc19bf2b30f9U, 0xbed6b92dbe31c3e9U, 0xbfe16b3f3e8befd8U,
  0xbe85c004bfc83b4eU, 0xbf0e637bbf248752U, 0xbf81ac03be0f9c9cU, 0xbf84a0b6be9cdf94U,
  0xbd7f8a613f4bff7dU, 0xbcc143f83f433ff9U, 0x3efdbee63fadd6f0U, 0x3f11c624be890b7bU,
  0xbf5a361b3ef0289eU, 0xbf8af3c6bedfa539U, 0x3e7c9bbfbed369a7U, 0xbf9ab87bbe87a93cU,
  0xbcc338443ecb4686U, 0xbff782b6becf5960U, 0x402ea09c3ee98f04U, 0x3fa8e3663f756f63U,
  0xbdaf0931c04d4411U, 0x3e15958d3d0e73aaU, 0x3ecbf7fdc00b2cc9U, 0x3f4dc259bfb58e2aU,
  0xbea18858bfa03136U, 0x3ea018e93f942d16U, 0xbd5e88e3bf28791bU, 0xbf41ab72bf56b725U,
  0x3eac605abe97b0cbU, 0x3ec1fbfbbf8af974U, 0x3e4099c3beef394bU, 0x3dd6b8913f00a844U,
  0xbe982f603e5a8f9dU, 0x3f1e83bbbfe40a4dU, 0x3ea4f3963f68a8a3U, 0x3eb154ea4041a307U,
  0xbf7756ecbf8f3802U, 0xbebe65aebea7f27cU, 0xbec981d23fb140c6U, 0xbe5ed4463faf607eU,
  0xbec813e83f04e54eU, 0xbf48e396bef884adU, 0x3ec49febbe1803ddU, 0x3f16d5843e03ab06U,
  0x3e7ca7b7bfbc72caU, 0x3cfde138be3a5535U, 0x3dbed28cbfc6bc7fU, 0xbf035099bf1069eeU,
  0xbf7a73d8be9f7dccU, 0xbee2ada33eaae5b4U, 0xbf7e226f3dbaa5baU, 0x3e8ce3fabd49a0e2U,
  0x3e29b392bf0ce8c8U, 0x3dec2fb23e877245U, 0x3fe756adbebba5baU, 0xbf8923a9bfc628ffU,
  0x3ec53bf6bfa7ed53U, 0xbeb249f33f3efa72U, 0x3e817c603e0cb5afU, 0x3f06869b3e3f51bdU,
  0xbf811fa03db82327U, 0x3fd2bb9fbee78063U, 0x3efb86fd3f330026U, 0x3f37a367bf2f42a9U,
  0xbf855636bf9d5563U, 0xbf33ff88bf6b4c4eU, 0x3ee5772dbf90336aU, 0x3fbfb6abbf9a1943U,
  0xbdc68ab43f16cb04U, 0xbf44889bbafe28f1U, 0xbf7db2323e62f7bbU, 0x3ce0dc96bf37e0d8U,
  0xbf1e2d0bbe8c6229U, 0x3efaaeca3c95cdedU, 0x3f0cd68dbef6d0b5U, 0x3f63aac6bfa5dc3bU,
  0xbf643682bf88af8bU, 0x3ef4035e3f121ec9U, 0xc0084a45bf9e29acU, 0xbf1843d33eeb9dd0U,
  0xbf50a57b3f207eb1U, 0x3ea990353e7f9320U, 0x3f1272b33f99cc8dU, 0xbf2bc025bf82da0aU,
  0xbed8f2b2be8311bcU, 0x3fd6db093f106fc5U, 0x3f0fd478be2e231cU, 0x3eafa6fabd7a7cdbU,
  0xbf6951073dcc9fe1U, 0xbf8817bcbfb94bf5U, 0x3e47a1c5bcf2ca41U, 0xbee837a7be4b8940U,
  0x3e2ace57bf73806cU, 0x3e8cdb1740340f12U, 0x3efb9cccbfc86928U, 0xbfdde2bdbfc6d580U,
  0xbf670c19bf0e60baU, 0x3e80e8a3bfe95408U, 0xbf44fac73f915068U, 0x3f6fdc1e3f0a9569U,
  0x3e6d525fbcbc32f2U, 0x3de491de3f3f86f5U, 0xbee2f4acbf538797U, 0xbf5c02183e313905U,
  0x3f4880f43ee71393U, 0xbf2cf804be545c25U, 0xbec38f633f7c939dU, 0xbf5b96c33f3749cdU,
  0x3fa46d2e3f060e4bU, 0x3f3c1d5bbd0fc4cdU, 0x3f0dfd57c00899aaU, 0x3e4c8c263f824946U,
  0xbe1414eb3ec87b5dU, 0x3f92081d3ed3d01dU, 0x3dc3b1a23b7ebc7cU, 0x3f01e5e63fd7ee6dU,
  0xbf2767bf3fa77b70U, 0xbeafb2243fb26c4aU, 0x3e611fb43f871142U, 0x3d44c63e3e211605U,
  0x3f9b3de6bdede34fU, 0xbe8d95883e8a1af5U, 0xbeb4105dbd607d65U, 0x3f48f597be972d70U,
  0x3e3e874a3fc3d7dbU, 0xbe77a92e3f79c7aeU, 0xbf93a1d9bf03322fU, 0x3ed37d4c3e3f2d29U,
  0x3f16d3473f04dcbdU, 0x3f3428973ec6c86bU, 0xbcd82b2dbf1e0a25U, 0xbbb5ad703cb88c89U,
  0x3e5518753d6116f9U, 0xbf5813c73ea0e86aU, 0x3e57f822bec99911U, 0xbe9b6745bf498a38U,
  0xbf166506bf3bda9eU, 0xbf1f193fbed5d0bfU, 0x3d8ec6983f63974fU, 0x3f6fc8153fdf63daU,
  0xbe32722c3efe72c8U, 0xbf3df5f13ed5c2deU, 0x3f733e6abf3acdb3U, 0x3f438f293f7d25f6U,
  0x3e5780ac3e0b4f16U, 0x401cf1dd3d95b6fbU, 0xbf324b093ed5cb62U, 0x3dded613bf633c5aU,
  0xbf262ad2bf3407c4U, 0x3ef09a53bfc82b1aU, 0xbc85a5da3e5da662U, 0x3f0187eb3e75d505U,
  0xbeca7724bde41efdU, 0x3f40077b3f4cf588U, 0x3f36dc1f3f4d1828U, 0xbe81c2dd3ed4bf91U,
  0xbeb3d7b8bf32b7a1U, 0x3f7244b83bd79975U, 0x3f4d1b393f4b3392U, 0x3f105ed6bfae143aU,
  0xbe3030f9bf736694U, 0x3f5dc9323f636565U, 0xbe93656a3d0a64b1U, 0xbf09ca993ed6d404U,
  0xbf3cc2bebe01f016U, 0xbea1f9eebc1d0145U, 0xbfba019ebde44e89U, 0xbda745be3e743eebU,
  0x3f31aa6c3f947cc5U, 0x3d91c938bf4676c9U, 0xbfbece2abfbdc168U, 0x3f22f079bf190b2bU,
  0xbf572f7ebf6a08a4U, 0x3ec14591be9f760fU, 0x3ee55b65bf3c0423U, 0x3fafe7203fa18390U,
  0xbee00ad43f53cfd0U, 0x3d8bcf91bf920845U, 0xbef46c723c395316U, 0xbf5464a93f1dd3ddU,
  0x3ec797313ed60fb2U, 0x3f762958bfb5a1c0U, 0x3cdce1813ead7c6eU, 0x3f4921ff3f762356U,
  0xbe982139bea0219fU, 0xbea59782bdb54053U, 0xbd412d2e3f900b2cU, 0xbf8797c73e3d5d72U,
  0xbf13b001bee59d4dU, 0x3f5cf3f5bd8644aeU, 0xbec14bf7be8694d6U, 0x3f2ac240bf970c9dU,
  0xbf8d500abf01a4d6U, 0x3e02dafabdfdd2dfU, 0x3d9dece53f98388bU, 0x3f186703bf82874aU,
  0x3f14d7743f7508bdU, 0xbf7f7d753eb207e8U, 0x3ec7fd603f47f861U, 0x3f0a96ad3f30c0d2U,
  0x3ca04fe4beb8c1ecU, 0x3ef49b733ebeaa0dU, 0x3ec239adbf827360U, 0x3e14f5da3f3e1e59U,
  0xbf917fafbfa54267U, 0xbf1898443e9a12deU, 0xbeed949abe40f439U, 0xbd022fcfbf1eb1daU,
  0x3ea7a2cabde05f67U, 0xbd2633d53dfd8867U, 0xbcdc5fff3c944e29U, 0x3d3c6b64bc997774U,
  0x3e0ad4b23d2d97fdU, 0xbc933c9c3e026328U, 0x3e8dbc283d9b2233U, 0xbea99fa0bcdde11dU,
  0xbd770322be6b897cU, 0x3d8e19263df0dcd6U, 0xbcc0a9813dd22290U, 0x3dbbd3fb3f06d47dU,
  0x3e7d54013d16ed11U, 0x3dcde0083ef7231bU, 0xbe4bb1b7be3d2360U, 0x3e87fd613e45527bU,
  0xbd840d8bbd7addf5U, 0xbe26a19c3e5643a8U, 0xbe73c8f7be0bbab0U, 0xbf0da6f3be4d093bU,
  0x3d96f06ebdf86cbfU, 0xbd72a1823cf1f963U, 0x3c7c9c0f3f02df61U, 0x3eecba8d3dffc2c0U,
  0x3d0d3ceebe0b3c36U, 0x3e4ac8a93e48486fU, 0x3e908983bd9742acU, 0x3eb52a02be8684adU,
  0x3d91b5f63cf20010U, 0x3ed41da3be6d0f49U, 0xbda97bef3daa8cd7U, 0xbd2842dfbac7fc88U,
  0xbddc119abe18dea8U, 0xbd19412a3e187aeaU, 0x3db97f9d3e584debU, 0x3e2dbb67bddd875cU,
  0xbda6a62dbebc9510U, 0xbe998e1f3d9ca2f5U, 0x3e9d1d6a3c9c8990U, 0x3d9fa661be79ac34U,
  0xbcb2e3723d8e89dcU, 0x3e9a47fcbe5cc295U, 0x3d0ea312be7a030eU, 0xbd238c753db89bd3U,
  0xbd4844b03e68c94cU, 0xbf04590b3c1fd54aU, 0xbe3d03e33dcbbdb1U, 0xbea653c0be07a993U,
  0xbdc9a7f2be5d7470U, 0xbdd42ca03e0472f9U, 0x3f03251abc9bbedcU, 0x3d7fdabf3e4b340fU,
  0xbdf2eeedbb9f21fbU, 0x3dca2292be99dd8aU, 0x3e5403ab3dfbba44U, 0x3e2a238e3dd2251fU,
  0xbe324d19bdccc5e2U, 0xbe8a5c44be293533U, 0xbe7bf6483e8b217aU, 0xbf199a87bdd891feU,
  0xbf181821bf5627ceU, 0xbef07c37bf91e840U, 0xbf358c3bbf0ec9bcU, 0x3e7a24a33e7239c5U,
  0xbee79fcabebae1d6U, 0x3e522f33bee2ac09U, 0xbcd4b9073f0f076bU, 0x3fd57ae13f86078bU,
  0xbf24a5d1bf600f85U, 0xbe288824bee22d2dU, 0xbf78a4a03fa46322U, 0x3f20b4703f612849U,
  0xbcbf3fedbf494175U, 0x3f7269e2bee36e56U, 0xbe38fd0bbf42bf49U, 0x3f06ed7a3f86d307U,
  0xbe8b29c7bf26c40bU, 0x3dfe0eaebe0d97baU, 0x3f227544bf10175dU, 0x3e5b2ab8bf1557acU,
  0xbf5be0f9be24fbdfU, 0xbe38b8833e3620e5U, 0x3ec485da3e826739U, 0xbe8cb29dbef38e37U,
  0x3f619d6fbf038f70U, 0xbe29b9463f3a9741U, 0x3fad93dbbe5da598U, 0xbf1be831bc3b228eU,
  0xbe02ae4fbf6af973U, 0xbe83b38fbe94fffcU, 0xbfb500493eb07b76U, 0xbe44720fbe264258U,
  0xbf2ca6cc3db76d9bU, 0xbc2ebc3bbf306d82U, 0x3e9fc9e33f8d179dU, 0xbf448fcbbf260ebdU,
  0xbf28c60abf7d7844U, 0xbfaddc21bf84715fU, 0x3e022e86bf91f73aU, 0x3f41480e3d855af5U,
  0xbeb8a2b63f275d4eU, 0x3dd87f223f4602acU, 0xbee4d5643fb5a287U, 0xbdd32bdcbf423808U,
  0xbfa66c11bd1610fcU, 0x3edc4d68be925281U, 0xbcf1d6babed26232U, 0xbf2d1687bfaa0cd7U,
  0xbe85232fbde3b5a6U, 0xbdb5bc033e8e138aU, 0x3f386a54bef52fd9U, 0x3e56bdc83f10fe4fU,
  0x3cd319f53fa645ceU, 0x3f64a5bb3ef539d5U, 0x3f8b21a83d2cbdc7U, 0xbe2708733f0f3857U,
  0xbc5cad75be098cc0U, 0x3e32219e3ef0f9adU, 0x3ed8f457bf1eedb0U, 0xbe3c64433ee0d5aeU,
  0xbf01b4623f18c861U, 0x3edf26583f55f466U, 0xbf1cb65bbe323651U, 0x3eb8bd813e932766U,
  0xbf0bd524bee34420U, 0xbe7346eabf77b088U, 0xbd24a4743e8dc7b0U, 0xbf0c8308bfa601b2U,
  0x3f7ae7693fd76687U, 0xbe473d133f9ada51U, 0x3f7cd871bf837b26U, 0xc010b10fc054ae95U,
  0x3e040395bdd1759cU, 0xbfa7c0d2be36caa3U, 0x3fa63985be689ddcU, 0x3f8b98c1bf452d10U,
  0x3dfd62d93fa0b721U, 0xbe61527e3f7d2af2U, 0x3fce3f60bf492e4dU, 0xbedc86713f0c646dU,
  0xbf29780dbfb36be9U, 0x3f56b2b73f7ce62fU, 0xbfb46ad53f4e071fU, 0x3f2b9d81beeaec39U,
  0xbf9c4f193f82f900U, 0xbf3bd693bf9373f6U, 0xc00223bf3f03310cU, 0x3ee229633d442af4U,
  0x3fdc23843ea383aeU, 0x3f323e13bf91a6bfU, 0xbf1378cabe705b42U, 0xbf4414a5bf0f9a89U,
  0xbf68d0fbbe4c46bcU, 0xc000a9c43f4f679cU, 0xbd8f35a9bf48eb05U, 0xbf8eb2083f2eb66fU,
  0x3efb4d4d3f566029U, 0x3e79dc4b3ed5a5e1U, 0x3f422da43eb66452U, 0xbf96ec953e6b171bU,
  0x3d33b5a3bee3623cU, 0x3e0e7aadbe8a1497U, 0x3e5e983c3e336833U, 0xbf801e5c3fa3eb30U,
  0x3f1358e23e16ec04U, 0x3fc3a37abe812952U, 0x3f165f5f3e0e7c3eU, 0xbfa30748bf2ae142U,
  0x3edf565c3dfe62d5U, 0xbf8018f1be90b625U, 0x3fa0cb0f3e03b4deU, 0xbe69eeb5bfb77937U,
  0x3f20b5023eb9dd45U, 0x3e232a7ebcc5c07eU, 0xbf3cfb5f3f8ae43aU, 0xbf2144763ff8be9fU,
  0x3ee0a0d7bcc1cc84U, 0xbf7568013eb87c78U, 0x3dd1799e3db5ad9fU, 0x3eda41853f24e298U,
  0x3de4725abf5dae0eU, 0x3e71609fbe327daaU, 0x3f9bbccebe1f8c99U, 0x3fa8eb3d3ea3dd25U,
  0xbf1e809bbe767e39U, 0xbffcc2abbecbd105U, 0x3f5b69413fb0c150U, 0x3e3eaf5abe4b0b30U,
  0x3e9e1a223ed992fdU, 0x3faaf9e53f6d312fU, 0x3e2da8823f14ed8bU, 0xbe8c67b33f1ffbcaU,
  0x3dc4edf7be964e61U, 0xbfb5d2d3be32fd9cU, 0xbeece298bf77d54eU, 0xbf2bf22abe84c441U,
  0xbe62f9b93fe30decU, 0xbfb25baabeadb5cbU, 0xbe94ff4f3ca0bc48U, 0x3fb183933ffdea20U,
  0xbf07fc5c3f364682U, 0x3f216216bf9e5357U, 0xbf837487bee28613U, 0x3f4710bcbf4ed516U,
  0xbf8dfc243f018460U, 0xbe0ff172bf17745eU, 0x3f01943fbefb9bf0U, 0x3f9ad5d6bef4541cU,
  0xbe4e89883ecf3b1aU, 0xbd328b853fb3f24cU, 0x3d0a8cfebd8942e2U, 0xbd87120abc919c1aU,
  0xbdf6fc2bbd0f5299U, 0x3de2ac203d146a08U, 0xbc2d31dcbd0b7266U, 0x3d5897403dc2ee3bU,
  0xbd3ec797bd170da7U, 0x3c9b857c3d31e7fbU, 0x3d9cdedabd644022U, 0x3c64848b3bdcb3f4U,
  0x3dddd2853c5685c1U, 0x3d89de0cbdb8728bU, 0x3d4f9420bc962333U, 0x3cb4a574bdacdcc6U,
  0x3c08ad4b3ca4527aU, 0xbc0862dd3ca13987U, 0xb8ad1a10bd57ed59U, 0xbd4594c23c1c2547U,
  0xbbc08660bc299b00U, 0xbd9d49243d5664b8U, 0xbc13951fbe1f7f80U, 0xbd01ec77bcbaf92aU,
  0x3e13a880bc11e3baU, 0x3d87e6fb3d9bdde9U, 0xbdbbc468bd9b3846U, 0xbc5ffd693de32945U,
  0x3e00071e3d8223ebU, 0xbc61ac2abd3aa05aU, 0x3df507223bb1de29U, 0x3d593f6a3b5a26c4U,
  0x3d2645643db3c7bbU, 0x3dc29d013cc596b5U, 0x3ddf982a3d4787aaU, 0xbde1b958bda8f6a0U,
  0xbcecf4dfbdc1c942U, 0xbd7066d8be2d8d8dU, 0x3e11561a3d377abeU, 0x3c54ad7ebdce4813U,
  0xbba4d2613dde02f2U, 0xbdf884523dd542bcU, 0xbe0546d4bc16b0c6U, 0xbcfeb6fa3dbef91cU,
  0xbe45de85bd0a249aU, 0x3d91dcbbbcb4267eU, 0xbcf614c23d03d317U, 0x3e00fb41bdccacc9U,
  0xbd2f70073d88fe03U, 0x3e09741f3d7b02a7U, 0x3d2a99a4bd838a11U, 0x3e14f147bdad60f5U,
  0x3d33db093c598944U, 0xbd0ffac7bd8372caU, 0xbc5b3f63bce11983U, 0x3dccf51b3c7efe1eU,
  0x3da17a25bd0b04ceU, 0x3a0a0f15bd48116eU, 0xbd8834febd5da7e6U, 0xbc86fc81bd54cd3bU,
  0xbd8b43913ce5423aU, 0xbb1b207f3e13f642U, 0x3c6112ecbca09661U, 0x3e3339c7bd28050bU,
