/**
  ******************************************************************************
  * @file    wine_quality_data_params.c
  * @author  AST Embedded Analytics Research Platform
  * @date    Wed Nov  8 22:27:42 2023
  * @brief   AI Tool Automatic Code Generator for Embedded NN computing
  ******************************************************************************
  * Copyright (c) 2023 STMicroelectronics.
  * All rights reserved.
  *
  * This software is licensed under terms that can be found in the LICENSE file
  * in the root directory of this software component.
  * If no LICENSE file comes with this software, it is provided AS-IS.
  ******************************************************************************
  */

#include "wine_quality_data_params.h"


/**  Activations Section  ****************************************************/
ai_handle g_wine_quality_activations_table[1 + 2] = {
  AI_HANDLE_PTR(AI_MAGIC_MARKER),
  AI_HANDLE_PTR(NULL),
  AI_HANDLE_PTR(AI_MAGIC_MARKER),
};




/**  Weights Section  ********************************************************/
AI_ALIGNED(32)
const ai_u64 s_wine_quality_weights_array_u64[5434] = {
  0x3f0f91d83e4d2ac1U, 0xbf23c4a8be2212aaU, 0xbca3dd183e1f7aa9U, 0xbcf88c1ebf11b620U,
  0xbcb0adcdbbfac0fdU, 0xbd2e64d1bf0c9287U, 0xbeec874ebf28f1bbU, 0xbd39e89fbeb47b2fU,
  0xbe2baeb1bc3714f2U, 0x3f5013663f3a82bdU, 0x3ee784743f18e922U, 0x3f0e16efbd78b285U,
  0x3ea774cbbc4ea5a6U, 0x3f1fca773e7d9612U, 0xbd332edc3e869185U, 0xc05b29cc40185b24U,
  0x40a2dea43fd0b524U, 0xbe255b24c0487381U, 0x3dfce7d8405c4477U, 0xbcf388973eaa4decU,
  0xbe137c01406d256aU, 0x3fe8d3193e3fe0daU, 0xbe81890a400a4d06U, 0x3ff336263e3b6b9dU,
  0x3fe0a7eb3fd80f0eU, 0x3fcc933ac052bc43U, 0x3fd035593e41a108U, 0xbf99fb7abe84f863U,
  0xc0633f8540003809U, 0xbe3fea1dbff7a982U, 0x3fd87aad401231faU, 0xbfb8d0efc005fe41U,
  0xbebe15463f4f524aU, 0xbec3986dc057daa4U, 0xbd962cf53ea8ee41U, 0x3dfccbfec0382a5fU,
  0xc000271ebfe1582cU, 0x3e740987bf9e8d30U, 0xbfbf836cbaf89a04U, 0x3fe1808f3fde9c59U,
  0x3fd8c7883fd25bf0U, 0x3fd265063e230c1aU, 0xc053b5d8be80e353U, 0x3fbe0fa84005ffe8U,
  0x3eca9be8c0441ae2U, 0x3fd9fc053f961a71U, 0x3eb62e063f9a178dU, 0xbea81d1e3d19a3fdU,
  0xbe48f213bf960e6cU, 0xbebb2b48be89ebebU, 0xbe34620ebf890bdaU, 0x3e6b0b00befc4b55U,
  0xbdae13833fe6a7ebU, 0x3fcadcb03ead9e8cU, 0x3fe4dfbc3fd58565U, 0x3fc2b4f13fd1b43fU,
  0x3fd50ad0bd8c6fa3U, 0xbe5f70c7beb030b3U, 0x3fbe47da3f6a5e3bU, 0x3d860dc3bdd07848U,
  0x3fd6a2553f583f3dU, 0x3def3d0d3f8d62ffU, 0x3ecd1939bf02fd7bU, 0x3d6e5391bf17d628U,
  0x3e5ff248bc82496eU, 0x3e458618bf1e9a4fU, 0xbf2b34b5be806ab3U, 0x3dffb5703fda6354U,
  0x3fbbf11a3e93a3cdU, 0x3fc4c0403fb5951bU, 0x3f96408f3fe37641U, 0x3fad6bf9be407167U,
  0x3f4aae383e9239c0U, 0x3fbf9d863f3e9143U, 0xbe39e6f33f701ad7U, 0x3fd63c043e20ca3bU,
  0xbe892c553f90f16dU, 0xbdcd5f91bffc83a6U, 0x3d04b580bf729711U, 0x3ea6922d3ec81237U,
  0xbe3d12b8bf99a10cU, 0xbf9ac24fbf03f2c4U, 0xbea4dea33fa0d9cbU, 0x3f9e4754bceb75edU,
  0x3f806f873f6bc8eaU, 0x3ad701de3ff17bdaU, 0x3ecf5d113e2d218bU, 0x3f8c6a54bdd69dc2U,
  0x3fc6fb403f0a318fU, 0xbd552a9b3f9ff37dU, 0x3ff560f1c030359eU, 0xbfbfbaa04002ea2dU,
  0x3e5821b73f622f0fU, 0x3e18d906bf6ffbe2U, 0x3ea9d5933e56ef2bU, 0x3eb6f542bffdb7e8U,
  0xbfef017cbf0d3270U, 0xbe85f944c003a204U, 0xc002bdabbebadb52U, 0xc007f6f8c014994cU,
  0xc0468d0d4001bd2bU, 0xc02cd7353ec4c3e6U, 0x3fa3e25cbea46735U, 0x3fe7d0eac0197785U,
  0x3e3105043fa1589eU, 0xc0a5e48bc05799bfU, 0xbfd93e39c0b53a21U, 0xbe93d77e404e8257U,
  0x3ec0c9d84065c712U, 0xbeb635373d5b7dcbU, 0xbe68a0434069bffcU, 0x40643cb0405a619dU,
  0x3de7d035c05269eaU, 0xc040f037bcd8c1e2U, 0xc0ae2f32c084e7e2U, 0xc024a3f7c0add251U,
  0xc083ab853bd43bbfU, 0x3fb41dc13e990723U, 0xc0abd430c07b7103U, 0x3e9d655c3fba40bcU,
  0xbf4d458ebfd2c6c7U, 0xbd8b491bbf5f31c8U, 0x3f546e203f69ea3cU, 0xbe5288f63fd28842U,
  0x404ee8bfbea01cdaU, 0xc0308299bee3584eU, 0xc00f32d63fbb7083U, 0x3f4f07b7bf9bb0ebU,
  0xbf6180cc3fdb7205U, 0xc0261a96bdb6c21bU, 0xbf8f0399400ca415U, 0x3ff6b87340820d8bU,
  0xbf3f7133bfc39546U, 0x3f34cba0409c43baU, 0xc0920ab4403cbab7U, 0xbd18b1cdbf7fd528U,
  0x3e196dae3f94438eU, 0xbf41a218bf45fc0fU, 0xbf3d601d3fb9645aU, 0x3f74bfc63ed4f5c3U,
  0xbfc5890cc0219d97U, 0xbf67e3fbbf03937aU, 0x3f9eea2b3e9271a9U, 0xbf37a1c5bfffef36U,
  0xbf0f2dc53ec29ac9U, 0x3f9a73c4bf6fc7e0U, 0xbe449c12c012a8c9U, 0xbfb37da33f44d984U,
  0xbfbd02f2bfcec1b1U, 0xbf9eb68b3f2bea37U, 0x406c4f69bf12edffU, 0xbfaa2bdb3fb642f1U,
  0xc04170cdbf85501cU, 0x3e48c8bc40a487f5U, 0x3f7ccc5ebe641afdU, 0xbe585edf3ee7168fU,
  0xbfe0e11abdb8b518U, 0xbdd179893f55c22aU, 0xc0453d173ee110c9U, 0xbfe002c23fe020c3U,
  0x40084886403217e5U, 0xc04e8ce2bffa4fecU, 0xbf86147abf0c1ca0U, 0x3dc69035beb3ebdaU,
  0x3ffbdcb0408c087aU, 0x3e73de3d40071e10U, 0xc02ebc323fc26271U, 0x3f67d13dbfd71e80U,
  0xbfa4b42bbf1911f7U, 0xbe7aa8443f671a4eU, 0x3f337e7abe5f443bU, 0x3fe030d53f45e9b9U,
  0x3e1f08a64004e678U, 0x3ec9c8b0c021efc0U, 0xc04395443f77b732U, 0x3e5a38cd3e42eec6U,
  0xbeb0c0323ff4f2aeU, 0x4021724ac026ae3dU, 0x3ea4f681c01927f3U, 0xbf8bd54f4037e814U,
  0xc0930c803f75e4ffU, 0x403a8afbc01a870cU, 0x3fd80e64400378e2U, 0x3db40ccbc062b167U,
  0xc0b73bcf3f9b8af2U, 0x3f1224aa3d7e20ccU, 0x3f12b2ecc025d136U, 0xbf6ea12b3f31a71eU,
  0x4044a1163fe05048U, 0x3f442caf3f0b178aU, 0x3fc63bb2bfc89be5U, 0x3f76a408bf972ba3U,
  0xbf38ba79bf59d890U, 0x3f24e7c9bffd5277U, 0xbf79b22fbfa78151U, 0x3f6446a63ebe8fb1U,
  0x3f1ba36bc009a2e9U, 0xc021a0773e7d71dcU, 0xbfe2141ac006d8f0U, 0x3d38a0623fd3f75dU,
  0xc00a3ba73e63d58bU, 0x3fde8bd4c02eda55U, 0xbf6398df3f3e9357U, 0x3f55e43c3fbe7a76U,
  0x40291b67c00cd302U, 0xc03589dcbdd42d12U, 0x3ec4909a3fb707f6U, 0x3efa335ec00e1103U,
  0x407f73acbf6e1470U, 0xbfc636e2bd04c52eU, 0xc062a5af3fc83340U, 0x400357903fcf4e87U,
  0xbe375dfcbfe1b459U, 0x3f94df39c0051815U, 0xbfaa23733f5f7254U, 0xbebf218d3ecb9bb8U,
  0x3f5b8d2f3ea420cfU, 0xbfe3d2fcc03327c0U, 0xbfe1e5d4bec0ab10U, 0xbeb86c123e9a6bfdU,
  0xc04b6d7a3f3657f0U, 0xc074c6c5be807846U, 0xbf90244ebf8dedbeU, 0xbf8380e3bfd3ed1cU,
  0x3f969810bfb1f67fU, 0xbff0ffd0bf4e5a21U, 0x3e5ff370408598ecU, 0xbfb06c723f842e87U,
  0xc09a372d3f73173dU, 0x40825cf5c01de0b4U, 0x3f58c7d9bfa319e5U, 0xbf924b7c402627adU,
  0xbedb8aebbee5b2a0U, 0x3fa6a383be22f383U, 0x3fffc967c0672024U, 0xbd37b73fbf76e426U,
  0xbf301bf4bffa7f70U, 0x3fc45efcbf8ab1ccU, 0x3fb3e3ec40bc79e8U, 0xbe315181bf53224fU,
  0xc03bb1393fd1a916U, 0x3f776c5b3e26576eU, 0xbeb95504c078ff74U, 0x3e120facc02c41daU,
  0x3e9beb0e40000d25U, 0xbfe5175d3f7c4ea0U, 0xbfa12a173f54b084U, 0x3dcd82153f1841bbU,
  0x3f31c1613d0ff74eU, 0x402a643fbfa98f7bU, 0x403ae740c07d08a9U, 0x408bbabec0870d2aU,
  0x3f31cc3f3faf81e7U, 0xbf210346404ff1d5U, 0xc09f3b7cbf0a8917U, 0xbfd9a3623e4bb82dU,
  0x3f895aa7bfca0170U, 0x406cbd5c3f2ab3c0U, 0x40465a0b3fea315dU, 0x401a1c1c40a343adU,
  0x3f0bfe5f3f2a7bcdU, 0xbf571cf9c04dbffaU, 0xbfa4eff8c0926ef0U, 0x3d8453da3fad9ca2U,
  0x3f3d1d4c3f06ebcdU, 0x3fd7a7da3fdfae1fU, 0xbe5dc4fbbf2b7b61U, 0xbf9f1adb3db72f5cU,
  0xbfe3bfcd3f1e4dc8U, 0xbec7091cc0073a65U, 0x3fb55c00bf86cc37U, 0xbfdbb0dc4016c39cU,
  0xbee746e9bfc0ab38U, 0x3dad552b403feeceU, 0x3f8b79174050f461U, 0x3db929a33f9c625dU,
  0x3fca028ec055446fU, 0xc01d27b0bda3323dU, 0xbde55c283e2d8671U, 0x3e3bbd84bfb2dbd3U,
  0x3e9d093c403148f9U, 0x3fdee9edbfb5e0dfU, 0x3f7c350cc0064867U, 0xbf94b1a93eb2eab5U,
  0x3f856ba13f845418U, 0xbf1bc5cbc0522df5U, 0x403c59af3e0aa5d6U, 0xbfe903e34028df81U,
  0x3f0495a63f4e37e3U, 0xbf89b1d83ff37d6aU, 0xc01ceb123e7404a8U, 0x3d9f45b9bf84b6ffU,
  0x3f1835873fbb75bfU, 0x3f026db9bf85cca3U, 0xbefdb5c53ec1798bU, 0x3f26b56bbfe980f1U,
  0xbfac3fc73f79eae1U, 0xbdec5f9e3f7a5f39U, 0x3faf3c13bf88bca7U, 0x3e753cf5bff9865dU,
  0x3f1a266fc05180b8U, 0xc02aae2fbecb2825U, 0xc027b98d3fd97a2cU, 0x3e0bd5d1402eb04dU,
  0xc0006b973fd71bffU, 0xc04abe2d401475c6U, 0xbec395873f780639U, 0x3febad32bf90cdf9U,
  0x3e92e398c0981df6U, 0x3ecb8e43c0268391U, 0x3f61748cbf28dfc3U, 0xbfa4a0bb4018d5e5U,
  0x3fcf97d640121df6U, 0x3ec537ad3f61cceeU, 0xbe48172a3f3759b7U, 0xbf282e01c0005a3aU,
  0x3fb3d8ab40882473U, 0xbdce642c408885deU, 0x40826504be834481U, 0xbf53ad2f3ce8c19bU,
  0x4089fba03f3ff357U, 0xbe3c3c86bfcac03bU, 0xbf4f80603fdbeaeeU, 0xbf970c0f401c5c68U,
  0xbfa98feebe6f17b0U, 0x3f8c15c0bfaea6ffU, 0x3f2175e5bdae2394U, 0x3fd7207ac035ea04U,
  0xbfe96c323f293836U, 0x3f873433400d0781U, 0x3fd60ff13f0cd97fU, 0x3f9fa8983e5064a3U,
  0x3ff5b54c400b6f0eU, 0xbe49779cc0a1322dU, 0xc0280fcdbfef34f2U, 0xc023af35bf11d7a7U,
  0x3f9b354bbf9a08c8U, 0xbf7972623fa24287U, 0x3f0b45d13f829288U, 0xbe535387c01905a1U,
  0x3edc88ed3fd61c25U, 0xbef5815abed2352fU, 0xbfaac0c4c0377827U, 0xbfb32be2c075e513U,
  0x3fc94db6c00d31e6U, 0x3fb61bee40413aacU, 0x401299babf7cffd5U, 0xc095b6bf3f902906U,
  0xbf21d7913f180ff2U, 0xc09981b63f0c58f3U, 0x3f17a708bf4f48b0U, 0x3d8da35d40b8cfe7U,
  0x40836654c073bf5eU, 0xc03c0653c07f1cf9U, 0xc035312bbf5db08dU, 0x3f8fadbdc046ff4fU,
  0xc058a78ac08ec9eaU, 0xbf4685123e7fedeeU, 0x3f938f274055a094U, 0x3fa3fda5bf7ea40cU,
  0x4038ae003ee017f0U, 0xc010c32b3dbd2370U, 0x3f913f6b3f946ef0U, 0xbfd9985e3fef84acU,
  0x3f25c4ef40b8ec81U, 0xbff71c1f3fbf9bb5U, 0xbf12583b3ee97edcU, 0xbf015902405496a9U,
  0xc014a6cfbf735fcdU, 0x3f727951bfb20703U, 0x3fc49fa73efbc805U, 0xc0094089bfa2dc0aU,
  0x3ff9813e3fd4f8a5U, 0x3fc911aa3ffe0525U, 0x3e61a700bf3de070U, 0xbf22532dc0729250U,
  0xc0bc09ae3fe20aaaU, 0xbfe55da43ee5cc0dU, 0x3d8da71ac01b481aU, 0x3e43a53fbfed9923U,
  0x4050e65b3fe4ef0aU, 0xbf7e5bb0bfa936e4U, 0x4059cfbe3fc84ee9U, 0xc02a5521406a4d69U,
  0x3ff156e0401b5554U, 0xbecb4880bddd3efaU, 0x3f073bb53ddcb481U, 0x3f969ef7bfe48c74U,
  0xc049095cc020afa2U, 0xbf3170283ff2bf98U, 0x4047dd09bfac1275U, 0xc01c6126c01ef940U,
  0x3fef5e1bbf8166e9U, 0x3db57e14bf8b9687U, 0x3d2a0e0bc00b8cc3U, 0x40211b253f4ae8e7U,
  0x3da0e8ee3e011f53U, 0x3f9453623f7601ddU, 0x408c72af4010bb2eU, 0x3fa88b7a3ec94b79U,
  0x3e8d0acdc0cc0c72U, 0xbff9d551c0809ffdU, 0xbeb45791c0356e29U, 0xbf82082abf9c3c98U,
  0xc09d72314058adb3U, 0x3ee28e133e85178eU, 0xbec5eca1bede55d5U, 0xbeb28d043f9c9738U,
  0xbfb9ab26bf9a533cU, 0xbf0eb6413f3add39U, 0x3fd42ccbbdf7fc5eU, 0x3ff4cf68beefd0b5U,
  0x3eb44f1e405268e0U, 0xbee96178bf80d29dU, 0xbecbe47cbffe48f0U, 0xbf2ffa67bfd35304U,
  0x3ea8d55e3fb3733fU, 0x3e3cb19cbf17ff20U, 0x3debb4de3fedb6abU, 0xbda59602bdcd5d85U,
  0xbf61325c3ec29e23U, 0xbfe93c8dbf105ab4U, 0x3f5455023f5eb881U, 0x3f757a194018d00dU,
  0x400b2712c04b24ccU, 0xbff7b547bfcb85dfU, 0x400e545b4036d00cU, 0x3ec1098b3f88036bU,
  0x3fdb0feabe43950cU, 0xbf34033bbf067d5fU, 0x3eec66993f97ddeeU, 0xbf045a1fbf436031U,
  0x3e35173cbe9ac82cU, 0xbe933e1b3f5905a7U, 0xbfaf16cc3ecc311cU, 0x3f51a792ba79a71cU,
  0xc07848a43fa90b94U, 0x3f795c14bd8b0aa3U, 0xbff12700bfe14a07U, 0xbdcdadeec0a29414U,
  0xbff06873bfaa8d8fU, 0x3f308beebf051f1aU, 0x3ea05122402a6e4cU, 0xbf5c9235c002b3ffU,
  0xc002b6083f64ca90U, 0x3f1d9155be958e6bU, 0xbfda49703fd817e7U, 0xbfee6a1a3e4a2b44U,
  0xbfc519f93f31f298U, 0xbf3228af3eccb34cU, 0xbe72b4843fb93ef7U, 0x40068d62bf3013d2U,
  0x3fac5dcdc01c4973U, 0xbeb115d44014fb52U, 0xc0229fd23f5cc605U, 0x3fe15920bf9b96e6U,
  0xc026ed34bdbd9ee3U, 0x3f8989763cca0cb5U, 0xbfe22a0e3ff2c5dcU, 0xbeced29c3d450b01U,
  0x3f1196c13fcb98c2U, 0xbfde647a3fa89731U, 0xc0a419383ff5171fU, 0x404d3758bffb7c69U,
  0x3ea42e20c08a6f3aU, 0x3fa561643f665bcbU, 0x40862ab43f849744U, 0xbe7d72053fe45eaaU,
  0xbff59500bd387f82U, 0xbd8e01c93ffdf172U, 0xc02766463f9a16dbU, 0x3f23a161bf6ec3c1U,
  0xc0032a1fbf8cf443U, 0xbfc52d4cbe8725baU, 0xbfb741c4c04c84ebU, 0x3e939efbbf0926f3U,
  0x3e91135a3faaf3a0U, 0xbd6e21c0c0297e91U, 0x4094c041bf49172dU, 0x3f8e7c78bf356fa2U,
  0x405df1bac01b2abcU, 0xbfd5ae3dbfe460d6U, 0x3f9cfc863f554a22U, 0x3f7214f0bfda7fc8U,
  0x402eed003ff1276fU, 0x4078f3d9bf88c4f5U, 0xbfef144abfec10fcU, 0xbf4ca2e5bf944dd6U,
  0x3ef8ce57c0617cb0U, 0xbffc774540785a0fU, 0xbfe35790be9e15d6U, 0x3f36d30f3f614c6dU,
  0xbea432f73f8465cdU, 0xbf530d7d3d706534U, 0xbfeda54e40ba47ecU, 0x3f4f231c3fc4eb7cU,
  0xbe44d4c5c099978aU, 0xbd0dde06402ccccaU, 0xc058fdab3e8892c2U, 0x3f524e5dbf84fb12U,
  0xbf9a970640bfe2a8U, 0xbfed2c2abea63dfcU, 0xc0138d50bf93bc80U, 0x4001735b3fad9366U,
  0xbfc68de440167badU, 0x402853ca406b1730U, 0xc09702e73fb265cdU, 0x3fab5996bebc1092U,
  0xbfaa1d43bff1433dU, 0x4001dda1bf86d936U, 0x3fb201813f63bac8U, 0xbfd595d4400eaa8dU,
  0xc02ebbb6bff919bdU, 0xbfde10a6bf2222afU, 0x3fc2cc31be9ff659U, 0xc02a426bbfc6bc9bU,
  0xc04eb959408a278fU, 0x40886bd6bf89b8deU, 0x402e92edbfcbdc1cU, 0x3cf97ad2403187a7U,
  0x408d845cc0e331f1U, 0x3f16aa93bf0cf2b1U, 0x4049a63bbf54abfaU, 0x3f79fef04021ed70U,
  0x3f59c9b73f0aed9cU, 0xbfac9cab3e26b10aU, 0x3f555c07be9bf69dU, 0x3f5507d9bea0a126U,
  0x4088cf4a3f0af0e5U, 0xbf15454440c22530U, 0x3fa0d471c08864e8U, 0xbfbe60c040a590f9U,
  0xbf934797c05bf41cU, 0x4031e5f0bf305b03U, 0x400c03c9bfb2e26fU, 0x401a682cc0044c9fU,
  0x3fb2844ebe081157U, 0x3e954c4c3ddfae0bU, 0x3da9b7cdbfe3351fU, 0x3e17ddf63ef05563U,
  0xc017e5f7c02d8d5dU, 0x3f00a5fdbf00c89bU, 0x3ddff8fabf15c473U, 0xbfe6aa25bed80179U,
  0x402fb081c0b85bceU, 0xbf5ac1893edd6287U, 0x406e7dae4055ccfbU, 0x4024ff7fc03b8aa1U,
  0x3fd699c0c0174de9U, 0xc02538883fb4f4eeU, 0xbf713ed6402239fcU, 0xbff215c4bf0dbc98U,
  0x402415c53fab6e1cU, 0x4010b1c43f079591U, 0xbf397734bf2abcb0U, 0xbe813533c100018eU,
  0xbf1def25bf7caeb1U, 0xc01fc43cbf80f7b8U, 0x40027c92402ed13eU, 0x3e4b3e58bd92b84cU,
  0x400787cf3fa11532U, 0x3f592382bf98ee1eU, 0x405e1a3bbf861d49U, 0x3f8091c53f639663U,
  0xc0065af5bfb488cdU, 0xbf8285d43e8d7571U, 0xc004bc77401c6fc2U, 0x3fec7fc73f9fcffaU,
  0x3f735458401e7067U, 0x3f1e5b77bf3a8f48U, 0xbfb8c7f23fab3b18U, 0x3f56f099c00d99d6U,
  0x3fc4967f4039d30eU, 0xbf069705c00cfb1dU, 0xc0066df7bfecd53bU, 0xbf7258223ecac7c8U,
  0xbe817f21bfc05e88U, 0xbdea3a453fa13216U, 0xbf6517e93e2e209fU, 0xbf27318dbfbb63e2U,
  0xbf875b65bfdbea60U, 0x3f8fe3283f3a0914U, 0xbe0e23b63fe04354U, 0x3fcb3ef2bf2099f7U,
  0x3fe6f946bf9c95d9U, 0x3f594d743f92460eU, 0x4019ff4abf183fdaU, 0x3f97fb9a3fa31d79U,
  0x3fac1eeb3fae9ef0U, 0xbf003977bf36ee42U, 0x3fb95421bf70b29aU, 0x3f9a7ac63f632b32U,
  0xc07bea1dc0986d36U, 0xbe91d950bf0014c3U, 0xbeaae8a0401e6f14U, 0x3fa6b3c9bf141582U,
  0xc02137ef3f24c4b9U, 0x3eff78ea3f28267dU, 0xc041372fbf2e5b6bU, 0xbe0b92c03f211180U,
  0xbf962168c044812fU, 0xbf8eb101c084b8ffU, 0xc028f63a402f584aU, 0xbf29254fbe9b78d6U,
  0x3fee7b6c3f69acedU, 0x40333ee2c0479ba1U, 0xc02a9fde3e910c5cU, 0x3ffa0fc73de5d86fU,
  0x3f7571fbbf8d87e4U, 0xbe5e7c49bfa2908fU, 0x3f353aa0c0093c08U, 0x3f76a371bea0a37cU,
  0x3ffadf64bf02fe25U, 0xbe86885a3f1cffb3U, 0xbf1e79c0bebd905bU, 0xbf1a08863f694d84U,
  0x3f273e133fc0caeeU, 0x3f7ae9a5c042686eU, 0xbfe176f44005214dU, 0x3f0ffeae40013ff5U,
  0xc035efeabfac5811U, 0xbfbf25253ed11bd4U, 0x403381dac02fc8e2U, 0x3f306577bfb49a05U,
  0x3fa413acc033c5dbU, 0xbf0c8c5dbfd84aadU, 0xbfd1621ebd3d0d24U, 0xbf54f2c03ebe25c1U,
  0xbdd74ef3bf29a3bfU, 0x3fc5161c3e8aa2d6U, 0xbd301924bebadae5U, 0x3e7ad5b4bfb706b4U,
  0xc04a4fe43e80a010U, 0xbf20c0843fdfe3f8U, 0xbffb7ee93fd2fd19U, 0x3fb96964bf9aedadU,
  0x3eae6e6cc054d220U, 0xc0289ea1c048749eU, 0xbf39aa1f3f87240dU, 0xbf45be693fe1071bU,
  0xc00721c7c0a25893U, 0xbe84b1883f16914aU, 0xc02b25d440487aacU, 0x405811493c2a428cU,
  0xc01c4b963fb7a3a5U, 0xbea12928bf4ee9ceU, 0xbe02e293406ca708U, 0xbfe4ae273a914ebfU,
  0xc02b2167c02abaddU, 0xc0067fcd3e737ba5U, 0xbfa99a70bfc4e4a6U, 0xbf8de6cc3fb40710U,
  0x3fda9a79c02dcc89U, 0xc039200abf57238cU, 0xbce71006406cb8d3U, 0x408e834cc0441d5dU,
  0x3fc88af63fb63350U, 0x3f66176abfc3db44U, 0x40b7d876c055bd31U, 0x3e0867673f810f9cU,
  0xc089e6fcbea52d5fU, 0xbe92b59cc049ba17U, 0xc07bd6a3401ad0f0U, 0x3ebb946d3d08f1ecU,
  0x40835e7f40538b3cU, 0xbe29878dc00f340eU, 0xbfcca7323ee45054U, 0xbf6a846340055033U,
  0xc01438f7409329c4U, 0x3ff526553f7184eeU, 0x3e119a563fb00613U, 0xbff20fa43fe2caf5U,
  0xbf9f3e7fc024d0e6U, 0xc0035ff73f426f98U, 0x400c0726bf909f39U, 0xbf1e333ebf9d9e0cU,
  0xbf26f9ea4014672eU, 0xbf8fa02cbf0dab66U, 0x3f7b3bb13f975842U, 0x3ec0ceb13ff1b7e0U,
  0x407075483f4804e0U, 0xbee22686c020f090U, 0xbefac4723f8203faU, 0x3fc25354bf2ba80fU,
  0xbf2cdd52c0551f85U, 0xbfd3e046bf670d8fU, 0x40498ed9bf051be7U, 0xbe9d823fbf2d9343U,
  0xbe9da558bf8d2dc7U, 0x40151aee3fcc9d39U, 0x401c2a00c0354ef2U, 0xbffc1265bff20932U,
  0x3fbaae44bde36f3cU, 0xbe221d8c3f8f284fU, 0xbdda2c833f3e20beU, 0x3ed7eb77bf105c92U,
  0x406108e5c046f945U, 0xc0131c15c095f0cdU, 0x4071e606c0841a44U, 0x3e16946840344e37U,
  0x3f37ec30403b2d66U, 0x4021563740153b0fU, 0xbf335837bfa4e7a5U, 0xbf7efe703f880a43U,
  0xbe87418340310fc0U, 0x3abeebc13e10a96dU, 0x3f596a2f3f8260c5U, 0xbfc533de3e960e29U,
  0xc0396e153fe5ed0fU, 0xbf06ba533f4544f4U, 0xbfdb7956400a37d8U, 0x3f0f91d93f14ef7eU,
  0x40239b783f713859U, 0xbf0a6a023f007b75U, 0xbefc38cc3fea4198U, 0xbed90096bf2eb83fU,
  0xbfaf7f483f8e4ab6U, 0xbf382dc53fa14cc4U, 0x400cf3b83d8d103eU, 0xbf3b16943f35c977U,
  0x3e7577b33fa78e6dU, 0xbeace7debe2bd4ddU, 0x400465e13df6f76eU, 0x3f8919983fc2cb5cU,
  0xc0385cef3f8d3241U, 0x4045c179c024e07aU, 0xbf343b1bc04c42d6U, 0xbff028a83fbc401dU,
  0xc03138973f735c6aU, 0x3fc8d7b6bf88452bU, 0x4083eb513f81a00dU, 0xbf0c234d3f90ee93U,
  0xbfc520ca3fc2de59U, 0xbfa6f4153e69bbcdU, 0x402830653f04b0adU, 0x3e349dea3f64cbd4U,
  0xc0202c66bf88f043U, 0xbea0f4583f3d36ceU, 0xbff09c6a3e9ba328U, 0xbf600c683ff8ee03U,
  0xbffcfb153d859493U, 0x3f11d95d40174d67U, 0xbfd1ac50be71ad4fU, 0x3ff5a89540393ee2U,
  0x3fb8ff1d3fe971a8U, 0xbe0a8ff83f13056eU, 0x4004d8333f6b0911U, 0xbf51d036bf2aed75U,
  0xbf62d01dc06726c2U, 0xbf4ab5f03ffbcf9aU, 0x3fd18b75402607d3U, 0x4001b9c9404e74e2U,
  0x3fc99e773e87ea92U, 0xbce8c2b0bfa8a6d2U, 0x401d877fbedb2eb0U, 0xbe37efda3f85eb51U,
  0x40972cd5bf885debU, 0xbfee78413eac3417U, 0x3f82b2c040829a58U, 0xbf260c0ebea62657U,
  0x400cbd4dc0173ca2U, 0xc020fed6bd6f95c0U, 0x3ff118d33fc50f74U, 0xc0186dc340979656U,
  0x40b918e6bf94d061U, 0x3f4642d7401fbd39U, 0x3e024146bfae2462U, 0xbebf1d56befc8f95U,
  0xc07866863fd5564bU, 0x3fb1dc413fc1ee42U, 0xbfda7151be96f948U, 0xbfd654a43f52ed4bU,
  0x3f753be3bd97afe0U, 0x3fb209d7bfbc2b51U, 0xc012e83640912047U, 0x406c0313bfb4d01cU,
  0xc06b57a1bcf85f6cU, 0xc014f5744010e338U, 0x3f7a6e75c009018aU, 0xbf027217bf3e9241U,
  0x3ee2236d40a13582U, 0x408d064c40731175U, 0x404a8eccbfb9c6d0U, 0x3f59e4133f95045dU,
  0xbe96c2513f3d490aU, 0xbeaa67e1bd533d57U, 0x3fcb6e653e868bd3U, 0xbf709c06be531957U,
  0x3fb268693fa8a3c7U, 0x3f906737c0020a21U, 0x3dfe7e47bf84184cU, 0x3e8b081c3dfde817U,
  0xbff2151abf9266a9U, 0x3ea1c8d4bf2b1fcdU, 0xbffb5b0cbebbd3e9U, 0x3faebb463c1ad814U,
  0xbfc68157bf5b963aU, 0x3fe8f82b401ff5c6U, 0x400fcdfd3fc40d4bU, 0xbf919218bf1daa0cU,
  0xc00cffbb3ee981d7U, 0x3fd770a1be240f02U, 0x406b9b5f4019c840U, 0x3d8eb9a43f2a74f0U,
  0x3e47a1f6bfa204b0U, 0xbf864e603fcf41b9U, 0xbfd409e53fbdb968U, 0xbf222f9ec04fecabU,
  0xbf089f9540310e06U, 0x3e225350bf63f445U, 0xbe746eacbdb5957bU, 0xbf4d044b3fcd30d7U,
  0xbee44f6b3ec2c243U, 0x3e5dee86bf1ddde8U, 0xbe97edf93c80984cU, 0xc016c6dfbfdc6e6cU,
  0x3c8f910b40530436U, 0xbf5f76cc402a8cf1U, 0x3e1c54acbf1c1571U, 0xbe9091553ff94e5aU,
  0x3ff484babea2874aU, 0x3e99639b3fa123aaU, 0x3fd4e6ae3f5046f7U, 0xbeee07a3402efbf0U,
  0x3f96bc40bf8b1c10U, 0x400fc8303fa2448cU, 0xbe7e16f93b7e389cU, 0xbf275a713f253ea9U,
  0xbfa79824bfcf0e20U, 0x3fdc69f23f9e8dbdU, 0xc020eb97bf8f2b60U, 0xbf8c3734c0c92a74U,
  0xbfe82335bfb4e41cU, 0x3f01cbe4c022ec4aU, 0xbfd226f9bfb44444U, 0x3faafbc4be9388e8U,
  0x3e0794fabfab7ce5U, 0x3f1be0983f815571U, 0xbec1fe46c00c306aU, 0x3fafb9013fc3f485U,
  0x3fbcc9b8bead3ac0U, 0xbf97c2f8c0314055U, 0xbe9c12d23ff8b20bU, 0x3e261f8c3fe6ca74U,
  0x3f1f8db7bfbc964dU, 0x3f1271943fd8ab7bU, 0xbfb766bebe725dd6U, 0xbfbb8953be30a25eU,
  0xbf9a1f0bbeb10514U, 0x3fb40eb73f89fb3dU, 0xbe2b2b91bfbdd25cU, 0x4024d3ed3e1050fbU,
  0x4050bd50be656136U, 0xbf22e880be4a6726U, 0xbf9be9b2bf867cd3U, 0x3fa30d394002c2feU,
  0x3e6a8a96be8ccb15U, 0xbf051d24bdea6de2U, 0x40271ea1bea1f136U, 0xbfadefc2bf508d76U,
  0xbeee713c3f21e7d9U, 0x3f28d3443ffc1912U, 0x4040fb6ebf1e82cdU, 0xbf20efdac028b821U,
  0x3fb130b43fa35f6dU, 0x3ea8a083bf164923U, 0x3f3b74b5bf96a17bU, 0xc017bb9bbe761d9cU,
  0x3d381919bfd85211U, 0x3fc0477d3dee1a90U, 0x3f1f0460bfc9da39U, 0x3fc95d183da834b1U,
  0x3fcfffbebfe63180U, 0xbf4b1cdb3ea89a6aU, 0xbf3a2940bdc7b8d0U, 0xbe0448433e24b364U,
  0xbf2303e53faac94dU, 0x3ff147b8bf7f5cc1U, 0x405656233f920938U, 0xbeb49dba401c716bU,
  0xc040ecf3bff647cdU, 0x3f24b2ba3ffccf14U, 0x3ecbcd5bbf9a2680U, 0x3f1d979f3fb46c8bU,
  0x3ea37ac53e841504U, 0x3fb384f44019437cU, 0x401b218a3f4ba559U, 0x400e2577be0cd90eU,
  0xc0320f6abf611f26U, 0xbf65cfa5bfefa04cU, 0xbdbf46943f0b9a08U, 0xc042e6e23fba38a9U,
  0xbfe9ab46bfafa6d3U, 0xbf31ef2fbe3c2d53U, 0xbe99e703c04a6df3U, 0x3f5999c1bf99cff3U,
  0xbf9c03d4bfe3545cU, 0x3f88ce70bee0f036U, 0xbed2b3263f817f3fU, 0xbfa5b3153f0b4792U,
  0xbe019738bfbe6202U, 0xbfd54b5abe8421c6U, 0x3fdbbb33401bd58fU, 0xbe8187efbf9ee539U,
  0xbf0ab5783f1e39ceU, 0xbf98b5a63e668963U, 0xbe89a069bdffe13fU, 0x3e69928e3ea7767bU,
  0x3eec74e3be8cce7cU, 0xbeab785f3dca4573U, 0xbe2ad379bed10914U, 0xbea01294bf409c7dU,
  0x3ea868033f040c94U, 0x3c080bb9bf3407e3U, 0x3fad827a3feeb1bbU, 0xbeab2c98bd7c2325U,
  0x3ed3c5643e3eea83U, 0xbee2626f3da3ed36U, 0xbe9d7388bf0b6d1eU, 0x3ed48bf9bf3b569eU,
  0x3e15f9ae3d5da5c6U, 0x3f988d0bbe64f1d1U, 0xbf2ace3f3edc1d7cU, 0xbeaf869abf1c995eU,
  0x3e6487f9bf4d49d4U, 0xbf753d4cbf7508baU, 0x3e2876453f5759ceU, 0xba9313d43e187dadU,
  0xbf8d1c05bf257c7aU, 0xbf82fac33c2e3bdeU, 0xbdc8819cbee98299U, 0x3c3ffe3d3e642893U,
  0x3ee14c0c3f0d14fdU, 0x3dad87543f08143dU, 0x3f1e5087becba6dcU, 0xbe0787353e8c7bb2U,
  0x3e686ac33e975327U, 0xbf207587bfbb3ac6U, 0xbf03256b3e24cf8dU, 0xbea72b29bef0aedbU,
  0x3eaf62f8bc34eb37U, 0xbc4a12ac3c957299U, 0xbf8d9ad43c8157fbU, 0x3f573c293efb52f1U,
  0xbda3cbddbcb95870U, 0xbf573b403f34ca79U, 0xbf4530bc3f485184U, 0xbfe77ecb3dcb00ccU,
  0x3fccdeae3f7a22d1U, 0x3f55cb443edf664aU, 0x3f19e3143f2d4a4dU, 0xbda689663f194ab8U,
  0xbf123147bf1e9123U, 0x3e20a5ec3f192394U, 0xbe9566b93e58e902U, 0xbf44bc9a3e0092f8U,
  0x3e9a8d7b3f0f84c4U, 0xbea7cda93e442a7eU, 0xbdcaf2833d51e278U, 0xbf2e384b3e141297U,
  0x3ea1179a3d2e0d07U, 0x3e96b64bbee2b8bdU, 0x3cd499643db381edU, 0x3e6a6d95bf1793f0U,
  0x3daa85573f0efca1U, 0xbe9ee8e63e1e3e52U, 0xbd63b3203e4aa0e5U, 0x3e1024c43e1b2ef8U,
  0xbe6b4fda3d0b472eU, 0xbc6fdfa5be30ba28U, 0x3e2ee28cbbf5bff5U, 0xbe2b65ae3e368423U,
  0x3d559c283b9d5f14U, 0xbd82da773ebcd492U, 0xbf05e83ebe7817eaU, 0x3e7374d63e8c26c4U,
  0xbe8dd69d3d6919b8U, 0xbd0bba88be4ef6a0U, 0xbee41ca03e19f28eU, 0x3eaa80fbbe0672f6U,
  0x3e90d819bd3fd135U, 0xbe1c19a83e3b0f23U, 0x3d9b8ddb3eccb99cU, 0x3e0b818cbeff3429U,
  0x3e0d00ce3d2adbc6U, 0xbdfd68fe3d4465a5U, 0xbe5b0d09bedb572eU, 0xbd39b92ebe14402dU,
  0xbe1f451e3c2c20cfU, 0x3e5572fcbe1d50d4U, 0xbc21d9ddbe5a2115U, 0xbe8fbe9bbc2fc445U,
  0x3e8adea53d10d201U, 0xbede33203d395bdbU, 0x3e2351653e105da2U, 0xbcc3d0973c8a254fU,
  0x3de795223d832c88U, 0xbb9249543f24b9ddU, 0xbc9064a53e4bb238U, 0xbc9767f43e9baea8U,
  0xbd77dd5e3e5792c2U, 0xbdbd0d043e908b59U, 0xbd49ee92be063d87U, 0x3d0cc221bde6d813U,
  0x3d7f96893b9e80b4U, 0xbd00e64f3e82a7c1U, 0x3e10c32c3e2ae30cU, 0x3ec381eb3e2b1fdeU,
  0xbe18d0ef3c114485U, 0x3e264f8abd989ed6U, 0x3e8e5ca13e1a12b6U, 0x3da0a558bea984eeU,
  0xbe88b652bdeb8d8eU, 0xbe17511cbd1050f0U, 0x3e0e32793e462261U, 0xbe1d1a0dbe3bddb7U,
  0x3e4cdb6cbef4a4bfU, 0x3e6df6be3d96ee1eU, 0x3d175c50be4f793bU, 0xbdda9ef03e75eb1cU,
  0xbda5e3e5bdab4216U, 0x3edcac05bd88704cU, 0x3e34f651bcb23e46U, 0x3e3f2b1d3e903c98U,
  0x3e06f341bde6c876U, 0x38f031debe2d5a90U, 0xbeb55ad4be65345dU, 0x3eb91b99be3df8bbU,
  0xbd1adf2bbcbee81eU, 0x3e44cb183d95f0c7U, 0xbe114b553da1eb52U, 0x3e794a413e05e341U,
  0x3d3a987dbe9f4991U, 0xbe0f9c95bd394d29U, 0xbc174d78bdd28b7fU, 0xbe20c0933e0358abU,
  0xbd80c693be22f70cU, 0x3e1f293dbc168432U, 0x3c50c800be06a3baU, 0xbdabc97b3d7a2550U,
  0xbebd344bbe5fcb46U, 0xbd8e2f0f3d60873aU, 0x3cd65a48bed79647U, 0xbe6666353db8abefU,
  0xbe194fad3db76c1eU, 0x3e61bd4d3de19419U, 0xbe34579bbd96c992U, 0x3d843a47bc10fe18U,
  0x3d80a17dbdd65615U, 0xbc92ed693e733fa6U, 0xbe8827ffbdc1275eU, 0xbe326a63bdcc6642U,
  0xbe16d90ebd6634ffU, 0x3f22bf52bd4f4560U, 0x3ea78a743f0943bdU, 0x3d372dc0bd85f4c6U,
  0xbe80567d3d3777edU, 0x3e5645913e873161U, 0xbe0444abbdf6e069U, 0xbdba9fb33ec4f34cU,
  0x3dd3ae1ebe124f2fU, 0xbdd39f293c51fbd1U, 0xbea528d73d2aa93dU, 0xbdb619da3e320b2aU,
  0x3e24524ebdc8f477U, 0x3d6976df3d3ca703U, 0xbe5fedbb3cef320bU, 0x3e0ab8f83e508ed7U,
  0xbeb392aabe10f369U, 0x3e3233febe00cde5U, 0xbe327edbbd5f594cU, 0x3cebb94cbe47e584U,
  0x3d9240033d97e3c6U, 0xbd8f18d53e371e20U, 0xbe643c07bd9e706eU, 0x3e2cf0ea3b92a4baU,
  0x3e79ca5cbd97fd5aU, 0xba26ec2e3d5d7a76U, 0x3da53bc7be28344cU, 0xbe8367e9be41331eU,
  0x3c86d4bcbb555be2U, 0xbe61a9553e195141U, 0x3d979fab3dec40acU, 0x3ea600203e095039U,
  0xbe5b95993fe795f2U, 0xbf88f164bebd155fU, 0x3eb859bb3efba0b2U, 0xbd756d79bef62fabU,
  0xbed3d6e43debcddbU, 0x3e11799dbec1cdc7U, 0xbf1c2c403f4499ccU, 0xbf96a892be57dfb1U,
  0x3e832e183cc331f0U, 0x3e0d96c9be25308dU, 0x3fd1a62e3f95cd20U, 0xbf893651bf2f62b6U,
  0x3f094cbe3fae6d00U, 0x3e28a3f63fc0b379U, 0x3ca9dc04beb52c3aU, 0x3f88ca853f947a47U,
  0x3f190b313f5ee466U, 0xbf696844bee297c1U, 0xbf737e863f1ab4a6U, 0x3e6080da3f2be4d7U,
  0xbf6e26743f2f37bbU, 0xbf68e5383ea1d258U, 0xbed97764bd44bff5U, 0x3f0bf6afbd1f3509U,
  0xbf3c729d3ca57257U, 0xbf060efa3e3354b2U, 0xbfbce76dbe28f0a6U, 0xbf98697ebea090deU,
  0xbc2e6b873f9ef284U, 0xbd3605993f80db8eU, 0x3fcd83c73f68c38eU, 0x3e851fa53f70e366U,
  0x3e40b319bfef87d7U, 0xbfd6c6f1bf81ab26U, 0xbf8d324bbe87536bU, 0xbeef7c9b3fa65104U,
  0x3f2fbb4e3f5761a4U, 0xbf142ff3beb6743eU, 0xbfbf538b3f2459bbU, 0xbf278859be176b54U,
  0xbeab7bab3dadf33fU, 0x3ef2f3ad3ee90bcbU, 0xbf6e4a16be56cc71U, 0xbf7e311c3d4adcd4U,
  0x3f8f60cb400d8927U, 0x3e101c96bc6b31c9U, 0x3db27d47be68884dU, 0x3f9f9447be35d139U,
  0x3f57af663eeea96cU, 0x3f3aca1dbdd885d3U, 0xbcebcded3f1c168eU, 0xbf84fff43f009294U,
  0xbf2a0d3b3fd0c16aU, 0xbf088f43be202e1bU, 0x3ef53b53bfeda448U, 0x3e2af6973e1fd05eU,
  0x3ecce3d23fd28027U, 0x3f5285c1bf1697a0U, 0xbff5a864bf98b943U, 0x3ef4f9b5bd792171U,
  0x3d3379c2bf5a09edU, 0xbf462475be7d9e30U, 0xbea028b8becf0100U, 0xbda20e3dbe84e7e9U,
  0xbea5f1483e717d9dU, 0x3ead25f4bf184e1eU, 0x3f7bb17b3e2f4900U, 0x3fc419d23f1fc58fU,
  0x3ebe0e5b3e9c9455U, 0x3e5388e0be954a91U, 0xbed9a4783d6f2ab0U, 0x3f70fcdfbf46b9a3U,
  0xbe9e43563eb876cbU, 0xbe1887283f23ce99U, 0x3e9fbfea3d589551U, 0xbee6b801bda6a087U,
  0xbe6a9c41bebe8b4aU, 0x3e9e78473f49319aU, 0x3f1e19563f53ed0fU, 0x3f65a95d3f3323bfU,
  0x3f7a2fa73e059cbeU, 0x3ea51d183f9856afU, 0x3f96a450be5a8d3aU, 0x3e187f863e4316c2U,
  0x3f8a841c3ea22205U, 0xbf2edf4b3ed8c81eU, 0x3dddc0d6bdb33d10U, 0xbed74c4cbf26caa3U,
  0x3ee46a3c3ea39937U, 0xbf918005beb680eaU, 0xbf571e46be900680U, 0x3d92502cbf6370d4U,
  0xbde20ab3be9df67eU, 0xbf60f19a3f624a8fU, 0xbee9ce63bce3e2feU, 0x3f5aa551bf4431f0U,
  0xbf07f832bf0a0d28U, 0xbee8df303e3d8937U, 0x3f1c9db2bf1470bcU, 0x3e141086bee650ebU,
  0xbecafc003e368ad0U, 0xbe6cc9c93f06f4a8U, 0xbf783adcbf1991d6U, 0xbf17907e3f3ec334U,
  0x3fa1dd7d3d946747U, 0x3f5c36433f6db6f0U, 0xbe4e00c93ec2648dU, 0xbf12a35dbe9a341cU,
  0xbdfa684e3de5f0b4U, 0x3e498851bee35b9dU, 0xbf090497bbda94dcU, 0x3e7df038befa0a09U,
  0x4006a9373f018adcU, 0xbf2707ccbe3f4b95U, 0x3e62a860bf201c6aU, 0xbea01361be95dbecU,
  0x3e2ccc91be3c42b2U, 0x3ca0b4533f048c7fU, 0xbd843a613c119a62U, 0x3ecf3821be986fafU,
  0x3f0239723f9d0e46U, 0xbf8cbc653e156337U, 0x3e9fdda33eb93f30U, 0x3c544294bed6ccc0U,
  0xbfe6d431bf950846U, 0x3f80286dbd0eb615U, 0x3f3167afbd56e587U, 0xbfadfe79be1de537U,
  0xbf610849bdd35b5dU, 0x3ea92a233fac2e49U, 0x3f927a4a3fb2490aU, 0xbf1e74d8be54c480U,
  0xbdc72359bcbd4c64U, 0x3ec34f463fb8d807U, 0xbd82ae653e7dc025U, 0x3e9ff6683f62e168U,
  0x3f432c1ebd96084cU, 0xbf94edb4bf16dff1U, 0x3e2d0100bf0ca3a8U, 0x3f741552be71a7adU,
  0xbff091253fa1865eU, 0xbf4eb2113f954c70U, 0x3df6943bbf5a71d5U, 0xbe327f7dbf3d76f5U,
  0x3ecac466bd91eed4U, 0xbf38e1c83efe5872U, 0xbec84ace3f178bd2U, 0xbeaffdb73dcce319U,
  0xbf5592693f37dfa5U, 0x3f354d7cbe08daecU, 0xbf2c03e4bd534d9eU, 0x3f00f8ad3f83722eU,
  0x3f82cae4be60c0caU, 0xbf8505ad3f001a4aU, 0xbf110a97bf380e49U, 0xbdcc35d03f73a72bU,
  0x3e93a9863f22d899U, 0xbea3151cbeca51b4U, 0xbf5ecd9e3ee39ff1U, 0xbd977ac1bead7878U,
  0x3f3d380cbd4905beU, 0x3e8fa1b1bf3ce8d1U, 0xbe469735bf0b54b4U, 0xbee6313abe78ff3cU,
  0x3f2a456a40169197U, 0xbf44b8ffbe4ff2c6U, 0xbf6d1bccbf9d108eU, 0x3f2f5b3fbf8495ffU,
  0x3f91ba703f31c623U, 0x3ea3ebfb3e7306b8U, 0xbeaa25c13f2ba8a8U, 0xbe2d2180bb1cbec0U,
  0xbf565fba3efd375bU, 0x3f96131b3f0c550dU, 0x3daa7bdfbe845f2eU, 0x3ea9290d3e714b9fU,
  0x3e1c169c3f0cdcdbU, 0x3f1b64b63dfb2575U, 0xbf80765fbcd44edfU, 0x3d08435dbf0e1239U,
  0x3e42b9673f9df6ecU, 0xbf80f6c73eb5dd76U, 0xbe2e14f8be429cb7U, 0xbc49d02abef60678U,
  0xbfb5a599bf9efe39U, 0xbfaec62c3ee630f1U, 0xbe87c5e03e05d56aU, 0xbf521a2b3f349223U,
  0x3f2c91793fcbdd13U, 0xbefea30e3f020390U, 0x3f25cfa0be5dc081U, 0xbf3e173ebf231183U,
  0x3f99e6003e2293f6U, 0x3f14fdcabe9177b3U, 0xbf2f7f6abf552ca8U, 0xbc976a8c3ecb005cU,
  0x3fbac5a6bf10b6ecU, 0xbec8d89bbf7c50fbU, 0x3f90d7ad3faa01ebU, 0x3f68d2a43f4d248bU,
  0x3f0e253f3e84b14cU, 0x3f28b05bbe987561U, 0x3f9563fc3f33a8fdU, 0x3f49ab60bf5cdc61U,
  0x3ebf1041beaf58a6U, 0x3ee9ba833dd86acdU, 0x3e9f4deb3eaf7af2U, 0xbf08b23abe274a6eU,
  0xbf2a13783ea0f7fcU, 0x3d6cd6123fafbc3bU, 0xbf2aeff9bfab173bU, 0xbcc063573ede49dfU,
  0x3ec1e8893f13088bU, 0x3f13c7f2befd70b3U, 0x3f8b18d2bf2ee5f4U, 0x3e9fdaffbfecb337U,
  0x3f57b899bf093d05U, 0xbda5536bbf5c9a55U, 0x3f3364513ed9b2d8U, 0xbed4cca23f78c1a3U,
  0x3ce2735a3eb2f413U, 0x3ec1bc3a3f2c49f8U, 0xbee90ffabf0cf6cbU, 0x3f768b7cbf9e37d4U,
  0x3f584fefbfbdf84bU, 0xbe83e389bf3e77f6U, 0x3e656729bf54e7baU, 0xbbf10c063f625702U,
  0x3e9f2d79bf8c5e02U, 0xbeeb75f6bea804beU, 0xbf41fddebf57bbb9U, 0xbe816d0c3e8137f4U,
  0xbfcc56ba3f1fcfc3U, 0x3f0bd65abf51edc1U, 0x3f0fcdc7bec96ca9U, 0x3eac4b593e4f7f90U,
  0xbe1e064b3ed38e78U, 0xbebaeb5bbeff0cb6U, 0xbf25e0253f6b5e13U, 0x3e162fac3d34a6bfU,
  0x3e5b25113d869ca1U, 0xbd68357ebdf1dbedU, 0xbe063a8ebdf25b7bU, 0xbdc80bdd3ce344d5U,
  0xbd73586a3e2eb6beU, 0xbf04cee53e328bbfU, 0x3eb1b973bd9bd48eU, 0x3e573f003e2d808bU,
  0x3ec9eb71bdaa04a2U, 0xbc9ab53bbef0abb3U, 0x3e7213ecbc152436U, 0xbdaa2282bd4ee94bU,
  0xbd6337ff3d944a1cU, 0x3d3a239abe102021U, 0xbe962cca3dc1c329U, 0x3ecd8f5ebe9104daU,
  0x3e987e2c3d181516U, 0x3d04dc7abdd17bf0U, 0xbf00fd563f234411U, 0x3e2b7fe83de16021U,
  0xbeaccfb2bf00ec5bU, 0x3cef1c8bbe8b691dU, 0xbdededadbe19463eU, 0xbcb1234bbd3c4fd2U,
  0x3e07bb1b3d4d5928U, 0xbb937a723de6049eU, 0x3e3b1632be5333f8U, 0xbe23853bbb89341cU,
  0xbd564a943e7a6200U, 0xbea4caedbe199c48U, 0xbe8b2a12bc8b6158U, 0x3e5cca873dfcab09U,
  0x3df2b88bbe2add30U, 0xbeb848d6bf1c720fU, 0x3ea43a5a3e6d483cU, 0xbe486aa63de88cfbU,
  0xbdd43b37be3af1f2U, 0x3e2cb718bdab76c8U, 0x3dd3c3fe3e1ebcfeU, 0x3e65a2543e0e8083U,
  0x3e877af9bdd43244U, 0xbe1d97b4be089551U, 0x3e5fabec3e442628U, 0x3c64d56bbd6f6cb0U,
  0x3ed38ceb3e57b949U, 0x3e734380bdb2a3caU, 0x3e72bce23e522c05U, 0xbdda9753be4082e4U,
  0xba48d1cdbe37fccdU, 0xbdba963ebd393868U, 0x3e7e8ccebb8c7e0bU, 0xbea7c9ef3d7b271dU,
  0x3e8c268ebec6b1baU, 0xbec88659bdfa150dU, 0xbce323433dd57a1aU, 0xbddfd7d63d6b74beU,
  0x3e12dcf2be09df7dU, 0x3c099cecbe821d3fU, 0xbdfc25cb3ea5e185U, 0xbd263f253df9d64aU,
  0xbeb35e0bbf904b8aU, 0xbf5e2e6b3e08446cU, 0xbf5cc6f7bf806723U, 0x3f80644e3f236333U,
  0x3f32a90f3f2175b5U, 0xbf6b5403bcefc7aaU, 0xbf1e19ffbe98712cU, 0xbed423e8bd247525U,
  0x3d5b1695bfb2abf3U, 0xbe1550c03f0db8b3U, 0xbf91726e3f51a154U, 0x3d14350ebe1b4397U,
  0x3f1ab013be81fb61U, 0x3e77e29ebf80c5dbU, 0xbea07715bf31e97cU, 0xbf507008bedae170U,
  0xbf1cbbdebd3a00b5U, 0xbdaae634bef5b2a8U, 0xbe81bad1bf8b6e60U, 0x3eaf75e93ea5b73fU,
  0xbee61fe2bf5c5515U, 0xbdc08245bf9a2b36U, 0xbfb7ad193fb4308aU, 0xbeda62e6be3962feU,
  0x3e5b48a33e6a93c8U, 0xbf7d881ebe87f524U, 0xbed50193bc8aec92U, 0xbf575469bda0aa26U,
  0xbf03d27fbf30cdc3U, 0x3f06e843bf212640U, 0x3e9a23004005a269U, 0x3e76d54bbf9e3a9aU,
  0xbefb766c3ee1df86U, 0xbc0047d23db3a025U, 0xbf173f54bdad5d9bU, 0x3f0282f03fcf4facU,
  0x3f7dc404be3602daU, 0x3e5d1a5bbf48d3e8U, 0x3ec1f74e3eb32a7cU, 0x3db1958dbe89af6bU,
  0x3e700410be70ede8U, 0x3cf4d09bbca1cf7dU, 0xbe29c62e3da1cee2U, 0xbed38038be8b2296U,
  0xbea178303e0eef7bU, 0x3fa4c4ffbf533998U, 0x3e1b46163f4659ffU, 0xbe2b727cbe7daad2U,
  0xbbac1307beb2707fU, 0x3f21e7493e3289bfU, 0x3e36d17b3f64e830U, 0x3e0ab3f83ef011f6U,
  0x3fe32fe73f285f6fU, 0x3f1e2c373dc5de82U, 0x3e63f84e3f3702abU, 0xbd1a4bc0be09f2ccU,
  0x3eb9ea2dbd8d3f2eU, 0xbea50bcb3e3199a1U, 0x3f149bb8bf039c60U, 0xbda00cc8bf06a5cdU,
  0x3d477893bdc8b24fU, 0xbeade6dfbd51a232U, 0x3e930317bd6c1832U, 0xbde9881fbd4e467bU,
  0xbe06d0e3be0c8077U, 0xbdd7d76fbdda68b6U, 0x3dc4ef1dbca570a6U, 0x3d7104fbbe26d755U,
  0xbe2700e73d4ecae5U, 0xbdb699ab3c9ee004U, 0x3dd21dff3e418623U, 0x3e94fbcc3e4b0f45U,
  0x3da5ec82bcb9685aU, 0x3e1388f73eab8d38U, 0x3e5e2166be14a29fU, 0x3e130666be28657dU,
  0x3e98b7b43e51e71fU, 0xbe0916343dd65c56U, 0x3e850662bc9461adU, 0xbde4796dbe27fdb4U,
  0x3ea779d0baf4a3ecU, 0xbe7706cb3bf81f49U, 0x3b0192efbd371e05U, 0xbd1dffe4be1ebc9dU,
  0xbe8eba35be0a4725U, 0x3df0bee73e32820dU, 0x3e5b71a93dd5106aU, 0xbd63ad89be022e36U,
  0x3cbb85233dc0e5b8U, 0xbe08ddc53d806feeU, 0x3eafa4b83daac7e1U, 0xbdc380eebe925d5cU,
  0x3d8ea017bd419d16U, 0xbc084e613e2eca53U, 0xbdca03303c3aa1a9U, 0xbd8b3ddebe2e7409U,
  0xbdaf2c3d3e6f5ae9U, 0x3d971be1be00b724U, 0x3dbf03cc3daad124U, 0xbd29f2c93c9ea1afU,
  0xbda9adeabd9e353fU, 0xbd9ad3a23ddf5408U, 0x3df8a6f2bdaff3c5U, 0xbee056d6bb8d2b34U,
  0x3cd8f6b43dde02c0U, 0xbe3689553d175ce4U, 0x3e824326bdd0e0c6U, 0xbc94dbe63e90776dU,
  0xbc7002c8bd890649U, 0x3e01bad3be37387eU, 0x3d4a1e453e72dfc5U, 0x3d862c15be50fc0eU,
  0xbe51e7febdf10940U, 0xbda888163cbad247U, 0x3e0212023e20e796U, 0x3cc988363ca45984U,
  0xbce5eb96bdf13b80U, 0x3e67dacd3ddce568U, 0x3d7a68d5bcf6bfc1U, 0xbe2d528b3c9513dfU,
  0x3dc52c6d3e1b2604U, 0x3fbe6dab3e4e0143U, 0x3f7d95e0bd176bcbU, 0x3debff173f107cc8U,
  0x3fa21afdbfe777b4U, 0xbfa5d3ebbf6ffc4eU, 0xbfb91b4d3e0d1925U, 0xbde5a7d93ef5f0c9U,
  0xbfb3fdd83f1f48d7U, 0x3e6b97d03fa19761U, 0xbec800113e6e9c44U, 0x3f94ef50bf8e293eU,
  0x3e6828ac3db2f8fcU, 0x3f4081bf3c87e65dU, 0xbe8c37f1be77b89fU, 0x3f38323b3ccd2b9aU,
  0xbf204cf0bf280545U, 0xbde9e80fbe2f548bU, 0xbfaa295bbf691986U, 0x3fb1c5b240087c29U,
  0xbef86e8fbd50eeb4U, 0xbea4f17c3ed2a2cbU, 0xbee45fb3bf763a59U, 0x3f409f3cbf3b6defU,
  0xbea68dd53f89e9f2U, 0x3d9972ca3ef0bb18U, 0x3f57fd8d3f6dd3f4U, 0xbf35f2413ce24184U,
  0xbfcf3a34be463e6dU, 0x3d02bb7dbe74894cU, 0xbf34343b3f5e7d04U, 0xbdbc464b3db4efd7U,
  0xbf2979713d85bf46U, 0xbf2d1d573f19d2d3U, 0xbfc54b2abfb85621U, 0x3f4f799f3d31561bU,
  0x3e97e6f3bf255cecU, 0xbd29a176bf43e0d5U, 0xbf566f453e912ba9U, 0xbece5937be11c0cdU,
  0x3f8fa2bfbd1c9883U, 0x3f06c4e5bf312619U, 0xbeed5b2c3e878915U, 0xbf145585bd065400U,
  0x3f7f1ab7c016f812U, 0x3f0b94f4bed80de6U, 0x3e7eb4a4bf20e22bU, 0x3f74e33bbd042af5U,
  0x3f51a0fd3f50c66bU, 0x3f9207fcbda1575fU, 0xbea1360e3f33e31eU, 0xbef1db453ecd7f05U,
  0x3f4d588e3e630f43U, 0x3d7b15d6be93bcbdU, 0xbd71ef46bfb3873bU, 0xbd957732bf67b4cbU,
  0x3ed7ebdf3dbaefb0U, 0x3e22bbcf3f8590f9U, 0xbf1e7564bfb2ea73U, 0xbbbf44d63e9e8a1fU,
  0x3f1f59e0bff80c75U, 0x3e8cb7fe3fb26618U, 0xbee18ba03e5df8f9U, 0xbeb730e03e383dfeU,
  0xbf5475c13e4a6f65U, 0xbf962ef23f43cdb7U, 0xbe8b92f3bf889cdfU, 0x3f4a8f39be2e448fU,
  0x3f5c69283f55beffU, 0xbe81fd8f3fbe5f78U, 0xbfb408c93e931da1U, 0x3ea3bc3ebf18fc58U,
  0xbe996f5f3d440ba2U, 0x3f86f316bf327098U, 0x3f5eb78e3f0bfc73U, 0xbec42984bfa1ed18U,
  0xbf07490fbec2dc93U, 0x3fb5f301bf6eb9f8U, 0x3f1bb0c2be84d3b1U, 0xbf0bed88bdb7add0U,
  0xbc6c5dfcbee8d485U, 0xbf1666d7bf425ffdU, 0xbe05771fbf88a82dU, 0xbe8e1262bf1009d0U,
  0xbf7127093f112f3dU, 0x3f7e0ea53e550a02U, 0x3f9dd7733f090c93U, 0x3f92430c3ef8f1f8U,
  0x3c619ca6bf7be389U, 0x3f7fd568beb648e9U, 0xbf856983bf34a01dU, 0x3ef474febdef85a7U,
  0xbf9062ad3ed69ac7U, 0x3f135a41bb88b36dU, 0xbea793633e833d9bU, 0xbeef5b40bf22f219U,
  0x3d6845dabf32e3d9U, 0x3f311f1bbf023f4bU, 0xbf06f27fbe37dbcbU, 0x3f7f6a993e708433U,
  0x3ee8fe6abe68bd6cU, 0x3f30a9843f09d7a9U, 0x3e37d4dc3f8a0706U, 0xbf308b9d3f1ea9beU,
  0xbe1c32f3bdeb5e4fU, 0xbf19f741be4c31bbU, 0xbbd8786b3f20538fU, 0xbf7980b23f279db8U,
  0x3d6a15d4bea6221aU, 0x3f4dc9bebdd8e2beU, 0xbda6ffebbf371cd9U, 0xbf81a7e2bf8851f7U,
  0xbf3763abbfc1a8a9U, 0x3f81ac34bb8a0988U, 0xbf4b6551bd8f1cf5U, 0xbf685b3fbc1552e8U,
  0xbe5c265fbf9f6982U, 0xbf8478dabd56a4d2U, 0x3f91a4e4be83d729U, 0xbea58ebbbd68e36bU,
  0x3e2491a0bdaf2743U, 0x3ee0290dbde4b1c9U, 0x3ece44b23d795cf1U, 0xbdd1fe3cbe261837U,
  0x3e52ddaa3e28654fU, 0x3cddc8d63d72d95aU, 0xbe485488bd52193dU, 0xbd593c88bddf53e0U,
  0xbe2f1b4b3e1ca653U, 0xbd5065babd8ff797U, 0x3e6f70903edb8dbdU, 0x3d54e5b4be46417cU,
  0x3e2ecf00be44530fU, 0x3cb227b43db631e7U, 0x3dbe8d26bddea757U, 0xbea65fabbb965a2bU,
  0xbdab99903d08237aU, 0x3c818efcbe030431U, 0xbdf2a277be1ed84eU, 0xbd0fee093ebbb74bU,
  0x3e0c5ba23eb6e5baU, 0xbe271b8a3e5d8637U, 0x3e2d3e863e814aafU, 0x3da414cdbd0db540U,
  0x3e49ad563cf5e2c7U, 0x3d5ac9fbbdd514dbU, 0x3dd77ae93dd2dd4eU, 0x3e83f764bd6960efU,
  0xbe8a01483db9bda2U, 0x3f08cc15be617a75U, 0xbe686863be3e5c6cU, 0x3cb971d1bdf053d3U,
  0x3e7a46c7bdd6302cU, 0x3db73babbf18e873U, 0xbe34a7cfbe117fe8U, 0x3d99fab63dffc933U,
  0x3e2507bdbeb3e28fU, 0x3b9eb421be098e2dU, 0xbd1a752b3d272cb6U, 0xbecadf1a3e9b12d4U,
  0xbe5a079f3e56819aU, 0xbda6a238be68238fU, 0xbdc1a353bcf61ba7U, 0xbe58fba13dd0cf68U,
  0xbd3a3f293e899c5bU, 0xbe1118803e3084e2U, 0xbe1dbf9cbd93187eU, 0xbe61cda53e926ea0U,
  0xbd375d713dae343dU, 0x3d67a5363d3e98b7U, 0xbe13e62abceb8eebU, 0x3db02fd8bd5d5f6bU,
  0xbeed12893f254385U, 0xbd9c736cbde211b7U, 0x3e8d4b303eda8b84U, 0x3db5e2ef3da261d1U,
  0x3d4406ee3d082ac2U, 0x3ddb60323eb0e071U, 0x3ddbc0263c4e7eb5U, 0xbeff1a21bf1dc55cU,
  0xbd22a97ebd1664cdU, 0x3dc1a9a93cef14e9U, 0x3e931c9c3ea30bf3U, 0xbeb2dc12bd166996U,
  0x3dcd47dfbeab9427U, 0xbd825c5abd10fa54U, 0x3c194f113dbea1e3U, 0xbdca96d6be7a8051U,
  0xbdaae0183e6d5a79U, 0x3da996dabed7be50U, 0x3e5f19443dbe1770U, 0xbe321e78bdeba29fU,
  0x3ea7739ebe366889U, 0x3dca3a5a3d019742U, 0x3e9b9588bdfc1e58U, 0xbead954c3e695fc4U,
  0x3dc8b4a93ebf4a90U, 0x3dcd85dfbdc077d3U, 0x3cea3e183e8bf6c2U, 0xbb5646aa3dbb7c3bU,
  0x3eced8833e53c3c6U, 0xbd42fa3f3d920b4dU, 0x3f1877c73e6ba571U, 0xbdd8fd433de26595U,
  0x3d1b37663d39e60fU, 0xbe1cf0f2be245e48U, 0x3e75ebf43d05b528U, 0x3e8f5443be6307bbU,
  0xbd49492a3e80f6ecU, 0xbdf80fbb3e65dd82U, 0xbe06386bbf230512U, 0xbe9d35bebd823b21U,
  0x3edc4c36bdbe523eU, 0x3d33c69cbeee412bU, 0xbd86182bbca11a21U, 0x3db56ae4bf5d708dU,
  0xbcfd66c3be5cbe0dU, 0x3e95aadabe577209U, 0x3d45a3c4bd1e1960U, 0x3e706cc8be945ff2U,
  0xbe52b70e3d54b01dU, 0x3dea1ba0be186396U, 0xbb8c0fcc3e29e783U, 0xbf3dd578be03482bU,
  0x3d6e879cbe647a66U, 0xbe9e67e03c61572cU, 0xbddd550bbe5a09c8U, 0x3b993d3a3e20b770U,
  0x3e16f28ebd80d510U, 0xbda4bce7be30b876U, 0x3e954f41bda84292U, 0x3d9871af3d836c08U,
  0xbf396e0f3e937f31U, 0xbe18afdc3dd3fcf2U, 0x3e33429e3e1882c6U, 0x3d8ed0473db8ac6cU,
  0x3dcf562a3df7ffadU, 0x3e57b87cbba641bdU, 0xbd701c47bef3df9eU, 0x3e931922be7ba7e4U,
  0xbd453c9b3f08826bU, 0xbe38f87f3db01794U, 0xbd9589413d268fc2U, 0x3d84dac13e9a63a8U,
  0x3d9bf66fbeb4880fU, 0xbdd34e7fbe503156U, 0xbea0c3503db65ed7U, 0xbe7ab44bbc086152U,
  0x3e0001e4bec03aafU, 0xbcfb6d86bbd0cc19U, 0xbf186533bea57b4cU, 0xbe7459583cde22cbU,
  0x3cb587b3bd9665f2U, 0x3ea52c33bcbf66a3U, 0xbead6c233ed849baU, 0xbea087a8bd4fa3dcU,
  0xbe4c9cc43e87ab71U, 0xbe96f9b23d259447U, 0xbdfab0a2be907868U, 0x3eac1884beabe856U,
  0xbe45dc9a3ebe908dU, 0x3e46fb873dbf4ee5U, 0x3d91f1f1bf1297b7U, 0x3e69ac413e2fc68fU,
  0xbcedfdf1bd8701d7U, 0x3e66c4edbe512604U, 0xbc27809b3d2206f3U, 0x3d3e04b73e0a4444U,
  0x3ec8f63bbddfc59dU, 0xbf121124bea7895bU, 0xbe28e45ebe5c03acU, 0xbeb599bd3dab8557U,
  0x3eaad6bd3e56d2deU, 0x3d7f040e3f1db894U, 0x3e39aa0d3e02578aU, 0xbd96bf3cbf07a730U,
  0x3e3c1858bb99ccdaU, 0x3c2aa2a43e831f50U, 0xbd2b580dbd3fbcffU, 0x3e696e79bf0964ffU,
  0xbc147642be79db86U, 0x3eefc2123d8cc593U, 0x3d849b0dbd4cdeb9U, 0x3ede10eb3da5ecccU,
  0xbeffcbf4be431c24U, 0xbdc75ce0be359748U, 0xbd5c8da33e75a7abU, 0x3e9b9649bdb81dedU,
  0xbd2666e43d0eca6eU, 0xbe84d28d3e164e1fU, 0xbc52b2e3bd1de132U, 0xbd7f8df03e780563U,
  0x3e7e0cc2bf037fceU, 0x3e411a5a3df5d7d7U, 0x3de987f9be02ccebU, 0x3e4ef1973e4d4c0eU,
  0x3dca7c0f3df094ddU, 0x3e0a7634bec18215U, 0xbd9e06ecbe2f9391U, 0xbd0846703e36b77dU,
  0x3f1a179bbedd2329U, 0x3fac4bf0bdabcd49U, 0xbf02a3dabf3cac11U, 0xbe9de37fbdcc469aU,
  0x3d16cb2f3f438520U, 0x3ea6a8febe3838eaU, 0x3e3352173db63c72U, 0x3f346e2b3e6ebbc8U,
  0xbdb362b7bf2eb09cU, 0xbe338511bf15a00bU, 0x3f8bb0dbbf19d467U, 0x3eb2aad83f1aa429U,
  0xbf145614beb26257U, 0xbe5b1f01be53be43U, 0x3ff6166dbda941ecU, 0x3e0f99753ee8916bU,
  0x3eb1ce4fbd35960eU, 0xbf3621db3fa29408U, 0x3f4fe569befed256U, 0x3f028628bf165613U,
  0xbf1c6e18bcea1233U, 0x3ea084413f1ae0b2U, 0x3d6cc7c2be7e6e49U, 0xbe2f73dabe76aac2U,
  0x3fa4f269beecddaaU, 0xbf1f9b8d3c9c083cU, 0x3ea4346cbe2132b8U, 0xbe8560303d8c7b98U,
  0x3f117795bf897427U, 0xbf9f788dbeb25f66U, 0xbf7e9b45bfb5c03aU, 0x3df579183f1eb3a0U,
  0xbf8b03e03d41e47aU, 0x3ef41a304019d11cU, 0x3f0e9e7dbf3da9f2U, 0x3f6b03d93e7153b9U,
  0xbef0569fbf9f4c5aU, 0x3e36f2ea3f2056f1U, 0xbc4b68eabef3f58cU, 0x3ef34890be065ca6U,
  0x3f03aafb3e6d416eU, 0xbeb3bbebbefa4bb3U, 0x3f556d77bf0a0831U, 0x3f592615beeebf49U,
  0x3e00587cbedd54a7U, 0x3ea14845bea62d29U, 0xbd9285c4bf33ac93U, 0xbf6c9286be3e63e9U,
  0xbe60faa03db7fb8cU, 0xbf1514483d1ffaf0U, 0xbe7aba6cbf59a4ecU, 0x3f88eea93d398d12U,
  0x3f4f1f7ebdbff82dU, 0x3e942b98be1a96d0U, 0x3f18b6cf3f8bd46bU, 0x3ecc0994bec2d4dcU,
  0x3dcd919ebf969fa8U, 0xbf0579f23f2aceb3U, 0x3e8eb17e3e0c0becU, 0x3e42c3013edae2d8U,
  0xbe8cbe703f43bdd4U, 0x3ef877a93e4d433cU, 0x3f2cc38b3f04bb52U, 0xbef9248e3e952d2fU,
  0x3fcda3ccbf92430cU, 0x3f905eabbef30d2aU, 0x3f24a3eb3e225911U, 0x3fa53730bf0e8fd1U,
  0x3f9e5400bf4362ecU, 0x3e450441bf3d39abU, 0xbc8e04dabfed34d2U, 0x3e437efabed9c8baU,
  0x3ed55b503f1e5b90U, 0xbe9183043f2fd6b6U, 0x3d4fc7b33f055229U, 0xbf0e9bdfbebe6406U,
  0xbf25622c3ec36816U, 0x3f2e18793f0892efU, 0x40120b6a3fc41556U, 0x3f02a40fbf2a3392U,
  0x3f3dab293f6fdcfdU, 0x3f2c00febeb83859U, 0x3f74ec80bf811c13U, 0xbe4281873d902caaU,
  0xbf8c92b43db5fb21U, 0xbfaf127f3f3c46f0U, 0x3f1c65cf3e878e0bU, 0xbea398cc3e519e49U,
  0x3eb1ca993ee72f2bU, 0xbf5db0d6becf5044U, 0x3fd614a03ea2f8ecU, 0xbf33bf033d86ceffU,
  0x3f9694a2bece70a9U, 0xbf0de7c13f1422b6U, 0xbe8274c33ef4ef90U, 0xbeebd6a4c01e3f75U,
  0xbf2af6e5bedbb0eaU, 0xbf8178163f3317e8U, 0x3d22bec4bf9225e4U, 0xbf008e333eae9bfaU,
  0x3f4eab5fbecffddfU, 0x3e06a96a3edcd6ceU, 0xbe76b9a8be36bb17U, 0xbea59f773fd3a574U,
  0x3f755133bd37df0cU, 0xbcd36edb3f56f9a5U, 0xbf19cd663e7e4a08U, 0xbe1d85a8bf03cb45U,
  0xbdf7580d3ed1b55cU, 0x3f04fd5fbead07d8U, 0x3f19d1b9bf514c27U, 0xbf63c7afbf93930fU,
  0xbf2614c63f9fcf67U, 0xbfc8d29abe61df28U, 0xbf359b6c3e29a188U, 0xbf80bb01bca08f4aU,
  0x3f2ba2853fb4290bU, 0xbed832d7be5cf03bU, 0x3f22a21f4016556fU, 0xbf0e28ffbf9667a0U,
  0xbf1c64643f765938U, 0xbe861ef6be5e7d56U, 0x3f97a868bf0f1020U, 0xbe39b36b3e2a2020U,
  0x3f57c7d140149e7bU, 0x3f01d00b3c4693edU, 0x3d22568fbe4de168U, 0xbdeb3e83bf225591U,
  0xbebbd32f3fa7a31eU, 0xbdf432213f21e47bU, 0x3fb23c02bf45cd0dU, 0xbdc2d50c3e8baf43U,
  0x3e87e9a6be836e19U, 0xbda7d608bf3faff5U, 0x3f172452be94a432U, 0xbf82af9fbe63822aU,
  0xbe162220be88b7e7U, 0xbe0e32fb3d169b46U, 0x4034897ec0083159U, 0xbf967736bf37ec0eU,
  0x3d4be629bd0448a0U, 0xbdf21b19bee3b5d6U, 0x3f0bfe513f068d36U, 0x3e2347743f141384U,
  0xbf33c6b73ec46f7cU, 0x3f5573bfbebbae55U, 0xbe7f0070bdafdf8cU, 0x3e84995fbe2316eeU,
  0x3f5a4fd8be01fbcdU, 0x3ec6425fbe9a6617U, 0x3fb377d13d666c4cU, 0xbf829d38bec7360aU,
  0x3f53ac773fa4d873U, 0x3e4c203e40073160U, 0x3f0595873f29a0adU, 0x3db70fb9bfb86b01U,
  0x3e33ab713e8ce8b9U, 0x3f1df9713d924a2eU, 0xbd399e273ebf6679U, 0x3f418df2be05a1c9U,
  0xbf0776f83d90b15aU, 0xbe982049be177ff7U, 0x3f2e148fbf4ef2ddU, 0x3f0763d93e6cf5e6U,
  0xbf717cf4bf369d30U, 0x3d6a509a3f02bd4dU, 0x3e3c3d183f20b7d8U, 0x3f1e6a5e3e8a1ee0U,
  0xbed06299bdcaadf8U, 0xbf58815e3e55c7bdU, 0xbd608cd43e8a1443U, 0x3d1309b1bef6c8c3U,
  0x3f258d8bbe9cbf5fU, 0xbdd795023e123b00U, 0x3c160c343f328304U, 0xbdfbce0d3e46b758U,
  0xbea0fcef3e755506U, 0x3e0b57d9bf06eccbU, 0x3f21947e3fe8a009U, 0x3e6b62acbebb3c54U,
  0xbe999660bf009916U, 0xbf04cf513ed9e18bU, 0x3ec1b1fcbe32045bU, 0xbf4102c6bf086eb8U,
  0xbec448673e454b50U, 0x3e5a24243f8c7b6aU, 0x3ea6dff7beb0866fU, 0xbe9aca94be4a5fb5U,
  0x3f1a2196be168ff7U, 0xbf50750bbe477d2eU, 0x3fab3b843e848e23U, 0x3edf74b63eca07cdU,
  0xbe953886be464630U, 0xbe02f859be9a7730U, 0xbeb411b33f366d36U, 0xbe2bde2abe890831U,
  0xbef4e5f7bf60a3fbU, 0x3f39fbad3ebee615U, 0x3f7ef109bfb98524U, 0xbfbd1b09bf2d908cU,
  0xbe1aa9babe539c36U, 0x3ec6e3cbbf944f2aU, 0x3fb51c203ea32de3U, 0xbe564c50be5ccbe8U,
  0x3e915745bf06c2d1U, 0xbe7177b2be33f2b8U, 0x3b68edd3bec7082cU, 0xbdb6aab2bf49981dU,
  0x3ec878eebd71bac9U, 0x3e8959ae3fa6e0e1U, 0xbf3641b5bf108ab5U, 0xbe46ad92bf647e6cU,
  0x3fa8be6a3f4edd73U, 0x3f2294903fc1f4e3U, 0x3f8a01923ed4862bU, 0x3ea031c23f136b44U,
  0xbf2f38ca3ef11a5aU, 0x3e030aaf3e1ff1f1U, 0xbe92fa223f0c3f65U, 0x3f8ca00bbf4a71c7U,
  0xbea0cbf43f39652cU, 0x3e5cf6fd3fb8bf23U, 0xbda044d13ec1dfdcU, 0xbd0858e0bf60de13U,
  0xbf6932e23f310be3U, 0xbe882a00bf0ee9b6U, 0x3f30a19c3ea511f8U, 0xbf3b23cd3f34515aU,
  0xbe30f677bf126742U, 0xbeb596663eb1cc8dU, 0xbf80fe003e4276afU, 0xbf04abb8bee3e7b0U,
  0x3f325c313e4167e0U, 0x3c33f24bbef463fdU, 0xbde075d1bebab4b3U, 0xbea39d43bdeff807U,
  0xbf4a1cefbf21bbcbU, 0x3eb1f685bdfa1572U, 0x3e9a110e3b434fc5U, 0xbe556daa3ea0a802U,
  0x3deab7e83cb22390U, 0xbee158363e62e2cbU, 0xbed8da29bdc4cca5U, 0xbe6f6f14be0afa22U,
  0xbc809f01be81bbebU, 0xbbd750a9bd717047U, 0x3d7f46763c315aa6U, 0x3d6a41d2bd8c4e4cU,
  0x3e17bd35bf1b8df8U, 0xbcbd6109bf10f377U, 0xbbf905b43eb60352U, 0xbb2fc4fb3e269fb8U,
  0x3e1a5ba2be88c880U, 0x3e059be83e304aaeU, 0x3e9cdeabbed69bb5U, 0x3e8c013d3e06b5e4U,
  0x3df62ac63e9e7903U, 0x3e837f93be4869d9U, 0x3dcbe0ffbcc259f3U, 0xbe4ac7ec3e3442e4U,
  0xbd0ce7af3e0e8ccbU, 0x3e181f7ebe1738c2U, 0xbde65a223e854cd1U, 0xbe28b05a3cb7114dU,
  0xbe83d94abe408368U, 0xbe1981643d10f17eU, 0x3dd94a633dc1c5b4U, 0x3e31ba6f3e877e97U,
  0xbe9af7393dc616aeU, 0xbe98284c3dec4817U, 0x3e2363133e767ceaU, 0xbd6bd6343e0b3f8eU,
  0xbe3caaf0bdd24e78U, 0xbeab541fbaf9b8d5U, 0x3e07b81b3d2a69d7U, 0x3e9e4933bec24975U,
  0xbd2589093e28eea1U, 0x3ded711fbc69adc7U, 0xbd3b29bfbd5dbfe8U, 0x3ec1f01b3eecd931U,
  0x3e18ba9a3cf52651U, 0x3d29d32c3dcb5fdcU, 0x3dc4449f3d9e4d88U, 0xbf2ba0d23cc7647bU,
  0x3f0230263e448b90U, 0x3d282b873e882a0aU, 0x3d68c0cb3e2415f1U, 0xbe1c4bbb3ec725c3U,
  0x3d6e68e13e0f472fU, 0xbd72e3a73e2efb6cU, 0x3e1b4f3e3eac6d7cU, 0x3c5541be3e7cef06U,
  0x3e54bd15bb8a174bU, 0xbd93c1e7bd5fc1f7U, 0xbe00bcf3bedf3dd4U, 0xbe275f01bdc01dc3U,
  0x3c34dda13e4961f3U, 0xbe951fc93d95ed4eU, 0x3e010b07be3b5d95U, 0x3de18dc7bc6b0073U,
  0xbcdd49503f2bc6a6U, 0x3ef18f893c465598U, 0x3e885aa13f186a4fU, 0x3e13501d3e2181c8U,
  0x3eae5dd9bf58e162U, 0xbe58ef68bf119fe2U, 0xbee23b17be1c9358U, 0xbeee96c1be9c4088U,
  0xbe44a9dc3e46e79cU, 0xbed3bfa3bde446b6U, 0xbe7ac3fd3e3b5a66U, 0x3ee2cf44bec33fddU,
  0x3e2bfc0d3c93ee0cU, 0x3ed16606bdcae4a6U, 0xbf310bb53e83cc48U, 0xbf783c7cbf616ff5U,
  0xbf5ff543be355d51U, 0xbe15468bbf02873dU, 0xbe4115e93f3b9498U, 0x3e9946883f2086fdU,
  0x3f6c7a6fbfa67b6aU, 0xbf8d296cbf1c6be2U, 0x3f61689bbe6a0f93U, 0x3e10fd30be62401aU,
  0xbf8a776e3ec0585cU, 0xbd0e63bf3e61d0e4U, 0x3f2303cc3e8e5d98U, 0xbf8555a73f2eea84U,
  0x3da6336e3f08389dU, 0x3f9f231bbea2fbf3U, 0xbf6f02553f91fa3eU, 0x3e98d4e13e7eff7eU,
  0x3e37776abf6f33ceU, 0x3e4535973f4b44a8U, 0xbfb6dab43e805175U, 0xbf95f445c0146257U,
  0xbf0141e03eb86d9eU, 0xbd93b328be274474U, 0x3f35337abe950694U, 0x3e0102503f1a1f36U,
  0x3ec6893e3e4423f7U, 0x3f02a72c3ed9b255U, 0x3d7e8a4a3f2c7766U, 0xbe836bc93f4d1778U,
  0x3f1ef0bc3f8daeedU, 0x3d780ec7bf28136eU, 0x3ea82c8f3e85abb3U, 0x3f3147f7bf82fc87U,
  0x3dc06e1c3ef316d3U, 0x3fb4d5b3beb230dcU, 0x3e43a53f3b90ecceU, 0xbf018b57bec5ba50U,
  0xbc124b4dbf02ccc2U, 0x3f05941f3e120181U, 0xbf3e9bfcbf88b960U, 0xbe117089bea7a46cU,
  0x3e83918bbe262b65U, 0xbcaa3e66bccad69bU, 0x3f52aa8fbfbb9405U, 0xbee33df33e83ebb0U,
  0xbd7490b3bf9e9f3aU, 0x3fb97b02bf11e0d6U, 0xbfc384edbe31733dU, 0xbf94df0fbe45ee0fU,
  0xbe167b1fc0117600U, 0xbf3d63ccbf09243fU, 0xbf73c9f03f11954fU, 0x3f3e95403ebb6d92U,
  0x3f5e7feebf51f3e7U, 0x3e0233e53ef400bfU, 0xbfb2943bbf1a8f6fU, 0x3f912382be3051e2U,
  0xbd865a0d3f467c70U, 0xbf18e6d43f1c1715U, 0x3f60b425be4dc8dbU, 0xbea618bebe530712U,
  0xbf850373be4b0db2U, 0xbe8797853f25c0cdU, 0xbfe46b783fbb435dU, 0x3f85cd253dd6992cU,
  0x3da64af53e3409c6U, 0x3fa95b903f513368U, 0xbf0de162bf1c6dd1U, 0xbf0a57783e03841eU,
  0xbd73a3463dbd2f16U, 0xbf54174d3d2d15eeU, 0x3f193ac6bf2c4642U, 0xbf8e5e00bf233df3U,
  0xbe40c944bf2f682aU, 0xbf8507983f370c3bU, 0x3e3a80933fd8ab36U, 0x3eab53bcbf4ec202U,
  0x3ea8ddd6bf8611eeU, 0x3ec8942e3f823525U, 0x3f998a2bbdb7ab9fU, 0xbd56bd6dbf355b4fU,
  0xbf8a0940bf727247U, 0x3e3f7a393f01de52U, 0xbefbfc14bd810673U, 0xbf95a90bbef109c3U,
  0x3e313b493e0a7b68U, 0xbe9464c73f07a3b2U, 0xbf2760893f174c79U, 0xbe819b113f05931bU,
  0x3ee18816c0010b7eU, 0x3e1f84573ea088c1U, 0x3eefe2503e985f40U, 0xbf2e9e36bda04ed4U,
  0xbeebb696bf1cbe50U, 0xbf08fe6d3e8d29bcU, 0x3f001721bee29ce2U, 0xbd5277033bbb01f6U,
  0x3f82e9ad3f7a986cU, 0xbf927238bf45bb26U, 0xbdc8288dbdce36f0U, 0x3ea26553be965c7dU,
  0x3e0bbe2bbf2c72c7U, 0x3dc67b483f0c7d04U, 0xbc676dc8bfdb53d1U, 0x3e2ba223be921c22U,
  0x3e5e306cbeaf1d5aU, 0xbe7bd0cdbd960a47U, 0x3dfde5b6bdfe311bU, 0x3e5f89e7bc933ce4U,
  0x3e536c95be5ed4d2U, 0x3edc43813d202fa5U, 0x3de8c9003db5ba3aU, 0x3e0d1c7c3e9f963cU,
  0x3e2afb18be5adbadU, 0xbd5a09603db1c6f8U, 0xbe2f8d94beefc967U, 0xbec126da3cd14b01U,
  0xbe16eb143d9bc4f7U, 0x3db173d3be1e788cU, 0xbd11baab3cf43906U, 0xbe9187553d235b37U,
  0xbe710a3cbe47fd3fU, 0xbee708d83eb7ffc8U, 0x3e7efcadbf10ac72U, 0xbea957933d94078aU,
  0xbd8afe113e0417e0U, 0xbd6b13033ea2cf3fU, 0xbded18a4bdc2023bU, 0x3cb8d57e3d7ca5d9U,
  0xbe3b4a75bde3c1f2U, 0x3e95d44f3e1e4512U, 0xbeb72960bdbe75beU, 0xbe867e403dcf165bU,
  0xbe46c544bebb9e02U, 0x3ebeab06bd2b8fb2U, 0x3eff5d243deeafd3U, 0x3d7130c2be94c596U,
  0xbe2cbd5b3e9141b6U, 0x3e947a6f3f73fd3dU, 0x3c5eaed6bdb62545U, 0xbd5f89653e88cb5fU,
  0x3d853cb4bd951a04U, 0xbdb047b63d477be2U, 0xbc0f982e3d6c1c50U, 0x3ea0b2fbbd6d5dc5U,
  0x3ecd39e53b000211U, 0x3e5ece553d278cb7U, 0xbdda44ac3d24becdU, 0x3eab6f183ede86faU,
  0xbe89f0a5bee7e1d4U, 0xbd2d09f23bd70812U, 0xbe56586abe130729U, 0x3e503fc2be84674dU,
  0x3e682d3c3ea35c18U, 0xbd952a303db8ab56U, 0xbef34bbebdcae58eU, 0x3ebe7b003e0a539eU,
  0x3e92d9b43e319a73U, 0x3e5ff2cfbcf2b6d1U, 0x3cca6fc5beed3981U, 0x3d38699b3dc8b6cdU,
  0xbe2a08c73d69b4e7U, 0x3e00c081bd58190dU, 0x3e3265f83e7affd4U, 0x3c36f2dd3e2c0c98U,
  0x3ef1bead3e9e1dc2U, 0xbfa168ca3ec96e26U, 0x3eaad4ca3ee1ace2U, 0x3eb770db3f26dcd3U,
  0xbedea332beb15a03U, 0x3f9106cd3f1b2d38U, 0x3e22c78bbcd74122U, 0x3f7e28533f655e5dU,
  0x3f3a88c03ed0e0bdU, 0xbe129396bd8d2abaU, 0xbf2e133c3e990e71U, 0x3e04cc7cbf4c2fdaU,
  0x3e14785b3f67aa6fU, 0x3df1a41f3db36995U, 0xbf288daf3fc3ddb6U, 0xbf8a3e2abf702cdfU,
  0xbeeb5cb33ae47fc9U, 0x3f4ad8423e8bb324U, 0x3fe622453e29ab10U, 0xbd9b2096bf044c1bU,
  0xbd187d06bf333a3fU, 0xbe846bbfbf31e0adU, 0x3ff13edfbfcb6496U, 0x3f27f9963ee887ccU,
  0xbf8e5ad73f03a9b7U, 0x3fbd16153d7ac72cU, 0xbf30877d3eae5013U, 0xbe4eb0c73da3996bU,
  0x3f92b6b93ea112fbU, 0x3faba2e9beff6fc8U, 0x3f050b0cbed5e7f9U, 0x3e1fbe01bf2c3c92U,
  0xbf53d696bf3aa48cU, 0xbf905dd6bf20b5eaU, 0xbfb7ae833f5e4030U, 0xbfc19a95bd056a6fU,
  0xbe8d512c3f39991cU, 0xbf1404a73ed1a0c7U, 0xbdcf2a68bf1625f0U, 0x3e6567bd3f8e5c4eU,
  0x3e8d1949be382f83U, 0x3eba2aea3f2b82a8U, 0xbf251c9d3f936beeU, 0xbfbfb5c33ff7818aU,
  0x3f3a7ce3bd81072dU, 0xbf5afb813f5e5b15U, 0x3ec35dc33f281150U, 0x3dcfe3dd3eeaf8e1U,
  0xbe20733f3cc90925U, 0x3f486f19bf16e508U, 0x3ed58fd5bea1cfa4U, 0xbfdc9535bf9d83cbU,
  0xbfb90271bf376066U, 0x3bd0fae63eecf795U, 0xbe9dce67c005e04cU, 0xbed2cfb93f6853d4U,
  0x3ddc86ffbdde0429U, 0xbf040378bf386bdcU, 0x3eaf4d353f5ad175U, 0xbeffe761be11a041U,
  0x3f5cc5bd3fb44c31U, 0xbf2664b93efa25a8U, 0xbfaa9aef3e79ddc3U, 0x3eef7e6c3e18e440U,
  0xbea8a6d7be8c33ceU, 0x3f5302c1bdd3be28U, 0x3fbbde22bf722f78U, 0x3ecbfe34bf1bbc40U,
  0x3ec9627ebe69eea8U, 0x3f6c76643f2788ecU, 0xbda78964be15c4afU, 0xbe3afca63f0a1411U,
  0x3e192f473d0ebce7U, 0xbeee58293f30f9baU, 0x3fd67d09bf8e280dU, 0xbe8e9edd3eba4a7bU,
  0x3f5ac18d3f693f60U, 0xbfa663f23ee077b2U, 0x3eb595efbf3ec557U, 0x3f76d49cbf8d4fb5U,
  0x3f1587aa3f777ee2U, 0xbf51286dbf1aab0bU, 0xbe1e47b3be90394aU, 0xbf352a313e995a44U,
  0x3e381426bf62b2faU, 0xbe43378c3e928d1eU, 0x3f6394c73bdd0adfU, 0x3efc78893f372689U,
  0x3efd53bb3e9e202cU, 0xbf10ac62bfd05f68U, 0xbe54a86ebf199d19U, 0x3f2112253fea59f4U,
  0xbf169d183f40340fU, 0xbeb84e1ebe805a24U, 0x3b156d953e8865b3U, 0xbef06ab73fae5eb5U,
  0xbe92128cbf87a1ebU, 0x3d8368f63f35b66bU, 0x3f3a9cc6bf993df6U, 0xbd447da23d625021U,
  0x3ebb0f93bef9dfa8U, 0x3edd591cbf046850U, 0x3fae58edbf94d961U, 0x3e562d443e64719aU,
  0xbd1366793cc5107eU, 0x3ef3f942bf15c651U, 0xbfb5bd50be7c9addU, 0xbd0794dcbfc5667aU,
  0xbf1388ad3d99e6ffU, 0x3f338049bf281ce9U, 0x3f4c09b9bf114f80U, 0x3f8d8a633f0cd430U,
  0xbecc6423bd483e57U, 0x3fb6bb9d3f713755U, 0xbe3383d23f6875bfU, 0xbe9ade653ea0c2efU,
  0x3f016fcf3f0b49a3U, 0xbe58d88cbe678a96U, 0xbdcfd9333f8f69aeU, 0x3e8dba91bfa0ad82U,
  0x3e9267053f52c76cU, 0xbf96cdea3d262925U, 0xbf5a5400be94c03dU, 0x3f1df8483e8f6bb5U,
  0x3e7b5b1a3f02ed22U, 0x3dba824fbf7737e4U, 0x3f8e69f4bf1c8fd8U, 0xbecd4c2ebf703301U,
  0xbf993f89bf87729aU, 0x3f6541f13eec2ff6U, 0x3cfcc3a93f8c3b21U, 0xbe2f42ed3f44fa28U,
  0x3d0e0581bf279bcbU, 0xbeaec7ab3d652e65U, 0x3f880e1ebfe18729U, 0xbf83b4ed3f443062U,
  0x3f4cda743e852831U, 0xbf4aaac9be3f9033U, 0x3fb382313e8cbb8dU, 0x3f6bad70be6a026cU,
  0xc00249f03f829537U, 0xbfa0944d3eb571c3U, 0xbfbe20ef3eec4c50U, 0xbf4d14d33dc08242U,
  0x3f4ea5f23cd0ec96U, 0xbf3be425be4d8246U, 0xbef865e8bbc94844U, 0x3f2f6a7d3f0dbbd0U,
  0xbf5f7445bca79ecfU, 0xbf362626bf896e29U, 0xbe55ef2dbe75dda3U, 0x3f4490d03f9ec1e0U,
  0xbf24cb843f05d6b1U, 0xbe2744193e2875a4U, 0x3f6cf19cbf19c87bU, 0x3f3f055d3fad6503U,
  0x3ec3fa00bf1bcabaU, 0x3eba9c61be52d5aeU, 0x3f37b5b8be01e350U, 0x3f3dfbd3bfbded5eU,
  0x3f32331dbf0d9e08U, 0xbf1546b9bf7d4774U, 0x3f56d321bfbe9c2bU, 0x3f8a3d7bbf2a6b4bU,
  0x3f9620e5be2b6388U, 0x3fc008fabf644343U, 0xbf8b7d15bf13acd9U, 0x3ee501d1bf4af100U,
  0xbdde217c3f1a1ed5U, 0x3e2d81333dbe6ac2U, 0x3e5fee5c3eaa1a84U, 0x3fa9aa973f36a593U,
  0xbea99380bf2f1847U, 0x3fb4ff613f753779U, 0x3ec54f8f3fef4d48U, 0x3da4208ebe7262d8U,
  0x3e96b49f3d58cb28U, 0x3ebe527d3f1dee91U, 0xbf251da53f3ff34fU, 0x3f88c32fbf03305bU,
  0x3f081085bf99be74U, 0xbece28e13f0b4b77U, 0x3fbcae9a3dc04fa6U, 0x3de20974bebacb31U,
  0xbf093d9b3fb471ddU, 0xbe9d2f0cbe9e7093U, 0xbbf5e4ffbf7e8afcU, 0xbd62bdb7be8a5095U,
  0xbf6ba9b43fda1068U, 0x3eefdc373f0ac6fbU, 0xbf69b02abf33a0f3U, 0xbe75a8f63e8d3a5fU,
  0xbf924beebf2ed5b0U, 0x3f00d7de3e8ac05dU, 0x3f993473bf7a6b55U, 0x3fd329293ee542f4U,
  0xbee631723f1ce2ceU, 0x3df61441bf654435U, 0xbf65ce1fbff44217U, 0xbe938693bbd53eafU,
  0xbf2378d73eaba3b6U, 0xbfceadaa3f7c4859U, 0xbee5cc08bf12583cU, 0xbe889eb5bf2b28beU,
  0x3e401c9f3d5bb9f2U, 0xbfba2a463e1790a2U, 0x3fa947283ebc62e0U, 0x3f6e25d3be537feaU,
  0xbf2770c13f550218U, 0xbfe26412bf537f47U, 0x3e7953563e069440U, 0xbf993e173e8603ceU,
  0xbf829f283ff046bfU, 0xbebcfa43be18d909U, 0x3fa325c5bf30c2acU, 0x3fbfd44f403876cdU,
  0x3ee8fb32bf248524U, 0x3ee446bebf1dc502U, 0xbefdf8ec3da50325U, 0xbf2b5bbabf8e11caU,
  0x3b91f24cbf074ab1U, 0xbe1d4a68bf19345bU, 0x3efcb7bcbfbde6f6U, 0x3fd924c9be981dfaU,
  0x3e4d4941bf7cabe1U, 0x3f1bee0cbf1abd88U, 0xbfa1ec7abfc1b8b4U, 0xbf05de35be3b0d9fU,
  0x3f2b2bc63e8ea86fU, 0xbfd659e83f3d0c5eU, 0xbf01d6ca3f0bae10U, 0x3f8ccd4d3c157bd5U,
  0xbccf9aefbf707dbaU, 0x3fb82ed73e4d2a59U, 0xbf10e40e40041679U, 0xbed2aef3bf08ebc7U,
  0xbe4ddc43be848573U, 0x3d07cf203fac63b1U, 0xbef7be65bf843cd5U, 0x3e354d68bec879deU,
  0xbd91522cbca7e858U, 0x3e05904e3de16b07U, 0xbe96af2f3d65d03eU, 0x3ecc34f3bdad3584U,
  0xba997ae93aa4c3b3U, 0x3d223e833dbf7587U, 0xbf25e8543e706a2eU, 0xbe081f6e3d8b7492U,
  0x3e227a3fbe2e3b91U, 0xbd6aa824be7d5d65U, 0xbed124193bda4376U, 0xbe5b6d913d263e03U,
  0xbe0ac4c0bea944d5U, 0xbdd4194ebd092b80U, 0x3e504b323e5805d3U, 0xbecd39d13e457cabU,
  0xbedc915fbe13f437U, 0x3e96911cbdb2d47eU, 0xbee1c23fbed58dbbU, 0x3df3eef93eab19f4U,
  0xbe577754bc97b73fU, 0x3d8a5bf13e1ed1f7U, 0xbdac49e0bbdf3af0U, 0xbd2c46533db35728U,
  0x3e580f5e3ea227b7U, 0xbdb0827fbc82484eU, 0xbe07f007be8bbdbeU, 0x3e390fe23d73b09dU,
  0xbefff1e0beb823b5U, 0x3e09a173be414ee2U, 0xbece28d23e2c55c9U, 0x3e0a93d8beb123d8U,
  0xbe029786bef664acU, 0x3d041bf4bf1828eeU, 0xbf0d1ad5bdfd7a65U, 0x3de0811d3d9d0cf4U,
  0x3e2aa490bed31d4eU, 0x3e073819bda1b672U, 0xbc3bf8853d0e2af7U, 0xbea90b10bec50c06U,
  0x3dd3ee513dbf2a40U, 0x3e09ef6abe083966U, 0xbd83c742bde9d849U, 0x3e596a73bebc8288U,
  0xbe18107d3d8be80eU, 0x3d75ffb1bd8451cdU, 0x3d4dac43bd6b6132U, 0xbd8d11b8bea8c3f1U,
  0x3bd43fd23baea6f4U, 0xbd5e3be93dc967c7U, 0xbe643c943d0a67c7U, 0x3e32a34d3e5efc7eU,
  0x3ea2c2adbe94f0e9U, 0x3dfc11c6bd0294a3U, 0x3d96cac53c8509e6U, 0xbe417b693c50ef86U,
  0x3b82d8183e47d74bU, 0xbe9a07743c833467U, 0x3d1ff4b5bdf8522bU, 0x3e8d728d3c09f28cU,
  0xbde1a6fd3ffb4b58U, 0xbe291da23ebac680U, 0x3fac9a0d3e38fcafU, 0x3e8d5b1f3e177972U,
  0xbe82c7173f5f927fU, 0x3f22350c3f1d0d26U, 0x3e3a4aa5bdafe1f0U, 0xbd2f4e4dbf21429cU,
  0x3f149cc7bfce0e7bU, 0xbc2806fdbf424f55U, 0xbdf086973f732dd6U, 0xbe42a8c9be650443U,
  0x3ebfdcaf3f8bbf9bU, 0xbe1b42f8bf353a43U, 0xbf2135dd3f78e921U, 0xbf0bf462bf0d4daaU,
  0xbe3350a8be3e91a7U, 0x3ef3372bbdd76192U, 0xbf22cee1bfbcc215U, 0x3f06a58fbf66d546U,
  0xbe47d2013f5af7ddU, 0xbe403376bf6448d3U, 0x3fc6bc61bea310f5U, 0x3f646ba93f331a83U,
  0xbe24171cbe8afe7bU, 0xbee66861bd99e05eU, 0xbe9704c63e70a5d8U, 0xbec714a43e24d251U,
  0x3f176d713e1ea664U, 0x3eaa932a3f98a891U, 0xbf7a1666bfb336e2U, 0xbf9a38893ee06ab8U,
  0x3f492e913f434f62U, 0xbe1ac6dc3fc28476U, 0x3eb6fc7c3f86a773U, 0xbf86c7973dbf884eU,
  0x3f38ada63f2f2a88U, 0xbea1bca43e643fecU, 0xbff4a3c1bea7fcaeU, 0x3f2a506139973b58U,
  0xbe248f8f3e683803U, 0xbe66e55b3f37a445U, 0xbf74fa233ed94ee9U, 0xbd4387d93f2549dcU,
  0xbf1e29013f082e07U, 0xbe76d1973f9f0379U, 0x3f3bc79f3f5b4b24U, 0x3eb329da3f17be50U,
  0xbea3822ebeb30047U, 0x3bacc7383ec2415aU, 0xbef6b915be1ccbd3U, 0xbef5058cbf2e5063U,
  0x3f7c2db4be6ab647U, 0xbf957deb3d42f9a1U, 0x3c26a2443e578376U, 0xbfc0fd963f685953U,
  0xbc889424beae6518U, 0x3e283fc4bfb0a843U, 0x3e4a56753f77c168U, 0xbe8829b1bd04acb2U,
  0x3dd69b19bec6e02fU, 0xbe498672be1e4263U, 0x3f1464d33e2c046aU, 0xbed3a94d3e1c3acdU,
  0x3e9e55adbd20a633U, 0xbe713e413e02a869U, 0x3e99a536bd4c4d94U, 0xbdb075d33c202e93U,
  0x3c8eeceb3f211510U, 0x3d931a5bbcd7bb2bU, 0x3fa3c0cabe21293cU, 0x3e3eba563b484c3aU,
  0x3e12ebfd3e175729U, 0xbd97eed7bd9181b5U, 0x3e303a483d8513a6U, 0x3d9331283dc18813U,
  0x3ea4e01b3e26fe53U, 0xbe0d66ce3b9eeb9dU, 0x3e9224873f246025U, 0x3ea5e6893e614ebcU,
  0x3e12d3ccbea95da1U, 0x3e1a552bbd95d390U, 0x3f54d4693d82c1c7U, 0x3dbfa65abd9fd839U,
  0xbd1471bebcfdd572U, 0xbe5bded93dafcccbU, 0x3efa99a6bd531912U, 0x3eaaa919bca1f357U,
  0x3d8325e43f02bd42U, 0x3d9fe5c23e070787U, 0x3daadd2abf2fbab3U, 0x3dd7cae83cc3eb64U,
  0xbe2b18283ddb9ca7U, 0xbe034af0bdd0813fU, 0x3ee20f99bd989a8eU, 0xbe589136bf16b7caU,
  0xbd96c158bd91e6a5U, 0x3bf6375b3e1e3490U, 0x3e833fb6bd2013f0U, 0x3e8273333e86b72aU,
  0xbe282caebd2c7422U, 0xbd4a342cbd3c54f5U, 0x3e5a9a043e12360bU, 0xbed2cf7abe347416U,
  0x3efc39f7beca6a03U, 0xbe50be4ebd0b6e63U, 0x3c7e02e3be51b5b3U, 0xbe85742c3c5a88eeU,
  0x3e814c38bcd50f95U, 0x3c8e7d54bc80ec58U, 0x3dc8c80ebd00f72fU, 0xbea8a8133de4e15cU,
  0xbeb134663e978ffaU, 0xbe2f41e7be2782b4U, 0x3d8a15123e9e27eaU, 0x3ebe3cb03e75c8ecU,
  0x3e0e1fce3d9a6e48U, 0x3e480cbebe422b3fU, 0xbe320723bcf79c60U, 0xbf1ba4cdbdc60739U,
  0x3f1c2b62bf6f33f1U, 0x3fd757903e969b84U, 0xbeddc0953d7bcda3U, 0x3de4bddc3f596fc7U,
  0x3f774f7abeca0c7cU, 0xbec1591ebe9d5ad9U, 0xbf001dc33ef8f23cU, 0x3ef042143e9562eaU,
  0x3c4cbd993f85ecb7U, 0xbe8b62d53f2a9a7aU, 0xbfad8c61bfafe146U, 0x3f6cb2ebbfb0deb5U,
  0xbe97377b3d2e1f98U, 0xbd94a51abf88188cU, 0x3ea28e5c3e79fb1aU, 0x3ff135f2bf611233U,
  0x3f86ed66bef95bd1U, 0x3fb660463e18f1d7U, 0xc009feeabf422271U, 0xbd291ec13f1916f5U,
  0x3fa8b0dcbe951d74U, 0x3fa1f551bfcaacacU, 0xc00c0bba3f03f7d4U, 0x3f63f4643d89f97bU,
  0xbe48510c3f8b3f7fU, 0xbedfbc2e3e081dd4U, 0xbc83622e3f39b8ccU, 0x3ec1edd13ebe6dbcU,
  0x3e4030bbbf95d54fU, 0x3f041b72bef52048U, 0xbfc2b994bf8e1530U, 0x3f134cadbd4c723aU,
  0xbfb60758be2369deU, 0xbf1e07333f8fd71aU, 0xbfb7da95be867dd8U, 0x3d9e50193effa7ccU,
  0x3eb5c77dbf28e054U, 0xbea9ff5cbee07ffdU, 0xbf11ce6ebee9e492U, 0x3e93b6fcbf5a3c33U,
  0x3f08b450be6f61e5U, 0xbded907cbf398d12U, 0xbf7a84063ed8a036U, 0xbf55ade03f05a3e4U,
  0xbf7af50abff862bfU, 0xbe5748be3f5136cdU, 0x3ec51d643eccef45U, 0xbeb309383f1b8557U,
  0xbe86bcdebe872622U, 0x3fb0a839bf5660f9U, 0x3f6d8647bcb38064U, 0xbf397a273f2198a8U,
  0xbe5d25b5bf63b752U, 0xbf1fd903beb183a7U, 0x3ecb2af83f030027U, 0xbe7055c9be21c01dU,
  0x3e8c829bbf37fbebU, 0x3d99fb2c3f84307cU, 0x3e8ddc1f3bd5b0f7U, 0xbfb8f74b3d145494U,
  0xbeccddad3f6563f9U, 0x3fd36c8bbf20788aU, 0x3f20a4ae3e9f1fc5U, 0xbfa600b1bd272d57U,
  0x3f95514abf88c666U, 0xbf9b9e253d8026ffU, 0xbfa389033dd03876U, 0xbf9ef176bef07755U,
  0x3f219164be80abc8U, 0xbf833878bf99f0b3U, 0xbed90e06bdf43375U, 0x3e74ce083f868b67U,
  0x3d26c713bebeb374U, 0x3ec7b329bf0a3b9eU, 0xbf43848ebee0b838U, 0x3f05a41abeb75b0cU,
  0xbfa7aa09be39cf68U, 0xbde180bdbfb5b4a2U, 0x3ea3f69bbdf5ba6eU, 0xbf8a03fb3ec69683U,
  0x3d7b5b6dbec95437U, 0x3f8bf49a3c271274U, 0xbf2e2dde3fa29eb5U, 0xbf64e4cfbea5331dU,
  0xbf13cd38bd19d2a5U, 0xbf7f860bbe20633cU, 0x3efc178dbf31485cU, 0x3e718dd53e6a2b85U,
  0xbf678b3fbef03179U, 0x3fc67e9fbe1ee274U, 0x3f3bb5453fd1eb21U, 0x3e04a78d3f9da792U,
  0xbeced726bf322544U, 0x400010f83fde5446U, 0x3d598c6fbd98b1aaU, 0xbfc21421bf4f260cU,
  0xbf61a1f0bdce4dffU, 0x3f9255cabedd2b1bU, 0x3f2fa0063edb91b1U, 0x3d15ce59be28d4bcU,
  0x3d7932023f518ba3U, 0x3fb2b30a3e90d2a5U, 0x3fabb342be895af7U, 0xbe8f8e88bf6c2d88U,
  0xbf04f6f0bfa78d62U, 0xbf0c6605bfd0c7ecU, 0x3f80185cbf151346U, 0x3f6391413c2110f2U,
  0xbe546463bf38cf54U, 0x3ef48e05be18c78cU, 0xbcc3b1a3bfba148aU, 0x3fb7508f3f419ad2U,
  0x3f4fd59dbe58b694U, 0x3f8b57efbf1026c4U, 0xbf86bf063f9345e2U, 0x3fb4095cbe93e1e9U,
  0xbf04b05fbf87ccbeU, 0x3f238605bf61ebcaU, 0x3f4b5fc1bf8a8b61U, 0x3ecbdeb33f990cdbU,
  0xbea396a3c039943dU, 0xbf6bccf5bf42e99aU, 0x3e648444bf83e525U, 0xbee999febf0a7d37U,
  0xbe4dfa303c47ac32U, 0xbf1e6d05bf0d8dc0U, 0x3ea6d2933f1bdc75U, 0x3f68671dbe5c2ee7U,
  0xbf143ac3bd4cc665U, 0x3ee921bdbf2dd22dU, 0x3f0262b3c001b90eU, 0xbea30fe53e8dd0faU,
  0xbf0d301cbecac8e1U, 0xbf143ecabdcccbacU, 0x3f8a33cdbfc2b024U, 0x3f956bdb3eef22adU,
  0x3f962c5c3ec8121cU, 0x3f33b91cbe84e3d5U, 0xbe4a49173fa37095U, 0xbfccd0a33e953c67U,
  0x3f74e0523e84385eU, 0x3f24e6213f9ec340U, 0xbedf0c613f1fa51dU, 0xbe0f02423eab2215U,
  0x3f92335ebeaf36a3U, 0xbf24b669bf0d1ed5U, 0x3f25b678bf82041fU, 0x3e37439ebfa5b930U,
  0xbec484f4bf346468U, 0xbed32ac83d0a777aU, 0xbfaff69dbf293926U, 0xbf67bf88c003f647U,
  0x3fb19a7d3f235303U, 0xbecfa5263fc0d998U, 0x3e9ec3d9be836299U, 0x3fae84583ebd68bdU,
  0xbdc052d0bf25df10U, 0x3f2ff1dcbe679ea7U, 0x3e4956093f1b549fU, 0xbf358addbec59fa5U,
  0xbfc3de14bd452ac1U, 0xbfae6497bfc78319U, 0xbf7a3ad6bea8eb04U, 0x3c8e151cbe9191c3U,
  0xbf778c38bf52b226U, 0x3f7d29793f53b6f7U, 0x3ef0e1503f31aef7U, 0xbf08c5644018e066U,
  0xbeb13ad6bf4e5ffeU, 0xc005b39e3f829cd6U, 0xbd912f383ef6ebd0U, 0x3eef29523fceb532U,
  0x3fc988933ed6923eU, 0xbf807118bf66c881U, 0x3efaf37e3ea17a5fU, 0x3f059b38bf57ebffU,
  0xbf0cffd9bf7eed08U, 0x3f747fa73eaf0ddcU, 0x3deb66713f7f46c6U, 0xbe5f81a73ea7a839U,
  0x3e9bcddf3f440644U, 0x3f82dc39bf12d180U, 0xbfd720fc3eba2371U, 0xbf875426bf81a7e6U,
  0xbf9c113b3f8c06d8U, 0xbeac59403e1dd432U, 0x3f703d2e3f37a472U, 0x3e74817e3f02a962U,
  0x3e98061b3e567940U, 0x3e1e205bbd5b525eU, 0x3d8cb9bdbfc3e5f9U, 0xbf0b235c3f85e282U,
  0xbe4b0c643e995688U, 0xbecb49513fa0b04dU, 0x3ebe5402bed699d6U, 0x400dd20f3eb414caU,
  0x3fd63d653f0ac0f1U, 0x3f8506a1be422c6aU, 0xbf793efc3ec278f7U, 0x3f50188abef3cd04U,
  0x3f00d033bf9c2883U, 0x3f70de833f9ef692U, 0xbf8cd3803f237e50U, 0xbf6e03eb3ed02486U,
  0xbe9c8f0b3cc82ed5U, 0xbe249c80be6944ebU, 0x3f1d5c71bf6c2d3fU, 0xbdf1d4e6bf1928b7U,
  0xbeb88e7d3f2380e8U, 0x3fce0ac3be18e2f1U, 0x3fa92049be61bf64U, 0x3f28844d3f6aa513U,
  0xbf65a5e2be9a8500U, 0xbeaa9b3abeee652bU, 0x3da373f13f061628U, 0xbf19f75b4027602cU,
  0xbfb719ef3f26945bU, 0x3eceeea63dfeec57U, 0xbea46a873eba8333U, 0xbf5e31893f7cd614U,
  0xbf281f633c980926U, 0x3edaff053d2aa167U, 0x3f87aaffbe82acb7U, 0xbf95a6e8becac919U,
  0xbf09486340239f45U, 0xbf8515f83fa451b7U, 0x3efc6413be9b0919U, 0xbeda55b53f500bd1U,
  0xbd622484be0b8aa0U, 0xbf652fd03e536e23U, 0x3f2a972e3ebac08cU, 0x3f923ced3efe44afU,
  0x3ddda1ca3e2d07a6U, 0xbf62d2e53d9239d7U, 0xbe8c2137bf468fefU, 0x3f7a80b23ea6af4cU,
  0xbf1d7b4bbe7b4042U, 0xbe3f130dbf1c0fb3U, 0xbeb73ad2bed3c28cU, 0xbe264b913f1121daU,
  0xbdf175643ee457e3U, 0x3d05a8893deb06fbU, 0x3ef29a52bd988064U, 0x3e2be7a1be0e9145U,
  0xbecd72943ec7db3fU, 0x3ebe806dbde35f08U, 0xbe022b5cbe9af54dU, 0x3e8bdc85bee75b00U,
  0xbe1aaa173ca6d493U, 0x3db1a0c73f09d003U, 0xbfb6ae4e3f9d21d7U, 0x3f1406f43db75816U,
  0x3d02c85abdd0209eU, 0xbe918fa23ea16282U, 0x3ea36e60bd9f7f37U, 0xbeb603b1bcaea23aU,
  0x3d23bde63e0614b7U, 0x3ef4f2ba3d145810U, 0x3e21d47dbd697792U, 0x3e6f7b48be3f91f6U,
  0x3f2d1f483f2b9452U, 0xbe5f3a5bbec5e8efU, 0x3eb622dd3d9b8d30U, 0xbd2992973e5b7d78U,
  0x3e0da09bbe17cee3U, 0xbf379da63db91c41U, 0x3ebb755c3db53432U, 0x3dfb4f0d3e494450U,
  0x3f34f310bebcffbdU, 0xbf10e1293ee1c872U, 0x3d86b1923ddaba82U, 0xbe2d954dbd9f17f1U,
  0xbe0e587ebeff1fceU, 0x3da3839c3f24c3e8U, 0xbf22b3083e883515U, 0x3e41d02dbdf66228U,
  0xbf1460b23e421ccbU, 0xbe596fbf3e6f111fU, 0x3e190a91be9a221dU, 0xbe39b855be846d83U,
  0xbe69e8b5bda336dbU, 0xbe97082d3f159f3dU, 0x3d0900c4be143546U, 0xbea3779cbdf0ffe6U,
  0xbe795c553e7e7b00U, 0xbda08bbd3e21a825U, 0xbe7a21693d9eb406U, 0xbe41557c3f1177aeU,
  0xbe64cd543df7b31fU, 0x3f048b11bf09da18U, 0x3ec679e9be1fb83bU, 0xbd86e5eebea04d68U,
  0xbe9c00a13e207010U, 0xbe1344c73e10898bU, 0x3e2a9d7c3ecdbc49U, 0xbed3f1623e4d1067U,
  0xbcf3d4a6bd840c74U, 0x3e2dbf043ed8afb2U, 0x3da56fc3bf9bb6b4U, 0xbe04bb7cbf0b9148U,
  0xbeb43818bf5bc937U, 0x3dca0b91bdd182ceU, 0x3b7b21dabf37c621U, 0xbf200530bf2106c6U,
  0xbe7c75e1c0013eeaU, 0x3f90de0f3e2f2767U, 0xbf8b33c43fa58de5U, 0xbe03ff413dfae7cbU,
  0x3fa2b1d8c001b2e7U, 0xbe19cddcbf95eda1U, 0x3f9b9d97be28cbcdU, 0x3f5f05063f8abd80U,
  0xbc87d6383f8b5d2cU, 0xbe72556f3db76321U, 0xbf40ea1f3f2511d7U, 0x3f885f6dbd2b8aeaU,
  0xbff9a0173e2e98a5U, 0x3e5f595f3eb7fd34U, 0x3f0f72a1c005abc0U, 0x3f33d2123e93c046U,
  0xbed07d04bf2c539fU, 0x3f42ac3d3f7a6aa3U, 0x3f9e37a53d84dcc6U, 0xbe91cb84bda6a5d0U,
  0x3d9f8cb9bf11c3f0U, 0x3e25b4fbbe1cd3b1U, 0xbfbaf204bfb372e3U, 0xbfb8e7c7bf965c15U,
  0xbf12ffe23e539a43U, 0x3ea57e2c3fe2dab2U, 0xbf88ae233f828958U, 0xbd04811bbf98ebfcU,
  0xbe413ff7c0009176U, 0xbe54103b3f81f21aU, 0x3f2bca20be59f308U, 0x3eee35443f95815bU,
  0xbf83a8633db5b338U, 0xbd8e1e813e99f23aU, 0xbf6e0b9e3f1a4081U, 0xbf1d938ebe6098adU,
  0xbeb0d4ac3ee79addU, 0xbd88ebfb3fbe845eU, 0xbfb4aeda3ef29af8U, 0xbcc797cfbe5b2fd1U,
  0xbe140e6e3e97d476U, 0x3f5aec0fbe9f6e7aU, 0x3f75402b3d33cfbaU, 0xbe0bc2064014ffb9U,
  0xbea82421bf8173bfU, 0x3ee39cf5be565dffU, 0xbfc4b617be126f04U, 0x3f1bb9413cc6882aU,
  0x3f9e53e33f86458fU, 0xbf997ca3bfb9f2a7U, 0xbc95cc29bfde955fU, 0x3ed874dabe9ce4a9U,
  0xbd51d3f83f465a17U, 0x3f097e64bcadc7c2U, 0xbf81f32a3eca0ef3U, 0x3ebeb8423f27f807U,
  0x3ee348693f1fdff1U, 0xc011f415bba04ae4U, 0xbe388a5bbdaa5d0dU, 0x4000e72d3f468768U,
  0x3ecf8da73fd63349U, 0x3f04036abf87be0bU, 0x3f659812bed7642cU, 0x3e183befbf8a5093U,
  0xbeeaf2913f181f1dU, 0x3fba05eb3fefad96U, 0xbe32f8eabf074a8aU, 0xbf4ca992bf88b5cdU,
  0x3f3b80473f28b5dfU, 0xbd2ebb2f3db3a87dU, 0x3f666ccbbfa32ca6U, 0x3ecc29713e353a9dU,
  0x3f1dce973f8bb388U, 0x3e1c33523e0c5644U, 0xbfb2f870be4510b1U, 0x3fc3bbc5bf4d139aU,
  0x3e8fe6393e4649c4U, 0xbfae24a43e90e665U, 0xbf61101abbbc8f72U, 0x3f1121c03ee8aff5U,
  0xbf2abcc63eaf8d78U, 0x3e943f883dbb5d1cU, 0xbf1ae5da3f6cf470U, 0x3edd753a3f51b6e9U,
  0x3eddd9db3f884008U, 0x3e2a1308bfabe169U, 0xbf283421bf2a01d2U, 0x3e26a60cbc852592U,
  0xbf93a61d3f7a0d6bU, 0xbfb6a543bf8b2bedU, 0xbf3a743ebde772e7U, 0xbe92a9e5be982278U,
  0x3fdabcbbbdc16d74U, 0xbee0f516bdb4dcc9U, 0xbf918099bf2c8bebU, 0x3f901e99bec37331U,
  0x3ea96a20bfb91395U, 0xbf390ff5bff2903dU, 0xbe29d91cbea8a965U, 0x3f3863643fba04aaU,
  0x3f101ef9beae3962U, 0x3fd940213e24de72U, 0xbfa8b4383f084494U, 0x3f8e926fbfbc36fdU,
  0xbdb158583f4be018U, 0x3c9c9add3de23652U, 0xbe7c05813f6ab46cU, 0xbf0e92293f70caedU,
  0x3d660d81bf369614U, 0x3eab22d03ef927a8U, 0x3ef1be103f4af42fU, 0xbf7f40613c9bfa94U,
  0x3f8663ad3f5567d1U, 0xbef34633be9e7286U, 0xbef0ebba3f3f7eb9U, 0x3f7689a5bfa5a749U,
  0xbe833b453f2878b6U, 0x3f10acb23ca758e7U, 0x3f4aedfcbeafe5b3U, 0xbfb3cb1abf2d1dd6U,
  0xbf4d3eb43e49b38dU, 0x3e1bd6313eeaf159U, 0x3ea1d8bc3ed7220cU, 0xbf3de6873d3ee110U,
  0x3f06999abe8bc9ceU, 0x3f0b4a6bbf1f6fb0U, 0xbe57cc483e3a76c5U, 0xbeffe277bf896ac9U,
  0x3eb926cf3f5de3a3U, 0xbeec5d7e3f2d6ddfU, 0x3ea308f6bede4981U, 0x3e1f642a3f6d3bc1U,
  0x3fbe52833f631d8eU, 0x3e0b51f1bf211bf2U, 0x3f92592e40035679U, 0x3f8e7811bd7689a6U,
  0xbf95732d3f24ab1dU, 0x3f34692c3eeb0293U, 0x40073d3f3f440a73U, 0x3f219c0d3f32690eU,
  0x3e68ae5e3ec4142eU, 0xbf71d458bee1550dU, 0xbeab0b6bbe7c8201U, 0x3dbd0f97bf8a0fc7U,
  0xbe4560083f607874U, 0x3f8604a33fae314fU, 0xbf32a215bf5bf62cU, 0xbd121412bf5d022dU,
  0x3fd0f9543f2278baU, 0xbed9be103f5fd536U, 0x3fab05a83e93ab19U, 0xbee9b048bf882430U,
  0x3e851c993ebdbf85U, 0xbd97732dbe5d224aU, 0xbdf909573f67098dU, 0x3e1839dabefd82e1U,
  0xbf459648bdf6355dU, 0xbee526c2bdc08815U, 0xbfb2982dbf1297a5U, 0xbe8677b6bf03ca24U,
  0x3f0e0f093f20209cU, 0x3e7f89dc3eb422fdU, 0x3f10702b3e92f7ecU, 0x3f8d53293ffcd500U,
  0x3ea12c413c12c631U, 0xbf14e2543f0b3339U, 0xbf1c084c3fc1afe9U, 0xbf015e5c3fb285f4U,
  0x3f99071e3f80badaU, 0xbf5dd911bd356c7fU, 0x3f72124abefd2756U, 0x3e0e098b3f578e29U,
  0xbf10bfa13f217689U, 0x3f0b2724be442257U, 0xbfc68e273ecf1d69U, 0x3f44dcb93f094dabU,
  0x3de9e913bee0c2ccU, 0xbe472fae3f68795fU, 0xbc5114f3bec7e9baU, 0xbec878adbca816a6U,
  0xbe13f875be93b783U, 0xbfcb6db43da743e0U, 0x3f2225c1bf24c76eU, 0xbe6acb93bf68c68fU,
  0xbf07137d3f382c53U, 0x3f017d2d3f879606U, 0xbf305858bfadb964U, 0x3df15f6cbe42f6c5U,
  0xbf6a9359be94ab30U, 0xbd59edd93e5e4e46U, 0x3f3afb86bf96bd25U, 0x4002ab813eeb7e18U,
  0x3e726932be0069f9U, 0x3e1be709bf803fe2U, 0x3f969cc53e8ab84eU, 0xbd31ad2a3f83690cU,
  0xbfa5d55e3edd1f58U, 0xbe6a16f43ed58347U, 0xc008b1503ccfe582U, 0xbe11b103be30d017U,
  0x3f5d5bda3c374249U, 0xbfb0dfd5bdff1c75U, 0x3fee2b87bdba774eU, 0x3fb7af8fbf56da07U,
  0xbfd0f195bf10d32aU, 0x3f4f79aebb6b4bf2U, 0xbf481fc0beb9d9cfU, 0xbf302bfdbf207f57U,
  0x3eacf00a3fd7d6ebU, 0x3e7277cb3f58bd9dU, 0x3efdbe82beba746fU, 0x3f17a324bfd764fbU,
  0x3f2a132fbb8f7b6bU, 0x3f3ac3b8bf9c0274U, 0xbf818d053f6ee9baU, 0x3f8f844abfed9e5eU,
  0x3eaebbd3be645041U, 0xbf506e05bdb2474eU, 0xbf1ea5c7bf8e694eU, 0x3e1def19bea0386bU,
  0xbe94c2633f1a69c5U, 0x3f2632893e6dbe82U, 0x3e5624123e94c44fU, 0xbc7d08f73eb58991U,
  0x3ecccce5be526d78U, 0xbf84632b3f830dd4U, 0xbef12b6f3faa01d3U, 0x3f3e682fbe4b041aU,
  0x3ff04917bde0b806U, 0xbde55fa3bdea5022U, 0xbebf57463fb38f50U, 0xbf9541ebbf70c483U,
  0xbe920600beeca509U, 0x3f6b3e8c3f601b56U, 0xbdbb07efbebe5b27U, 0x3e337c9b3e4aa9a8U,
  0x3dd340573f0c0303U, 0xbd7d22acbe5d5f8aU, 0x3fd04c083f54dc10U, 0x3f342e9f3eb5bb6dU,
  0x3f1abfc84008efc2U, 0xbe2a4c7f3ec543d7U, 0x3fa65382be3dd01aU, 0xbd182a06bf5609eeU,
  0xbfad56f23efc2811U, 0x3e8a5d973fca2d53U, 0x3e1a84e0c029445fU, 0xbf5040b33e7bbb87U,
  0xbf821ef0bf3429d4U, 0xbe0daa74bea04ca1U, 0x3f889a8d3ee2bf76U, 0xbf8f085f3eb9efe8U,
  0xc01bc87f3de30090U, 0xbf40ba87bfa32584U, 0x4018133c3f61b72dU, 0xbef53dbbbf58536eU,
  0x3f03e770bffcd2c4U, 0xbef92293bfdcb207U, 0xbf3d1dc13fc04ef9U, 0x3f5c61193f50f506U,
  0xbf3dbeed3ed15c0cU, 0xbf00ca97bec2f2b4U, 0xbe94bf763ef8e212U, 0x3fbac8053f0966ccU,
  0xbed11d773f382a49U, 0x3ee27896bf8e06b3U, 0x3fbaec653e5f753bU, 0xbfed3bca3e97c204U,
  0xbf703a203f308f24U, 0xbee89e81bfa1d0c1U, 0xc00b81673f6c4548U, 0xbe839126bf1767c2U,
  0x3f99ad653f95df8fU, 0x3cce21f7bebcf4ecU, 0xbee0dcafbdf6d430U, 0x3fb4ccba3e920c9eU,
  0x3f379a70bee8eb7cU, 0xbf94b68cbfaff1f7U, 0x3f879e8cbf6faf99U, 0x3eabac683e991cacU,
  0x3f0e7daf3eb9e8b3U, 0xbf1d073f3fa2e7baU, 0xbe5e9e77be3c3407U, 0x3eaa6a83bff4ed60U,
  0x3eca8dca3f52f28dU, 0x3eb0e3b8bd7f6616U, 0x3f343d163f36be0bU, 0x3df3dc78beda565eU,
  0x3ef78f30be665398U, 0xbf002b6c3fa04d71U, 0xbf1f57c33f41b5baU, 0xbf635bd43f57f0f4U,
  0xbec581c7bf19c875U, 0xbe7c7e113e804218U, 0x3e034e5fbff9de12U, 0xbf683c1c3d974c7bU,
  0x3dc1484fbfc22282U, 0x3e516c46bd9f1e3dU, 0x3f207da4bcd94a6bU, 0x3cf0d8e53f162db0U,
  0x3f60479f3f244589U, 0xbf890af23eaad01bU, 0x3eb288a2bed66960U, 0xbe88d53cbf2220c0U,
  0xbe8d98d7befebd41U, 0xbf07fa123f0aea12U, 0x3ca1120abf5dbb6fU, 0x3f037defbc7a4cb7U,
  0xbd7fd7a0bf38d7acU, 0xbe81192bbf6bfd23U, 0xbf0ea6083e1e7628U, 0x3fc951cabf1db6d6U,
  0xbe01ecd1bf7266c7U, 0x3f58d4da3eaee3bdU, 0x3f14a4b8bfb3497dU, 0xbf6cfe56beb99067U,
  0x3fbe8ff1bfa01e89U, 0xbe617595bfbe974aU, 0xc0162c263f55e5a8U, 0xbe579a093e11e685U,
  0x3f7f4e7ebdf40511U, 0xbf9de34cbddb8d62U, 0x3f1dc92abd430084U, 0x3f348f813e3c4922U,
  0x3eabe833be13859bU, 0x3fb763f7bd635a87U, 0xbf427eb93d7c31f9U, 0x3e410af33f1c30a9U,
  0xbf96ca0e3ed0e0dcU, 0xbd029ebb3f3641d7U, 0xbfbe9efebd74d068U, 0xbd2eb516bf5fc46bU,
  0x3ec06d84bdc80c85U, 0x3f22656b3cb8d641U, 0xbfd146d33ea34639U, 0x3fa88125bf40bd17U,
  0x3f3653f93e21db7dU, 0xbe2b3964bc8cc35dU, 0xbdd4bcb6bf66741eU, 0xbf850eeebf00284fU,
  0xbe614e1a3f392ff2U, 0x3d8f3873bc3ce9a8U, 0x3ee778593eebe5baU, 0xbe59bb2a3eff7238U,
  0xbf0b9954bed6d07dU, 0x3f0cd0b03e9bc51bU, 0x3ea2099d3e5e829eU, 0xbf219178be85486aU,
  0x3f670b47bf88cde3U, 0xbf2c32a83d427a36U, 0xbf38eedd3f44c7e0U, 0xbf32061abf3bf5e4U,
  0x3d5dd185bdc5d7d2U, 0x3e61d2b9bdd6533bU, 0x3f231aeabf12ca11U, 0x3d5b2d153de80ce0U,
  0xbed7eeadbf945b69U, 0xbf34934bbed88b95U, 0x3ea990213c043f61U, 0xbec4f0ad3e42419dU,
  0x3e6a632bbed1597dU, 0xbd964873bf413743U, 0x3ec21299bf681656U, 0x3df31567be9089d8U,
  0xbf9940fd3f9c5eb6U, 0x3e8358c63e87b60aU, 0x3f94e2763f41418bU, 0xbe4c0fcebde6d5ebU,
  0xbf3aaea4bf2d8c5fU, 0xbe32e379bc88a93fU, 0x3eb0c0fa3d9b63b8U, 0xbf851f323ed8c41bU,
  0xbeea980cbf086425U, 0xbc309ebb3f05f269U, 0xbfebb768bfe518b4U, 0x3dc4b0613c8c6f61U,
  0x3f5f54bc3e5e914eU, 0x3f055fdebe6a5672U, 0xbee16a7f3f2cdd1dU, 0xbe821bfe3e9ff2eeU,
  0x3f17cef83f2f1254U, 0xbef3ed97be40e6acU, 0x3e8bc2583ec302baU, 0x3f4693c9be48d09cU,
  0x3e798092bf15948cU, 0xbf774007bf9de0bcU, 0x3ee437c83f8d8b97U, 0xbe9845bdbf179998U,
  0xbf96dd343f9d09abU, 0xbf86ceddbd90da8aU, 0x3dc66d7bbe9a57bdU, 0x3f5fc3f33f6d4e49U,
  0x3e889bfbbe164555U, 0xbcd79f5f3e9d7229U, 0x3fafde033e59439eU, 0xbdf6216dbfb670f7U,
  0x3de943bebdcbe07dU, 0xbe90d25ebf3a86dfU, 0x3ed682fcbefe49f8U, 0xbf313b753be06404U,
  0x3ebfa7693ead3bf9U, 0x3fac8895beec675aU, 0xbf11fb5abf0a66e5U, 0xbe11180bbfc18084U,
  0x3ec03c583f64d11aU, 0xbf22ab6d3f08cc9fU, 0x3f77d0bb3f652c88U, 0xbc94c8c83f6a995eU,
  0x3e6580b83d82aa4dU, 0x3f9bc7c23f36bb4bU, 0x3e92816d3e82dc85U, 0x3f1364d5be95bf4cU,
  0xbdfa3568bef5efcaU, 0x3e8f085c3f68761aU, 0xbee44a833e943431U, 0xbea29571beb7c771U,
  0xbeda1f0c3f804486U, 0x3fee603dbf351378U, 0xc00e6d46bd5478a3U, 0xbf02f67fbed92edfU,
  0xbd2051f33fc40fdaU, 0x3fb818b8bf1d82a2U, 0xbee5149abe561cfbU, 0x3bfb506fbef3d5fcU,
  0x3e895401bfd94d5aU, 0xbe8a28cabfd6d354U, 0x3cfdc2683f2c7ffaU, 0xbf077b2c4005863cU,
  0xbea5a637bf4aa347U, 0xbfc2596f3f17c1a8U, 0x3f80a44ebe9b5611U, 0xbf947c1e3f9174dbU,
  0x3fd3262c3e4903a1U, 0xbf97b6fa3f9d71f4U, 0x3c51cb403dad05e8U, 0xbdb8ed69bfd3da5cU,
  0xbdcafdb83f3cdb62U, 0x3fa16cb53d92ed1cU, 0x3f736eb23f701970U, 0xbfd906a03f395e13U,
  0x3f275379bf699bb5U, 0xbe13424fbed70996U, 0xbf319d79bfbf6868U, 0x3d3936bdbca26e28U,
  0x3f6d0e61bf27d164U, 0xc009cad3bee7ce1aU, 0x3f794c8fbe8b9138U, 0x3f90fd6e3fb0d0f3U,
  0x3f979b173e88e3c8U, 0x3f886f6dbf563986U, 0x4026a0803f0a68cbU, 0x3ed94ad13f124280U,
  0xbf5a23c2beec249bU, 0x3e8b85953fae6989U, 0x3fafe4d8bed12dbaU, 0xbfc638d83f11638aU,
  0xbf49e4fa3ee7923dU, 0x3c0919e0bf0752eaU, 0x3ff79387bf4d4c9aU, 0x3fb76e07bf8721d1U,
  0xbfdadfa23ee8607aU, 0x3e0f0ec1bed22d56U, 0x3e5f0c43bf46e62cU, 0xbe9b02ecbf40c379U,
  0xbf662fa3be8896d5U, 0xbf296e6abe6f9cc8U, 0x3f5f5ad2bf8fde61U, 0x400da33e3fc4d4daU,
  0x3db506b93f273f95U, 0xbdfe3b373ede0100U, 0x3e8ebaf240047deeU, 0x3f25d8b43e52b537U,
  0xbebdad50becfcecbU, 0x3dbc6623bea372a0U, 0xbd84502140069310U, 0xbf2a87d5bde16798U,
  0xbf9611d73f6c47d0U, 0xbf72f86bbf6cf18bU, 0xbf149bdfbfa98f13U, 0x3db3fab4bd150e85U,
  0x3fcc047bbe282cebU, 0x3e4ea96fbe9201ccU, 0xbeecc8103fb057beU, 0x3f127e63be4825deU,
  0x3f750b2cbf5f91c9U, 0xbe1c2d5abfc01d06U, 0x3f9bae7abfeefe8eU, 0xbf7f61be3f27f3c4U,
  0x3f6d97a43f16fc4aU, 0xbf0bed54bec11e69U, 0x3e9a2e02be0cbbbcU, 0x3f94242e3ec6d4c2U,
  0x3f2c8ef53f40860eU, 0xbdba25e83f70c3baU, 0xbf2fa05bbfa10113U, 0xbf22d299bf15436aU,
  0x3fe4b0c13ed1cbe2U, 0x3fa60c573e820070U, 0x3ea8361b3f4c10eeU, 0x3f48b2793eb516e3U,
  0x3e4111e5bf9dc3c6U, 0x3e7fe2a73d041597U, 0x3e8d367ebf77773dU, 0xbf1f8deabd4dc81dU,
  0x3f6fb796bf3867beU, 0xbe98c9e83f96c338U, 0x3f2248c33ea73bd8U, 0xbef9e235bea069b8U,
  0x3f0372c8bff29317U, 0x3fdf5a1abf5e6321U, 0xbfa993003e81a9f9U, 0x3d8704563fa638a5U,
  0x3f3c6b8cbeaaf552U, 0xbd08a01e3f07985dU, 0x3e19daa0beff90b8U, 0x3d2ba8163f8f3ec1U,
  0xbfd6929a3e699e9aU, 0xbf1ad0543e9abad7U, 0xbeb9546b3edcce71U, 0xbf3ad2f6bf660842U,
  0xbd2fa7623e4af93dU, 0x3f6660383f2f941bU, 0x3f8a2cc03fa03073U, 0x3f150a743f0e586dU,
  0xbf8f124bbf6407a2U, 0x3ee7f00ebe35b949U, 0xbf83e7ecbf254284U, 0x3e988f9e3e6100dcU,
  0xbf160b613fc3c348U, 0xc00a771abf8ec6c7U, 0x3f27802fbfdc3f5aU, 0x3e086b8ebef1b735U,
  0xbcf7ae6b3e8ef7a0U, 0xbef28698bfd9e757U, 0x3d9be7043f7e4c91U, 0x3fab00c13edfc172U,
  0x3f4822ba3f99150cU, 0x3eeb01613f0c0da7U, 0x3faad2783f91167aU, 0x3e9c9851bf56333fU,
  0xbfc7986d3f26cd68U, 0x3d87e6783d648356U, 0x3fbc7f1cbeb9cc91U, 0xbf6150ddbf36b2a0U,
  0xbf35f32b3ea9b8dcU, 0x3e1d0ff03f87341eU, 0xbfa08dd53f906989U, 0xbee42ebebf7cd8c6U,
  0x3e5cb48bbedec325U, 0x3ecc631d3fa0e78bU, 0xbf85db593f9a7758U, 0x3dc1cc2a3edd1e5eU,
  0x3f1544f4bfb15a59U, 0xbfab1fafbe82e59fU, 0x3ff451a53f6a800fU, 0x3fbff8adbe8770f3U,
  0xbfd180173ff92ca5U, 0xbfc7691d3f4a0287U, 0x3e0ed15ebf838cd2U, 0x3ed4c723bf65ee99U,
  0x3f617c93bea494a4U, 0xbfbde3863f6bf2a6U, 0x3fa78a773f4e1c2aU, 0xbfc9f713bf063d2fU,
  0xbf598ffb3fb007b7U, 0xbebe9fe33f6ab473U, 0xbec7d73b3dfbe40fU, 0xbd66f51b3f99dfe1U,
  0x400059d4bed87cfbU, 0xbe7ef9933f2b2889U, 0xbebf748abeb4abffU, 0x3d9b7716bf88a531U,
  0x3e127fc03fbbba1eU, 0xbf051918bf4cdbd0U, 0xbe2243783da40955U, 0x3e0cc172be7bca91U,
  0x3fc4092f3f0bf9edU, 0x3ed1560e3f84c238U, 0xbca79314bf24521bU, 0x3ed6f8ddbe8fa41dU,
  0x3fe45d983f6fa478U, 0xbf98dcf3bed58ffaU, 0xbf91f37fbf5507a6U, 0xbe2f6b80bff7a64bU,
  0x3f572d7c3f3a37e9U, 0xbd44bc513b373326U, 0xbe23226c3ecfc8c7U, 0xbeca38fabfcad2c5U,
  0xbed25aa43f96d46bU, 0x3f0c077b3ed8d824U, 0xbe65d4793ec94768U, 0xbf8d0046bdefac1cU,
  0x3e4d406c3f48a22fU, 0x3ed357e1bf0034c7U, 0x3eba5b7c3f067f37U, 0xbe03c8c6bf71fb1dU,
  0x3d7434fc3d4d5bb4U, 0xb7e0a88ebe498ba5U, 0x3ddb6e8fbcd24dfdU, 0x3db39e8bbde03747U,
  0xbd07d5e4bd8962b0U, 0x3ed1ec243d693aa6U, 0xbe4bf5dcbce2a37eU, 0xbdf810a73d0f0444U,
  0x3daa2ee03dc3c60bU, 0x3c9e942e3e93f47dU, 0xbe6957f5be1cec7fU, 0xbe2113abbd26e6d5U,
  0x3d650fcbbe2a12daU, 0x3e01e48a3c950ee9U, 0x3d70facf3dff65a3U, 0xbe150b6c3d9cf6baU,
  0xbdb66b26bd939857U, 0xbe6317d13e117880U, 0x3c960e51bed63017U, 0xbe5ac122bdbb7c8bU,
  0x3d3149973e74a52bU, 0x3db3fb3c3e491eacU, 0x3d623ac83e3bef56U, 0x3e4388f53ded5be7U,
  0xbe5deb0f3e603bebU, 0xbd75f6f7bdd0a979U, 0x3dde61833e1c0c41U, 0x3c89f6fabd9b2b9fU,
  0xbddec51cbdfcd835U, 0x3ed715f23cd9f58bU, 0x3e3544ea3d0a2b1dU, 0x3ccae2e0bddfb85cU,
  0x3e1f9f3a3e0289ecU, 0x3da2be523e12ea82U, 0xbe80f3e7bd5f3581U, 0x3d401b7d3d5b8411U,
  0xbd0b3c55bdefa812U, 0x3d856b583e27f114U, 0xbd08fe323bd90933U, 0xbe587bdebd560b4cU,
  0xbe327e403b93216dU, 0xbdb44a0e3e2e9aa4U, 0x3dfa3e6d3dcafe3eU, 0xbd4cdc0c3dde350eU,
  0xbdc85d11bdc2e82eU, 0xbdc2e8fe3ab659f5U, 0xbe15a0a2be0310a2U, 0xbd704610be0c467bU,
  0xbd92595bbdd0ef71U, 0xbceaa4bd3c340465U, 0xbdfc84863d5e5320U, 0x3cf9edb8be0a6c1bU,
  0x3d46f4ee3c9efc70U, 0x3e64761bbd3d91b5U, 0x3cc63b52bd07947dU, 0x3de8e599bdcd1283U,
  0x3d27082fbdef6fcfU, 0x3e3a45233df04dd3U, 0xbdc45122be1ab805U, 0x3e7f5db4be86cdfcU,
  0xbf15e253be7b3513U, 0xbfa2c1abbed2094dU, 0x3c5bc8acbe6e9f40U, 0x3f398b81be5dc43eU,
  0x3f0453363f6e6ee7U, 0xbcf359efbe34a346U, 0x3d61aeec3f9d31ccU, 0xbfa99237befbb38cU,
  0xbe995f353f2bb721U, 0x3ec3b1d1bf374840U, 0x3fdda52abfe7c158U, 0xbfa96b36be98fcb4U,
  0x3f5e61b9bc26923cU, 0xbd2dddcc3e98f261U, 0xbfc814233d454323U, 0x3f59087e3f393383U,
  0x3f4b577ebe1060aeU, 0xbed39a1abe1ea8c4U, 0xc03265393e653c00U, 0xbfb9d5423e9a632aU,
  0xbf1e8a163f87e0d8U, 0xbeeee02e3fad5f03U, 0x3f24b8d03fbfcaf7U, 0x3f47c94d3e29a966U,
  0x3e544378be2798d0U, 0xbf1060f6be1fd0e5U, 0xbf4c36b93cf9b0b2U, 0xbea652933dec7b53U,
  0xbdfb98823fa48bb2U, 0x3db6c80b3f070c03U, 0x401996c03d32ea7aU, 0xbec3773ebf16b8c5U,
  0x3fac8871bfb29635U, 0xbedbdcedbfec7b6eU, 0xc011e5ffbea4d7e7U, 0x3f06f07dbff7992bU,
  0x4009369e3f91594dU, 0xbe272ddabece1527U, 0xbff86c803e9e3bf3U, 0x3de63023be731c03U,
  0xbf0c8c45be1c95a1U, 0xbe93a95abf2de014U, 0x3e17c151bf1e1e85U, 0xbfeb9fc0bf0f7991U,
  0x3fb664683e9a3273U, 0x3fa9d4c33fd792d2U, 0xbe93d8e3bdedf9e5U, 0x3fa67c56be84cc7fU,
  0x3ee6268f3f2fe1a4U, 0x3ec9b0de3e87a4bdU, 0xbf0104a93f71abd3U, 0x3e937f923f65aeccU,
  0x3fdfb3713f8eb246U, 0xbf3521e23d854713U, 0x3f113b86bf86b334U, 0xbe627173beb845faU,
  0x3ced16a83fb21df4U, 0x3e2f25b8be61dc58U, 0xbf3955473f983e5fU, 0xbe9dbda73e91c0f0U,
  0xbf3b96ec3f7f7814U, 0xbf17b965bf833b2dU, 0x3f073d98beaa537aU, 0x3ef470a6bd903f0fU,
  0x3fb01f1abeb026b2U, 0xbef24382bf9102eaU, 0xbf8ca33a3f73b88bU, 0xbfb8587b3c564052U,
  0xbfc9b25dbf4c0bcfU, 0x3e638391bea8165eU, 0xbf8b0776bec1dc68U, 0xbefd5a2cbf2fe204U,
  0x3ea050a93da65c86U, 0x3d7193773eafdb5bU, 0xbf915c133de7f315U, 0xba0970d63f09972cU,
  0x3df16621bef23289U, 0xbe8c902bbe58fabaU, 0xbf30a258bf8a4305U, 0xbcad70513f84a5d3U,
  0xbe923d31bf4e5b04U, 0x3ec8a4f63f26a525U, 0xbf9b3ff63f902ba7U, 0x3f465e7c3e41a2f9U,
  0xbdc008ac3f46ea53U, 0xbf18dd733e13cca7U, 0xbf38e7bb3f2adacdU, 0xc002cf943eb86288U,
  0xbf0690ed3f1484f0U, 0x3f1407553e79bc75U, 0xbc37bb493f80900cU, 0xbe95a71cbe9ca05fU,
  0x3daa6b67bf80a8adU, 0xbf6054603f826fe9U, 0xbfec06a6bf3f90fcU, 0x3f0442513f945155U,
  0x3fd2b60f3e71c4caU, 0xbeb66572bf51c123U, 0x3c09d4793f0ba5d6U, 0xbef5a098bed02779U,
  0xbe9b00543c631283U, 0xbf4a1d29bf928ac7U, 0xbfaf2253bc9312acU, 0xbef9bd1abeb726d0U,
  0x3eb7608c3f484df1U, 0x3f8eb2893ed7fecbU, 0x3e7c65ccbe11160fU, 0x3fd8ad36bea81a3cU,
  0x3f33a6e13f548e6cU, 0x3cf9b0f83ec5ebbcU, 0xbe8338413f6e4c7cU, 0x3eda8ee33f1fc107U,
  0xbcb705b63fad4b8fU, 0xbf18c0aabeb1b0f3U, 0x3ef8a2a63ccd9277U, 0x3eefc40cbf21f575U,
  0x3effd8543ef78e63U, 0x3f3db5393dadb36bU, 0xbf3473e8bf8597a6U, 0x3f69dd503e8ed481U,
  0x3e3505b4beaeb6cfU, 0xbf0933f83f3c3354U, 0xbe8cd062bec073f9U, 0xbf2e8471bf574279U,
  0xbebc26fb3fe14441U, 0x3f4548823f0e8ab5U, 0x3f59ea2bbf2c65adU, 0x3f6c53b3bf19fcadU,
  0x3f793c793fb66527U, 0x3e81734f3f50ad32U, 0x3f8eed4cbfe699c5U, 0xbf532ecd3ee22eaeU,
  0xbea0f31d3c5fc6e7U, 0xbdedfde63ee5daf0U, 0x3fa4313abf026874U, 0x3e828497bd4be120U,
  0x3eaed3153f3c91e8U, 0x3f637df93e468f45U, 0x3fc30004befa986bU, 0xbf6ffa93bfaf8ef5U,
  0x3f8067b43f3c2145U, 0x3f67eb793f22a677U, 0xbe8658d7bdebf732U, 0xbf35f8bc3dbf0530U,
  0x3d97bf1ebf7461eaU, 0x3f037e91be3174c1U, 0x3ed9caf5bf3b0e70U, 0x3f6a4276bf2b6dd5U,
  0x3f9d4cfdbee3f89eU, 0x3f30a0aa3f27a3adU, 0x3ff41bb2bd96554cU, 0xbee8c4a6bed5b174U,
  0x403240b83f02992eU, 0x3f9dc4ed3e0c4020U, 0x3faedf543f39ab0aU, 0xbe83fdc5bebc2cb0U,
  0xbe7ecc7fbf008c3aU, 0x3f12c12b3e99b217U, 0x3e0e5db8bd9d04cbU, 0x3effcdd23e2391a9U,
  0xbf7297bdbe73652eU, 0x3d1eb9a53f77d5c7U, 0x3f7e2b45bf04a2bcU, 0x3fb6c4683dd3062bU,
  0xc013f4333f346e59U, 0x3dddb932bcc48989U, 0xbdd5d7083ee46e9aU, 0xbf6c2a003f4d4687U,
  0xbecf1dcbbf097322U, 0xbf86334c3ecc7344U, 0xbf81c8cfbed0b1b2U, 0x3ddaeca9bf86fb2fU,
  0x3ea9fcc4bf5910d8U, 0xbe7ec117becdd95fU, 0xbe7f28203f188160U, 0xbf4106643de3bfcbU,
  0xbec3793cbf1554c9U, 0xbee1eb85bf13b24fU, 0x3efaff023f7a7651U, 0x3f830f5cbf551245U,
  0x3f0ed835bfd9c7aeU, 0x3f7103ac3f45a46fU, 0xbc166e243e47a5b7U, 0xbf83f7d7bf486bd7U,
  0xbfcde78b3db5c898U, 0x3e1802be3f312d5bU, 0x3f90a934bf70fd6cU, 0xbf0ccc1cbea5051dU,
  0x3d6c9c633c870a70U, 0xbe7bd14bbf08c83eU, 0xbe42b1e83ff3f4d3U, 0x3f24763c3e0bed0aU,
  0xbeec6a3bbe97b5b5U, 0xbea32d103f72d014U, 0xbf6bfc673f61dbbfU, 0xbf3f31863e933b2eU,
  0xbe95e977bf902cc2U, 0xbe47e543be7aa83aU, 0x3f452b903f0a561bU, 0xbf73d81b3d03953eU,
  0xbf74af763d4c3d6bU, 0x3e303358becf7ff0U, 0x3ff857303eb29392U, 0xbf7f8b23bd5d21eaU,
  0x3f343635bce14a29U, 0xbfaca1ee3dd48b58U, 0x3e828e20bc16b7d6U, 0x3f5844f1bf780333U,
  0xbef693e53f7afaf9U, 0xbe3b74b93f3c3d1dU, 0xbfdee546bf80c725U, 0xbeb12a31bfa7de34U,
  0x3fbfd5113fb1de67U, 0xbf282af23f97a94cU, 0x3fe5bcb33de09b6bU, 0x3e8e52554008fa98U,
  0xbf0da2c63d34f942U, 0xbe307895bded0c20U, 0x3f064f473e564e4dU, 0x3f97f89fbfd98b38U,
  0x3efdb92e3f26d014U, 0xbe06a05d3f27338aU, 0x3ee00110bf594d20U, 0x3f9164633ee54636U,
  0x3ea51e7b3fb628a2U, 0xbe6870dbbf18e179U, 0xbd233b40bf0123d7U, 0xbeec7499bf203084U,
  0x3d1c15ce3e269dabU, 0xbfab52763f349eceU, 0xbf3025153f54770fU, 0x3e7fd3efbf03513eU,
  0x3f956aecbf949c9cU, 0x3f36e78e3ef03656U, 0xbe9923fe3fba8febU, 0xbe992302be57db50U,
  0xbe8bf5e73edd63baU, 0x3f0ad16c3efb8762U, 0xbeef6d653f12ee3cU, 0xbe22ce41be924d2cU,
  0xbe944b1ebe6c8cddU, 0x3f32e6db3e1dc354U, 0xbf836a5ebe60ec65U, 0x3db920a8befd79e9U,
  0xbea32172bed5fb3bU, 0x3f2b26a1bcefdc69U, 0xbf86646c3cd98516U, 0x3f15cb313f02e69eU,
  0x3eb607623e5c2b1bU, 0x3ecb1c7f3ed29c00U, 0xbffb45e6bfcecc05U, 0xbd25f207bdee5b4dU,
  0xbf55eb353f221234U, 0x3ea6b6533e6a8199U, 0x3eda3ab73da63a45U, 0xbe4b46033e8bfcbaU,
  0x3f26692d3ee63badU, 0x3f8ed12ebf066aa3U, 0xbf3bfb703f3739b4U, 0xbfb30bd5be191c79U,
  0x3f24b84dbe73b441U, 0x3f610f143e8ee4efU, 0x3fe7d567beda5bfdU, 0x3f86179e3e01da8bU,
  0xbedf7c923f08493dU, 0xbdd92695bf0792a3U, 0xbd45c830bedfe7ceU, 0xbdec2f4abf879a04U,
  0x3dbd60453ea2c9fbU, 0xbeb492e73eae9a14U, 0xbee1b735be6121feU, 0xbf026808bfd7ee01U,
  0xbebb28c2bcb2892aU, 0xbf5c2594bf2eda2fU, 0xbe14c2443e8c7faaU, 0xbd6a0d05bf196502U,
  0x3eb0a0ad3e86f5f2U, 0xbde61587bf388818U, 0xbe0a3b2e3f41a21eU, 0xbf0e3134be245d41U,
  0xbfbe35b5bedd6d2eU, 0xbe8ab029be037ad7U, 0xbfe92fb83f4a64d9U, 0x3e87a5613ed076beU,
  0xbfb3f28b3ff8d108U, 0xbeea88d33f4c191bU, 0x3e14322a3f0023f3U, 0x3ea9195d3fa9a6aaU,
  0x3f4e082cbe9a079aU, 0x3dc82a81be60c725U, 0xbee9671f3f76fb52U, 0x3e00bfff3e8c8c6dU,
  0x3f0c7b113fade81bU, 0xbf033476bf5f3da0U, 0xbe51b30fbfafd1a0U, 0xbed0409e3e57ef9dU,
  0xbf34235e3f900742U, 0x3e8b397bbe9bd6bcU, 0xbf8bbae23f1745a0U, 0x3dd6841c3e8a63f9U,
  0xbde8bf6e3e97e49eU, 0x3e26aa91be8a3225U, 0x3ebe660e3d8d02b5U, 0x3e9fd6723de1bf90U,
  0x3d2fcb92bd1ef74aU, 0x3e7158f4bd0410afU, 0xbea8ea0f3e0a23edU, 0xbd3849fdbd53f628U,
  0xbe95dcff3dc00cfdU, 0xbe647c7e3f615b01U, 0xbedd9a0cbed39921U, 0xbc5b5adf3e0cc0c0U,
  0x3ddbb6a6bcbba2b1U, 0x3dc38996be8b3c52U, 0xbe06e96d3ef5392fU, 0xbf19d19abe26aa9cU,
  0xbeb7deb2be51d393U, 0xbeb66f493ea930f3U, 0x3e3da7d0bf898cd6U, 0x3dbb1d54be0996b6U,
  0x3e792c933f07a9dfU, 0x3c1a9efa3eb93e2dU, 0x3e3ddfd5bd6437bcU, 0x3e81f9ea3cd9edceU,
  0x3e4c1a253dec0d13U, 0x3ec9b721be34bdc1U, 0xbe94feea3ebe3951U, 0x3dc21f6d3b25e2a9U,
  0x3e469f1dbee7f9e0U, 0x3e38c0d4bda28a83U, 0x3dc72798be5f509cU, 0xbdf521093dd8f4a6U,
  0x3e9753223f1046d5U, 0x3ea67b9d3f75e3b8U, 0x3d39fc84be1fbb16U, 0x3ccb55f03ce50ed0U,
  0x3e0e3b22be59430cU, 0xbe5996edbca7194cU, 0xbd26b41fbd73e0cbU, 0xbef75bb8bea65b2dU,
  0x3d0aa0483db1e27fU, 0x3d83fb66bdaab588U, 0xbd493fc23ced8e07U, 0x3f0eedbb3e94e37fU,
  0xbeed426cbeacfbd1U, 0xbd0bc9e3bce54c2eU, 0xbe5b737bbe885d23U, 0x3e4a83b1be5086d9U,
  0xbcce9ce63e86ae98U, 0xbe2671e1be14f31bU, 0xbe6e9c56be30e0e8U, 0x3e3ce797bdaa4741U,
  0xbe2381e73e95e7d5U, 0x3efec7d4bdb6f9e5U, 0x3ec3b9fcbe2aaefbU, 0xbdc0b6b73dd8c5faU,
  0x3c90289abda12f1fU, 0x3e8bf6873e7310c6U, 0x3e19cbf33dcef89fU, 0x3dc380bfbe97113bU,
  0xbe036f40bd58eb78U, 0x3ceddc2c3e603303U, 0xbf183a063e0129e0U, 0x3f1206db3e54012eU,
  0xbefa8b7bbc7ab949U, 0xbd8f792d3e7fb9bfU, 0xbd33b575bebeeb06U, 0x3f0848763e4c5d37U,
  0xbe16c268bfbc80f4U, 0xbf1e0757bfb85a74U, 0xbe3d46c93dc70434U, 0xbedd2f2e3f810389U,
  0xbf693779bfcc2fcdU, 0xbe0ffd05bf7dcbc9U, 0xbd67768f3d989a7aU, 0xbfb08ff03e70ddfaU,
  0xbf352921bf3c2d33U, 0xbf98abb13ee52d6bU, 0xbe793bbebdcfeda4U, 0xbf8d2525bf99ebc2U,
  0x3f2c77fc3eea4672U, 0x3ea4badbbf203b15U, 0xbeaa05e2bda1a658U, 0xbecf850fbe6677a4U,
  0x3f86ce18bd593328U, 0xbe4c4d45bd13ed1eU, 0x3ebcf1b5be32df43U, 0xbeb5ec393f3fba82U,
  0xbe8d5de2bfc04ab0U, 0xbf212a7ebec1aac6U, 0x3e8a86bc3dd87b76U, 0x3e0c27ff3fde0cf0U,
  0xbeb6ee7dbeec024aU, 0x3f9889c3bf6a5bb8U, 0x3fac29353e11c1fdU, 0x3ec39527becde722U,
  0x3f3d7f3dbe2f782dU, 0x3f6408a53ece183dU, 0x3fba4788be940401U, 0x3e6888113f592711U,
  0x3f52e1a63e896dcbU, 0x3ed4e8d53f369a79U, 0x400945953e888291U, 0x3fc4cebabf84d5a3U,
  0xbf0db380bfbbbe84U, 0xbf0428a1bf676786U, 0xbe8d7d8fbede51a5U, 0xbf6c5b78bfc2b21bU,
  0xbd3fffa43e74f6e3U, 0xbe40e187bdb47a35U, 0x3e259518bf68c23fU, 0x3f7770583d4508c1U,
  0x3e7464613e496c54U, 0x3f9785b63f218004U, 0xbea78e2d3e6e44ebU, 0x3ecfbda23e5009ecU,
  0xbf0648b4bfb5312cU, 0xbebc8f993e860832U, 0x3f84a6443f95b5a5U, 0x3dd08aa83ec83c13U,
  0xbda7a7373e8c3e5fU, 0xbf0c54453bbd0df7U, 0x3d7d25023e81cfceU, 0x3dcb58ae3e19c262U,
  0x3e2a6833bebd3b89U, 0x3e8b4f6b3de8f964U, 0x3de12826be0580b7U, 0xbe572c96bc6e6c37U,
  0xbcb122f4bb0ec0ebU, 0xbcb2aa0a3e82aa44U, 0xbef9fc73be8fa066U, 0xbe758f0f3e110ac6U,
  0xbcd865a3bd92dc7bU, 0xbd8308db3e8c1e4bU, 0x3e8ec7f03e5d4539U, 0xbe9e663c3ea22601U,
  0xbc6d3ac03de9604bU, 0xbe06ad873e5cbb8aU, 0x3e98b9bcbf2e7e87U, 0xbe2fa27dbd783f43U,
  0x3ebe4d3a3df95128U, 0x3df513283e566615U, 0x3e6e8ebbbd878d16U, 0x3cbbacaf3c8ce3e5U,
  0xbe5b154f3dd0ce02U, 0x3e5ff79cbe100f61U, 0xbe243542bd2b46b2U, 0x3da97c9d3d7a3c72U,
  0x3db89d6abee29d65U, 0xbd6582b63e176cd8U, 0x3e577974bdc46fd2U, 0xbe7415e1bec18059U,
  0x3e1766243da519e9U, 0x3dd61a323f44e3eeU, 0xbe8877d0bdb9357eU, 0x3ea7ae39bf10a13dU,
  0xbd84b7bd3ebebe34U, 0x3dbac1133e393e05U, 0xbe9cfc18bd40e4bdU, 0x3da6f2abbf23cb94U,
  0xbd8075c03de3d657U, 0x3e0891ed3d8c4adfU, 0x3e8421143e32851fU, 0xbe9aa1163e617b48U,
  0xbe7df3ebbee3736dU, 0xbe8fe018be795884U, 0x3dd48700be3e9366U, 0x3d77f4b2bc49a0d7U,
  0x3d5dc7283e82bd3eU, 0x3dcba3debd44e92eU, 0xbe8bad1b3e02c6a3U, 0x3ed5a2583e2e147aU,
  0xbdf6c7cb3e0b4914U, 0x3f01eac13e03cc5fU, 0x3e02cf93bebe012dU, 0x3e92c040bd3bb383U,
  0xbe82a793bd54a75bU, 0x3e323b6b3d69e9fdU, 0xbd152f4cbe3bfc2cU, 0xbe01a69fbd088a62U,
  0xbf57fbf2bf2e88f4U, 0x3f4d4894be056811U, 0x3f98296fbecea886U, 0xbf1c2298bda31d1aU,
  0x3fb7ff58bf80005aU, 0xbee7136cbf35ef48U, 0xbf209a773f543581U, 0x3f2f1825be807950U,
  0xbef4160ebf323586U, 0x3e5a9f46be484233U, 0xbf898ec0bfd26dc4U, 0x3eeeb7fdbe61ef75U,
  0x3e30bd123f4efd2aU, 0xbf13349e3e09c157U, 0xbe4bf5fbbe51b778U, 0x400941c23e76e8f0U,
  0xbf3b0548bd9e0e3dU, 0x3e60bc5f3f8bbee6U, 0xbfdd97f23f274fb1U, 0x3f400f9c3fadc076U,
  0x3fbbbfbdbc938800U, 0x40014c503f358dccU, 0xbf4eeb3d3d828229U, 0x3ee64a263e1e799aU,
  0x3faf90a23ea85200U, 0xbf5b20783e14f0d1U, 0x3cf39530be2fcd96U, 0xbe1246eabf8151baU,
  0xbe07a61ebf86ddb4U, 0xbf4a867d3f562c9aU, 0xbec3cffe3d95e3c8U, 0xbec18e83bf9c757bU,
  0xbeff2b26bf837275U, 0x3f2468f03f7df2deU, 0x369744f8beb0b849U, 0x3f49a32ebfb1ad4dU,
  0x3e86bedcbf3cffd6U, 0xbe4d75b13e338307U, 0xbf80d5483e5e5c74U, 0xbf9197a7bf9d835fU,
  0xbf0e4e43bbe7a403U, 0xbf3acb3c3f11d604U, 0xbf8df054bef73b54U, 0xbe28c66b3f456454U,
  0xbe997d6abfdcc4dbU, 0x3f824e4b3f63bd80U, 0x3f8d71dc3ec4e280U, 0xbd8285423f86c4c9U,
  0xbeaf866d3e29e6cbU, 0xbd5a37583d0a4bceU, 0xbee1d5783e2e83d7U, 0x3f2c6ae7be2c0f37U,
  0x402558a43f1e53e2U, 0xbffcecb6bfa4449fU, 0x3e8150ed3e164b13U, 0xbf0e977cbf8d237fU,
  0x3e271beebcca3047U, 0x3f48bf4a3f63b74bU, 0xbe9fdd4fc036a8edU, 0x3f32bc893f18c1fcU,
  0x3e4ecf94bff88322U, 0xbea0ef1c3f2c5ff7U, 0x3e9d4611be1d3f9cU, 0xbf36142dbf0a35b8U,
  0xbf6b12b8bee64613U, 0xbe4dcc843f347315U, 0x3efb01a0bf6c7f7eU, 0xbf141a8ebe3361e8U,
  0xbd82352f3f75bc6eU, 0xbe37ff4fbe104d67U, 0x3f81db0a3f8603feU, 0xbedb3f2e3f2ac603U,
  0xbf9870f8bf5d3fdfU, 0x3f1a675bbe90af49U, 0x3f92019bbeec7981U, 0x3e06cde73e849ba0U,
  0xbfa06254be618e89U, 0xbe8c1ef33e6253edU, 0x3f82c6bebf9147f8U, 0xbfbb469cbdc0cb1fU,
  0xbf4177b3beb20a00U, 0xbbc1c0553e89b141U, 0xbf9969713f6cd600U, 0xbf18d0a8bec1bd86U,
  0x3f46d1f7bf0ee239U, 0xbf5ac507bed8349bU, 0x3f66354e3cee9eb6U, 0x3f9cfa15be8c64dcU,
  0x3d2589eebf58cd80U, 0xbf509a8a3d23a8d9U, 0xbe84fed2bf7d77c3U, 0xbf129f24bfb0975aU,
  0x3fa36a143ffabc37U, 0x3eab7fd53f5aad97U, 0x3fe93582bd3c84e3U, 0x3f29f4f5be3d3901U,
  0xbe223513beaf5f6eU, 0x3f419f41be2a2d20U, 0xbedd60f03f044427U, 0x3e28d956bfad418dU,
  0xbe4849483d4b4010U, 0x3d5d7ba43eec406aU, 0x3f5ab6ccbed5ccd5U, 0x3fa739eabfca22c5U,
  0xbf9de0c73f16e0adU, 0xbea41638bf3c04e7U, 0xbed95f99bf098e3fU, 0xbfabb4fa3ea8facaU,
  0x3d9ff7f0be88fb26U, 0xbfc648293f420912U, 0xbf24408f3e904f32U, 0x3eb42da6be563270U,
  0x3ef6665abf136b10U, 0x3f999d633e077d81U, 0xbe519a4c3fde3a64U, 0xbe193bb8be85371aU,
  0xbf2bde8cbfcc2c64U, 0x3e4bb6af3ed56b4fU, 0x3f191a13bfca1127U, 0x3fbc0e83be13abb4U,
  0xbd420e5dbef15eb8U, 0x3f810386bf34f87bU, 0x3fa62b733f872092U, 0xbf70a286bf0cfa16U,
  0xbd91133abe8d3530U, 0x3dde086f3e846bfdU, 0x3edc8994beeca74dU, 0x3e69657a3ebd7402U,
  0xbf9ebcf23f765475U, 0xbe768248beab7f40U, 0xc006a5b7bf94c1d4U, 0x3f011a55be9b11a2U,
  0xbfc7ca7cbf27ad85U, 0x3e17ca1b3f84cf5dU, 0xbe49980e3d082adaU, 0xbef78559be329c23U,
  0xbf9371b93e80db2dU, 0x3f09da03be47ca8eU, 0x3e739c4f3fd7c250U, 0xbeb81951be5eb4c6U,
  0x3bc158b8bea8fc33U, 0xbe195c703f8ff5adU, 0x3f09ad23be04b355U, 0xbdbc131fbd3bc54cU,
  0x3c81d3593f638464U, 0xbfaec7b2be2a5acfU, 0xbe9015b03f1ae704U, 0x3f8596e6bee2c4cfU,
  0xbec197f33eff1af7U, 0x3e617192bec87869U, 0x3fa307ec3f60c7b4U, 0xbf7a441dbe7e74b8U,
  0xbf2a20383f55c5fbU, 0xbf2336a83f9d8badU, 0xbf28d7123e918f34U, 0xbe6abe8bbff1a538U,
  0xbf34920e3f67ff9eU, 0x3e4b0b84be2e6d6aU, 0x3f5964db3f345268U, 0xbf1df48abe136a30U,
  0xbe0e24783cae8c1eU, 0x3e8e816a3f426082U, 0xbe2e3965be10be96U, 0x3f223fc03f1da5d7U,
  0x3f54925f4012d91cU, 0xbf52f2833e9148d9U, 0x3e7b7154bf6463c3U, 0xbe2615323ef7b03cU,
  0x3f84e7583f729b5cU, 0xbff0af283f413f1cU, 0x3f8513e13f815c4fU, 0x3d4d6697bddba736U,
  0x3fcb0c2f3e4bdb6fU, 0x3f2244313ee7be08U, 0xbf2d4f083f05fa5aU, 0x3f2598c63e7f3ba9U,
  0xbf3edcc0bf00b900U, 0x3f5a3e153f927464U, 0xbeafd75abf726274U, 0xbf535caf3f102c7cU,
  0xbf02765abfb0c54fU, 0x3eff14e0bf83f4eeU, 0xbfae6b70bf02914cU, 0x3ea4dd18be633ab3U,
  0xbf9d72963ed2525cU, 0x3f70a5b63e8e7100U, 0x3b5862ef3e9e98cdU, 0xbfa0dc80bcfd1821U,
  0xbed696f4bf87a457U, 0xbf3f3ce4bf573711U, 0x3f5abedf3fd9cb12U, 0xbe6dcaf33f7e1e11U,
  0xbf9e8a16bf9642cfU, 0xbec4a068be74c258U, 0xbf370bf53f0f0b40U, 0xbf505be8be0149beU,
  0x3ca46c01bef6bfedU, 0xbeff0725be43ebd6U, 0x3f741ce1bfff1fe6U, 0xc03659bfbfb3dff3U,
  0xbfd184c1bf019edcU, 0x3d6abc48bf670451U, 0x3f736d213e9b3d63U, 0xbe9e59603f235c9dU,
  0x3eee0f1fbdf9df14U, 0xbfa334b8bf459885U, 0xbf689ddcbf66a9cfU, 0xbf7e8c4c3a870b19U,
  0xbd8d6e5e3f94a323U, 0xbfc62fde3e423c11U, 0x3fc7573e3f0e7ee8U, 0x3f42f4bebe1233bdU,
  0x3fb45378beaf3ab1U, 0x3f2a54e3bf45f927U, 0x3e60a9923f725f16U, 0x3f1bec703eaee088U,
  0x3d1e6f703f9230a2U, 0x3ef5d6e53e3d6470U, 0x3f525a8d3e2ed7e5U, 0xbeb72d6ebe7a3223U,
  0xbeaa0c343f374e85U, 0xbe4deb033e802c93U, 0x3f862fd7bf319883U, 0xbd07c9b1bf085a19U,
  0x3f59dfc83ffa42b3U, 0xbeb6fcd43d0f8a01U, 0x3ee597873ebf5500U, 0xbbfe4a683f210351U,
  0x3d8ff6b43d34859eU, 0xbe27e899bee5c44cU, 0x3f00bcb43f0be872U, 0x3f480501be265d71U,
  0x3f4235303f11e476U, 0x3cf5619f3f7577d3U, 0xbf3777053ec19732U, 0x3f7e91af3f5e5cb4U,
  0xbf69c1123f3d10e3U, 0x3f0b27a7bebd5e57U, 0xbd4d2c573f373160U, 0x3fbc8d673e7715afU,
  0x3e6f6c25be85f1eeU, 0x3e9bb172bd63b008U, 0x3f5b30b53f0eb173U, 0x3e5d4c73bdd076d9U,
  0xbec42aa83f9774fcU, 0xbe072bae3d839878U, 0x3f502a023def56f5U, 0x3ef17c583f3e487aU,
  0xbec024ba3fcc78fcU, 0xbd3feaa53d263dffU, 0x3f8cfedbbfa34f94U, 0xbf8e2caf3e8076e5U,
  0xbf470095bee9917eU, 0x3f403bf5bf073a91U, 0x3e33f0293e4d8f01U, 0xbe95b9ce3f069056U,
  0xbf0a26603f12d874U, 0xbf697983be8bfff3U, 0x3fcecd3cbfb610afU, 0x3c68324bbf427597U,
  0x3e883715bf678583U, 0xbf9085a83ef49a14U, 0xbf1d1629bf2c3689U, 0x3f185ef5beaa0a74U,
  0xbda7f182be70bd1fU, 0x3ea6ec45be5eeda0U, 0x3e70a01b3f0cf8adU, 0x3f47358a3f07ca45U,
  0x3f4298143e6f8610U, 0xbfb1c6b8bf13e710U, 0x3ff9694d3ebca2e8U, 0xbfb7295c3efb6535U,
  0xbf9acdc73eb134beU, 0x3e060459bfa89218U, 0xbefd7efebd8f36beU, 0x3e7205f83ff6301fU,
  0x3ed71db03f4c3be8U, 0xbe0cd3f1be2ae55aU, 0x3e92849fbe82dccfU, 0xbec2fce33f906a8eU,
  0x3d76a348be64dfbeU, 0x3efb57133cda9d30U, 0x3fa47251be66a44fU, 0x3f9f6554bd5329ecU,
  0x4008c9c53ed87a02U, 0xbecfd486bd090522U, 0xbe782a89bf744a91U, 0xbf3d0fddc00066c8U,
  0x3f3481f23f00a849U, 0xbf48f8673e451c92U, 0x3e778616be180898U, 0xbf236ddebf0102dbU,
  0xbf8295d6be87b72dU, 0x3f833e703d17ee10U, 0xbe820e30bf1315d5U, 0x3e0e35a53eddd55cU,
  0xbe8b76a2bf6ba399U, 0xbf968feebeab0f60U, 0x3d1e32873f00722bU, 0x3f35a6dc3fa7e3d4U,
  0xbedb0e3ebe325d30U, 0xbd5cd579bdc7c9ddU, 0x3f9eb152bf3d226eU, 0x3f48bdac3d00ae07U,
  0x3f28ea5abe2e203dU, 0xbf0f474fbe343bfeU, 0xbedead763eadaa5eU, 0x3eae9411be11ff05U,
  0x3e6d69febf619d91U, 0xbce19236bfb46ae4U, 0xbf5843e9bf040a90U, 0xbf46ffafbf91fee5U,
  0x3f5cbb2d3f37aca4U, 0x3efd978ebec01d38U, 0xbec0e6663ec42983U, 0xbecaf9b0beee4ff9U,
  0x3f88e2e23ed7e899U, 0x3f1392223d960191U, 0x3e3334033dd0dcc9U, 0xbcac53a73fc63efcU,
  0x3f95468a3f4a06c1U, 0xbf6412e1be0bf782U, 0x3f03a1c33c66df31U, 0x3f56e765be019666U,
  0xbf6543523e0f2bb1U, 0xbf0fce2c3e29a554U, 0x3d0ac1553ec6d408U, 0xc00086a93e1e6413U,
  0xbc8739b3be044bf6U, 0x3f79c9713f265175U, 0x3ecc0aac3fa5e3f8U, 0xbf4bbdbbbfb6ae72U,
  0x3e9aacc7bf993cb6U, 0x3f9d8c7cbecf591eU, 0xbf40bc3e3e4af5e4U, 0x3e6b7b333f119cc7U,
  0x3f52ee503ed0eb25U, 0xbf02366fbec43eaeU, 0x3e1ce5993da563a4U, 0x3dbae3a53e986ddbU,
  0xbf31c9eebe8e26caU, 0x3e9a38543f569b92U, 0xbf8836823f81c06aU, 0x3eca31e0be353af1U,
  0x3f3e85fbbf96baefU, 0xbe7e619abe480249U, 0x3f018dd33f66e4ceU, 0x3d81d5db3f7fe670U,
  0xbdc7cfe4bbee00a6U, 0x3f28c49cbe14924dU, 0xbf6a2f183f1ecb52U, 0xbf6c6912bf00c3f0U,
  0xbca326223ed845dbU, 0xbf0bb1d3bf197a45U, 0x3ed8193fbf45a57eU, 0xbebadf8ebf146b67U,
  0xbe6498d23fa86c11U, 0xbe96598dbfccb362U, 0x3e89f2853f071165U, 0xbec129953dcaef75U,
  0xbdc8ab50be44aaefU, 0xbf28ec043f95b905U, 0xbed33809bf0fef2bU, 0x3e508fc4bb8454e5U,
  0xbf616408be45ec39U, 0xbd4802ba3ec889fdU, 0x3f4e6d5c3e220586U, 0xbeee481dbedf0dacU,
  0x3f82ff48bf02f0d6U, 0xbefae63fbea30726U, 0x3ec446943f900129U, 0x3f8fa648bef4ac22U,
  0x3f5d2ad33f8a8e30U, 0x3e074a153ef8bcaaU, 0xbf8c11cfbe2f7dc3U, 0xbf91e29a3f8c56dfU,
  0xbe7e4b3bbf43a17cU, 0x3ea968183fe1d768U, 0xbebe304a3ecaba25U, 0xbdd2dbeebf57b3edU,
  0x3fcf48703f4c587eU, 0xbfe8ca90bf93e9e5U, 0x3f0b485b3d85ada7U, 0x3f38738abf861e93U,
  0x3e8c321a3f9339adU, 0x3ec2dbb43ef2347dU, 0xbf28f6a53f163c6fU, 0x3f9ac4b93ed48079U,
  0xbeb6fab1bfa2d94aU, 0x3dc3e45ebfa1ef2dU, 0xbbbd8127bd10e5a9U, 0x3cb85a6a3d8094feU,
  0x3da9bbac3d92c5f2U, 0xbe0369b9bccedd27U, 0xbdcb43733c02ce65U, 0x3d9361423e26ff15U,
  0xbbf531243d872cc6U, 0x3b849c053d83df07U, 0x3c0db4a53e1391e9U, 0x3de98f16bc490797U,
  0xbd173c37be2d6745U, 0x3c5e24d83db2fab8U, 0x3e04a630bd41e017U, 0xbdec3a8c3cf99449U,
  0x3c1d4f653c5ef73dU, 0xbdecd528bdc104c2U, 0x3d59859fbe55a2faU, 0xbd9315b4bd7a1ab8U,
  0x3da85f333dc46719U, 0xbe1bc2e53e4578dbU, 0x3d8113ef3e1e9b17U, 0xbda24905bd454861U,
  0xbde118313c561a7bU, 0x3cdc021ebcffbf84U, 0xbdf4b4e43dd29676U, 0xbe05105d3c220131U,
  0x3d5dd7afbca43b9bU, 0xbd4ad8533d46bda9U, 0xbc11fe52bc9a316fU, 0xbda839b3bd4d12b4U,
  0xbc019c7c3d0e3456U, 0xbca754c4bdd59d83U, 0xbbea08bf3db00aa5U, 0xbd002efbbce45510U,
  0xbc97c0683cf63de3U, 0xbbd32ae53bab1b3aU, 0x3c09ae97bafe96eeU, 0xbd2e63cfbdd437b1U,
  0x3d54dbb43d9443c7U, 0x3dca74bcb90dd739U, 0x3b7192fa3b5263c6U, 0x3d9c38c5bdd2b31aU,
  0x3d256be7bd0bc181U, 0xbc99859bbd394da1U, 0x3e2e69a0bccfba63U, 0xbdfff2b6bcf14678U,
  0x3d07ca19bd953864U, 0x3dfeca4e3db56701U, 0x3d43fa7bbdb100ebU, 0x3d7a49cdbdf95ff7U,
  0x3e2a2733bdb047e1U, 0x3e00421e3e094715U, 0xbde1c8ae3cc66f26U, 0x3de4200abd1f5d00U,
  0x3dc99fe3bddc9db6U, 0x3dd370b93cf3f7e8U, 0x3e0e615e3d0d9aa3U, 0x3e0c0caf3dcd94d9U,
  0x3ba256fd3ddce344U, 0xbe310715bd827071U, 0xbaed10a13d4a313dU, 0x3e0ff8e2bc4eb361U,
