/**
  ******************************************************************************
  * @file    wine_quality_data_params.c
  * @author  AST Embedded Analytics Research Platform
  * @date    Mon Sep 25 11:03:48 2023
  * @brief   AI Tool Automatic Code Generator for Embedded NN computing
  ******************************************************************************
  * Copyright (c) 2023 STMicroelectronics.
  * All rights reserved.
  *
  * This software is licensed under terms that can be found in the LICENSE file
  * in the root directory of this software component.
  * If no LICENSE file comes with this software, it is provided AS-IS.
  ******************************************************************************
  */

#include "wine_quality_data_params.h"


/**  Activations Section  ****************************************************/
ai_handle g_wine_quality_activations_table[1 + 2] = {
  AI_HANDLE_PTR(AI_MAGIC_MARKER),
  AI_HANDLE_PTR(NULL),
  AI_HANDLE_PTR(AI_MAGIC_MARKER),
};




/**  Weights Section  ********************************************************/
AI_ALIGNED(32)
const ai_u64 s_wine_quality_weights_array_u64[11796] = {
  0x3ea6041400000000U, 0xbd10f6aabb8da61dU, 0x3d8d2eb4bcd61df0U, 0xb9d1a874bd1e464eU,
  0x3ea3c351bc52d015U, 0xbdbe0c2e3e25b1d7U, 0xbd92aa3100000000U, 0x3eead797bd48517aU,
  0x3ddae83dbafc0be6U, 0x3df1ffb03e22f0e6U, 0xba1a73bdbcab0cbdU, 0xbd05b071bb5fdaffU,
  0x3eb72fd8bc1a076aU, 0xbd54a488U, 0x3e52e1eebc66f55eU, 0xba57a68abc9afc55U,
  0xbf1db48c3ea9076fU, 0xbea322573cd5d64eU, 0xbec621ae3eb03fd2U, 0xbd8445843e665ae7U,
  0xbe86b1f9bdc55e1dU, 0xbe4ff4b9bedd5417U, 0xbe89d9d8bdc09d54U, 0xbf02a4cf3e847933U,
  0xbedbc1103eb4a26aU, 0xbf0b5e213cba5211U, 0x3de99db43ea3c10bU, 0x3cf3faa73e8c9182U,
  0xbebb91873eb6e720U, 0xbe1f51893c3abb3cU, 0x3d77d28bbea176a5U, 0xbd23636abe8398b5U,
  0x3eb1e5d33e29212eU, 0xbe5f8e0b3e07fca8U, 0xbe9ebd15bda5b324U, 0xbd9423783ec38129U,
  0xbbd0f1d6bdd54396U, 0xbc0644f23eb70b83U, 0x3dae1828be92a67dU, 0xbe4a1e5f3eb3fee5U,
  0xbe9aee32be931109U, 0xbba094f0be7fd26cU, 0x3ec38315be159e17U, 0x3e678085bd3e03cbU,
  0x3e30586bbe64f705U, 0x3e2f2d32be311348U, 0x3dec81af3d72acc6U, 0xbd46215abe302d19U,
  0x3f1316bc3e5e8816U, 0xbd663479bec29067U, 0x3d736ff13db57d67U, 0xbde336243e6b9d7cU,
  0x3f01a3b5bc57099bU, 0xbeac34883e80d1fbU, 0x3d878970bdb2db18U, 0x3ed31c4cbe98c0b3U,
  0x3db781b73e5b3014U, 0x3e873a323e8111f5U, 0x3a48cacfbeb3336fU, 0xbec617b8bea3ea58U,
  0x3f1572cf3e04343fU, 0xbe908b80bd0e5d64U, 0x3eb74bb1be4074fcU, 0x3e947f6d3e767b90U,
  0x3f006965bec14c6dU, 0xbe2185cfbe49fa2eU, 0x3e3f6cab3dc2143eU, 0xbe881be43ea69d5aU,
  0x3f197372bcfd2e3dU, 0xbeb282fc3ecb9032U, 0xbe0aff523e67280aU, 0x3f02f01b3e1174b0U,
  0x3dfb2099bea9dc75U, 0x3e8cfdbe3e93e422U, 0xbd4fae0e3d693f7bU, 0xbc607d87bde94e08U,
  0x3ef27021be1a1ff1U, 0x3dff0bacbeb8fe59U, 0x3da2937ebe2db6dbU, 0xbeaff2d8bec25560U,
  0x3ed53d1f3ea7b64bU, 0xbe31a5b63ea7afbaU, 0x39a21f8e3e97642fU, 0x3dbcba88be7417a5U,
  0x3effc884be8a281fU, 0xbe9f3c99bb4db482U, 0xbe1f7aa4bd39b9a0U, 0x3e8b1916be4a3043U,
  0x3d008bab3e1651aaU, 0xbcd092663ec4f048U, 0x3c309559be047f7eU, 0xbd5df11b3e997e2fU,
  0x3f053a78bd4a7dbaU, 0xbe98dce13ec71629U, 0x3ebc30d23e3fadd2U, 0x3e406568be866026U,
  0xbe9d4267be7dcef1U, 0x3e609c973eafa1feU, 0x3e5da8973e995790U, 0x3e879ab93e967f58U,
  0xbe879a8fbd342a0bU, 0x3eba9c0fbd15bf5dU, 0x3e3a7373bdad9a50U, 0x3e49a5453d7678cbU,
  0x3e724629bea20b87U, 0x3dca1e63be5ef174U, 0x3e86193dbe9b84f4U, 0xbe0158c9beade637U,
  0xbc29c6fdbd35c0b1U, 0x3ebda5b7bcf78b7aU, 0x3daccc1dbe93766cU, 0xbe88ab35be972f67U,
  0xbeaea19bbeac6fbbU, 0x3e19705d3e9ddc02U, 0xbdfa85843db7a13aU, 0xbe79302a3e8453d1U,
  0xbf1032913e8b432aU, 0xbc6aa1cdbe1555f1U, 0x3ec352ef3c831990U, 0xbfaeb8d9bc9b7735U,
  0xbe867dd4bea431aeU, 0xbd4d17cbbea911e3U, 0xbe87c257be5c8147U, 0x3eb28e17be611e54U,
  0xbf2cb1e7bc85b8a8U, 0xbdd8dfd8bc7548b2U, 0xbf0d7372bc1f55c2U, 0x3e1475aa3d466015U,
  0xbe4710f8bf8aad85U, 0x3fb3dddd3f98ccdcU, 0xbe5d1b183f3c103cU, 0xbbee9700bfeb8004U,
  0xbcc377483e0dfdbcU, 0xbd5055c83d2a3dbcU, 0x3c137560bdc10d94U, 0x3dc4b5bcbd992bebU,
  0xbcbd4c583d9827acU, 0xbd377dd93c95adc8U, 0x3d61f73cbdf028d4U, 0x3d9b6cd4be303ee5U,
  0x3ddd9f7e3d153af7U, 0x3e2683e2bde1b5a2U, 0x3e1b81f0be26a310U, 0xbd8e99443e288931U,
  0xbe02045e3e08929aU, 0xbc87ea50bd4a3f48U, 0xbd5122d03e2339a8U, 0xbd520114bd0ec224U,
  0xbdfaf29c3dfc3774U, 0xbde17b0a3d6418d8U, 0xbdc526d03c4c2a30U, 0xbd9e9deb3cd6abe8U,
  0xbe25cde3bd199ff5U, 0x3db7481dbd981e8cU, 0xbcdf80e0be14fd5bU, 0x3de7c860bcabbfd3U,
  0xbd1e7ce4be257f27U, 0xbe1e39e23caca8d5U, 0xbe2915f33cdd2608U, 0x3ca52335be0ce74dU,
  0xbcaed85abe1799f2U, 0x3e25d306be0f73bfU, 0x3df381293d5e9edaU, 0x3df7e54fbde4ee09U,
  0xbe088ae6bdcf22c4U, 0x3dd9f6b5be14ebf8U, 0x3ddec4143e234e31U, 0xbe067d3e3dd64137U,
  0xbdd25a16bd3d6f00U, 0xbdf72b9abe0c6d8fU, 0xbd84fffcbdc33730U, 0x3cd7aa373ddb0d90U,
  0xbc8c0c0b3c88fbb0U, 0x3ddcc117be26c8fcU, 0x3dc6f2363e23a47cU, 0xbd2fc4d4bcb11bf6U,
  0x3e1f826f3db2982eU, 0x3e10afc3be242511U, 0xbd17bb8cbda2b821U, 0x3d735a29be2a5f87U,
  0xbe0c6677bc197b4bU, 0xbe2b4771bdfdce4aU, 0x3c9dfe7cbe130223U, 0xbe0e47ca3d978be8U,
  0x3e0eee673d4f6ca7U, 0x3e314971bd7f300dU, 0xbdbc7dccbdd332ffU, 0x3d5ff52cbe2cf0d6U,
  0xbe0915dcbdfe3b37U, 0xbd533fdebd0d26b0U, 0xbdc8be2fbd869c41U, 0x3c3eb3cfbdc6a384U,
  0xbe2e5f963db8edb4U, 0x3bb6eb8bbdf760f4U, 0xbd79e1c03cb629bcU, 0x3da63690bd8ba3ceU,
  0x3d3bd513be2e3579U, 0xbdc3fd1a3e2a7ed5U, 0x3c9ff9c03d944e65U, 0x3dc658f73e03511eU,
  0x3c117aa6bd8642a2U, 0x3dcd18243c35632cU, 0x3d750817be199ac3U, 0xbe23c17b3d81d14cU,
  0x3e2745e93c1c84b9U, 0xbdbfc7dcb9fed37dU, 0x3d5c47c73e1293fbU, 0x3c450c2dbda0ec51U,
  0xbd4c5a3cbe12c3eaU, 0x3e0a2cb6be08fefcU, 0xbe28517fbdd4a8c0U, 0xbe10c0b4be101aecU,
  0xbd0408803e30f2aaU, 0x3c0eee4ebd2e1f8eU, 0xbe14b300be280b91U, 0x3d1819e8bdd6dc9dU,
  0x3dba0a6c3d79db9cU, 0x3da2faa23d3ef775U, 0xbdb421b6be02f957U, 0xbe24478fbe179aa8U,
  0x3bdbb280be3095bfU, 0xbe145d973dd61d38U, 0x3dffbdc8bd9479b9U, 0xbd816accbd062944U,
  0xbd3909083d6cf9bcU, 0xbd43cd083d5f5aa4U, 0x3e0d3b2abde97734U, 0xbdd02e4a3d2dd730U,
  0xbc5c41b7be1d7a1aU, 0x3e08009abe2e7581U, 0xbdcde2dfbac0de0eU, 0xbe0caa47bd86cfe9U,
  0xbd99a8b13e176ba8U, 0xbd15b6c83dd0f094U, 0xbe212b05bd0995e8U, 0x3e1008c8bd651660U,
  0xbe2d6e193e17ea97U, 0xbe1b76a0be0f5c03U, 0xbce82cc33d227f14U, 0xbe088317bbcd7859U,
  0xbc2c27e0bd99bbdaU, 0xbdb88ebb3da6e770U, 0xbdf6460bbcc8de80U, 0x3d5ce6163d1d1240U,
  0x3d099df83d3c95c5U, 0x3da615d1bdb0226cU, 0xbe24bbf6bdd6db7aU, 0x3d728372bd7adc40U,
  0xbe1c4b29be011bc5U, 0xbdf0a1b3be1a32c5U, 0x3db45a983d9fd7e9U, 0xbe1a6e393e042a71U,
  0x3db025613dee3630U, 0x3c434b4a3dac914aU, 0x3de071de3e19729dU, 0xbe05d568bd0c9610U,
  0xbe2d0d093dd883d1U, 0x3e09da6d3e2c32a7U, 0x3d0478adbd03b753U, 0x3e22415dbd3e40d5U,
  0xbdf26b1dbe2bb155U, 0x3d65df59bd953380U, 0xbe1ad5fc3d1a7920U, 0x3e0d0732bd2e0916U,
  0xbdad3b5cbe1b0d24U, 0xbe101fe63e0ad174U, 0xbe27d3cd3e097d7dU, 0xbe0ad41d3ce18752U,
  0xbe31cb19be0993b5U, 0x3e0f46ebbd089dd1U, 0xbd43784abc73324dU, 0xbe0968c7bdad5a79U,
  0xbe062ec1bd4c1eb6U, 0x3d9e6798bc77e041U, 0x3deaf84b3e1fc810U, 0xbe08ee59bdd82b4dU,
  0xbd4327f63e2712eaU, 0x3e0d84ad3df88f0bU, 0x3cc00fcfbe21344eU, 0xbe1190a9bde172b2U,
  0xbda1b6e5bd557c38U, 0xbd7bcd903c9ffd60U, 0x3d9c066e3d667a5cU, 0xbe2de364bdd571dfU,
  0x3e1f93603dcea3adU, 0x3db458f33d7cf515U, 0x3e028c0c3e08c562U, 0xbcaeb6cc3e10ec1eU,
  0x3d8c6809be11ad1eU, 0x3db90c4a3e05c628U, 0xbd9071ecbda41c21U, 0x3b948e003d5d34f9U,
  0xbde18b4c3c9baa68U, 0xbd96d9ad3e2f8f12U, 0x3d632fb43dadc714U, 0x3e221a70be035128U,
  0xbdaa3eb0bd917b9aU, 0xbe22acecbdbfc4bfU, 0xbe0e17b93c7861f8U, 0x3c8c709bbb843e84U,
  0xbdbacc193e166b1bU, 0x3dba47773c36dd2aU, 0xbd1e6c2b3e0e94d6U, 0xbdf40eb6bdc43004U,
  0xbccf13c03de80f28U, 0xbdeb846e3d8568dcU, 0x3d98f4aabd98a166U, 0xbe228a423daca278U,
  0xbd950f553d387f40U, 0xbcfc0f203e2081d0U, 0x3c691130bc89e1d0U, 0x3c96e286392ddc00U,
  0x3d9326cabca45e60U, 0x3dc567783d9f905cU, 0x3c95e86d3d0c8db7U, 0xbddfa58abbfdac68U,
  0x3d80f7b4bcb8c867U, 0x3d5542dbbe1fadb2U, 0xbe2aa9663d88ca49U, 0x3d67baed3e0dcdadU,
  0x3dd9289e3e075e1eU, 0x3de07c22bd54275dU, 0x3d55d187bd2e6bdfU, 0x3c45318d3d3cbcd2U,
  0x3dd06a81bd5a477aU, 0xbe0127ffbdf26e94U, 0x3dcc1eaebd424501U, 0x3da818893c31cc85U,
  0xbdc9a197bd01673bU, 0x3d66c3273da5ad68U, 0x3d4430fabde76425U, 0xbd10f5263dd44effU,
  0xbca2b8ba3d9b5d20U, 0x3d3cd8c93de7dda3U, 0xbd47934ebd05448eU, 0x3e12648dbdbe0844U,
  0x3cbbe012bced3b1bU, 0xbd35b547bce7ca1eU, 0x3d7e2b293e243881U, 0xbdeeb2c2be12710bU,
  0x3e04ec223cfa7c91U, 0xbe17799d3e103e5eU, 0x3e10d45d3c1555b6U, 0x3c3b199a3e0cce2cU,
  0xbdf26ac83c47baecU, 0x3cdd380e3de11ed2U, 0x3d93bce7be260fd4U, 0x3d4c3bc7be12c097U,
  0x3dc78cefbd74ddeeU, 0x3e288e313df984e2U, 0x3dbc52ba3dcac08cU, 0x3d8cbb933e14b858U,
  0x3da97733bd972b22U, 0x3e08ddc4be19bad0U, 0xbde0a472be2eb8f2U, 0x3dc6cd3b3dec2575U,
  0x3e23e98cbc93801bU, 0x3dba73f4bc731d5eU, 0x3de764a93dddcdd8U, 0x3e2e767abd07dbe2U,
  0xbcdc4b903d3f27dfU, 0x3e2de577bde379f8U, 0xbe01234a3e1e6d93U, 0x3e26a6193c299ed0U,
  0x3e202aa53db09935U, 0xbe01c815bd5224c6U, 0x3d8206213dd62d3fU, 0xbe031cfdbe249819U,
  0x3e2e48593d9ecbf7U, 0x3d7aff653d31cf2eU, 0x3e03a34ebd46b8b0U, 0x3cea8b3e3cb61ca9U,
  0xbc09c01dbd4cafbbU, 0x3db320ea3e1b7f78U, 0xbe176a9a3dca31ecU, 0x3defe9d53cb00ac1U,
  0x3b5933a4bda5c18fU, 0x3e2379fcbd09149aU, 0x3b0cee133d67a7e3U, 0xbd693fd83e286b77U,
  0xbde07302be11ae3fU, 0xbe13a9433d24fd24U, 0xbd3a158c3d38f5acU, 0xbd627926bd339898U,
  0xbbe88ba03e0ff1eeU, 0xbdccfd1d3db69dd8U, 0xbdf21ccf3cec1b08U, 0xbdc407e03e19dea2U,
  0xbd70afcebdeb9979U, 0x3a8a4b00ba895d00U, 0xbc3da960be260665U, 0xbe1c59493d5b7d74U,
  0xbd985343bde6e7f8U, 0x3d024a7cbe0f5ad6U, 0xbda55b5bbc9793c0U, 0x3cef30adbdd1e93bU,
  0x3e2ec886bdce63d2U, 0x3e16c114bde9e977U, 0xbd9663c13d11a534U, 0xbd321b7dbd4ecd38U,
  0x3ded8e38be0be863U, 0x3bad5aafbdc30a5cU, 0xbdf44b4abd852ec8U, 0xbdc57e6f3d86556bU,
  0xbc863b88bbeb2880U, 0xbd96ac78bd8d5e34U, 0x3e0d8e2abcde9a78U, 0xbdd01fdabdf8a85aU,
  0x3e08d500be07d92dU, 0xbd6733c1bdd13037U, 0x3e167ed8bb303e67U, 0xbe08a4a2bc9cb8c5U,
  0xbe2b7a23bdae6960U, 0x3e204fb33d9f7ed6U, 0x3caa1f48bd393098U, 0xbe10b196be13d22fU,
  0xbe297b39be2ce585U, 0xbe260a7fbdb0dd9bU, 0xbe209f4fbde28c3aU, 0xbd14e3a7bdcf4ca6U,
  0x3d32bd2ebd13e6e3U, 0xbc04d170bd5d3352U, 0xbdb8a4b9bd9f192bU, 0xbc135cccbbd4df73U,
  0xbc7a8e803d35f31dU, 0x3d9c06c2bdd3dd9bU, 0xbe2146a33d80278bU, 0xbe309c5cbd0a8bd1U,
  0x3de29b6b3e0792b0U, 0x3d21c4d13e286878U, 0xbdd2efe4be282471U, 0xbc8ed87a3dbcc5a9U,
  0x3dac403abdf9f6b1U, 0xbe274959bc06f5f9U, 0x3e1a5926be053933U, 0x3e1ad5ec3db3ff81U,
  0x3e100c65be275670U, 0x3db7f2ab3e02c36eU, 0xbd9436b43d8b13adU, 0xbd211dd93e1f0135U,
  0x3de9091c3d996b1aU, 0xbdb40f503d97cf37U, 0x3c3fb84cbd11598eU, 0x3c01ebecbd15a3daU,
  0xbdfb79ec3e2832a9U, 0x3de7560b3db3a2beU, 0xbd91002b3d04881dU, 0x3d43f0253da3dc5bU,
  0xbda21bab3e179925U, 0xbd56f3533e12deecU, 0xbd154adfbc8b10c5U, 0xbd7ce6a6bccb731fU,
  0x3d0bfe053e1e579dU, 0xbc8b6f71bdfbc7efU, 0x3bb8200b3ddda2feU, 0x3e23cc51bb1b071aU,
  0x3d1559c03de55757U, 0x3cda5855bda3a876U, 0x3e2f4cf53caff84aU, 0x3d47764b3d1b29b8U,
  0x3d8b6e6c3db52ae8U, 0x3e11efd4bd9f5407U, 0x3b14cfaabdde1c3dU, 0xbdaad401bde8f170U,
  0x3dd5682cbdecbbf9U, 0x3dd42f73bdcb8a8bU, 0x3d94547dbc9fffe8U, 0xbcdb00f13e1d8766U,
  0xbdac71863d7c71f3U, 0x3de90361be218ebfU, 0xbe06fe323d991a1cU, 0x3dafdf613df59804U,
  0x3df01dbebb92d7efU, 0x3e284d9b3da366e0U, 0xbe1b1460bc81fdb6U, 0x3d5b850c3e050004U,
  0x3d4316bfbe091556U, 0x3c5c2bf43d1be207U, 0xbd0625fa3e0635bcU, 0xbd4cba06be182f68U,
  0xbdfde2a23d61253dU, 0x3c68ce99bddba331U, 0x3d58e939bcdf7fa8U, 0x3e2419bfbc9f2532U,
  0x3e04598b3e0b258dU, 0x3df3fd383e1ec4baU, 0x3dbab1d73ddb42c7U, 0xbc06a912be0ff435U,
  0x3e247acebd58090eU, 0xbcb6acf7be005377U, 0x3d60302abe076101U, 0xbdc099e0be0f3350U,
  0x3dccbaafbd4e0eb8U, 0x3e31ee0abe2adfddU, 0x3e289330bd9fc05fU, 0x3d7a10bfbc95ca64U,
  0xbd45a234bdb33d09U, 0x3d923db6be2b7631U, 0x3dc06ca6bdba338aU, 0xbd6dc25f3e0cd1c2U,
  0x3e139242be1f396cU, 0xbbdb8ab13b47bcf8U, 0xbdf24b1e3c8df90aU, 0x3ca093493d99481eU,
  0x3e246714bd93dfacU, 0x3daf8daf3d5e7700U, 0xbde4f020bd9d438cU, 0x3dbd13c23e0c1229U,
  0xbcc6e6e6bd04eb7bU, 0xbe11d9e1bdf90c1eU, 0x3da4f3063c8726bcU, 0xbe13f09fbdeaaef6U,
  0x3dc3aa0c3e1adfabU, 0x3d2cd9ccbdd60a92U, 0xbe1e31ee3d17ffaaU, 0xbdb19482be1db3baU,
  0xbe1546713dec5fccU, 0xbe1c7b8d3d7697ccU, 0xbe06abbfbdd29d9dU, 0x3d94e3143dc07138U,
  0x3dc35ab53e15764cU, 0xbdebfbdcbe0cffceU, 0x3c567b313cdd4381U, 0xbe0120a43d1fdbdfU,
  0x3d9789d1bd55a110U, 0xbd28b8993d180968U, 0x3e12f9e2bddc3f79U, 0xbcdd64363db82a7fU,
  0xbdb24fcfbd7c5c8fU, 0x3dbaa8f0bdf3f14bU, 0x3e21b416be221413U, 0x3df58d32be2292f9U,
  0xbe2a0149be0cbe7dU, 0xbdf92a633db29004U, 0x3d6cc43cbd35dd2fU, 0xbd89b9ff3dc73293U,
  0x3ddf04d7bcb646e7U, 0x3e11ae5f3db9b08dU, 0x3dad8875bc36a5aeU, 0x3a1af700bca250aeU,
  0xbe254b5a3e050d46U, 0xbd90f39bbe233a92U, 0xbe19e2dbbd724f10U, 0x3dbfa9753dfa6e30U,
  0xbd7f3701bd46d494U, 0x3d419a333dc7316cU, 0xbe278dd23dcf31f2U, 0xbe0ef008bd6407f2U,
  0x3cedec503e0dc69fU, 0xbd7bfa55bdb4000dU, 0xbd60c785bd777803U, 0xbd6b7070bd3e214aU,
  0x3dbd6aafbe2efc6bU, 0x3d9931ddbb609277U, 0xbc137e383cfb1504U, 0x3d84e4393b5c0ccaU,
  0x3dc2b64a3b8af209U, 0xbe3a4fd0be249c04U, 0xbc1d49ab3e2eedc7U, 0x3d2deef03e02fe59U,
  0x3db4a0d93db46de4U, 0x3e2d8b703e220b00U, 0xbbc7a800be03d570U, 0xbda0dde4bd918023U,
  0x3dc196f9bd84534bU, 0xbe0e14be3d839fe1U, 0x3b21d71abe2482d5U, 0xbd31e8803e07ff34U,
  0xbd8ba37c3df7098fU, 0x3ddc71113d81ce5dU, 0x3d8a7f17bc9c42c2U, 0x3dc5f4413de10f2aU,
  0xbe2c41ccbe13461fU, 0xbdac72bf3cbd8a5fU, 0xbe0c89eabe21f159U, 0x3de4c9b83d866a82U,
  0x3c9f2294be0eddf2U, 0xbd104d3fbdf2e1c7U, 0xbd3746ec3e22c317U, 0x3bd396b43ce1d2eeU,
  0x3dc3477e3e1c231fU, 0x3c58bc273da3382cU, 0xbdaf067abdfbc9c3U, 0x3d4cb4cc3d140f36U,
  0x3dd6b551bc4fe4c7U, 0xbd578b6d3ccdadb2U, 0xbdab9f79bcc3cc90U, 0x3db1e23d3e13c168U,
  0x3d6f30a7bd9cda2cU, 0x3d8ae0883dba0a62U, 0xbc4b41d63dbf15dcU, 0xbe144bd5bdcb3483U,
  0x3d5257903e20e3fdU, 0xbdf331b3be0d2ddcU, 0x3d464f1dbe07ae15U, 0xbdd984cdbdc6ed30U,
  0xbe1421143d28cf27U, 0x3d3229bbbddc4a1dU, 0xbe227b8dbd597e27U, 0x3e2cefe83daabb67U,
  0xbbd1fe0a3e00ea7bU, 0x3e1b3d3b3e15cb18U, 0x3d5afe843dabcd74U, 0xbe1d2d4cbc512f17U,
  0x3e07c44b3d44ea98U, 0x3db876903bf50b23U, 0x3dfa7a833cf52fe1U, 0x3e26a755bda21324U,
  0x3d622ca53d8e9d6aU, 0xbdf5bcf03db3e53cU, 0xbd8053a13d91bf0aU, 0xbe1cb0423dd68861U,
  0xbdc15d8b3c9dfb8aU, 0x3d95e7fd3e028f78U, 0x3e1cab663e027474U, 0xbd625343bdad9e03U,
  0xbe13b3eebe1c0cd0U, 0x3da61e01bd233cd8U, 0xbcc5442dbe282a81U, 0xbe0589933d51f041U,
  0xbda00b0e3dd807f8U, 0xbb748f80bd77db84U, 0xbda3a72b3da1fcd4U, 0x3e0a005abdaa46b2U,
  0xbc8d804e3d183c07U, 0x3df66d19be25c54aU, 0xbd755cba3c65e5d8U, 0x3d86f7db3dcc9317U,
  0x3d1475ce3d16d196U, 0x3c897010bd9d1336U, 0x3e20f3f53d781573U, 0x3cd783b03d941234U,
  0x3df5ae843de1e3f5U, 0x3e16326d3e110fb7U, 0xbe25a6febdec7052U, 0x3df21dd93e14ce57U,
  0x3cae31e1bd9527d0U, 0x3def76a73cfedc56U, 0x3e1b2607bcc973a7U, 0x3db990253d2a6e89U,
  0x3e1b81c5bd96d105U, 0xbe14a8d6bdc383f2U, 0x3d38ef59bd567f2fU, 0xbd5b7c67bca7682cU,
  0x3d27b6d53e0286e2U, 0x3df9d8093db6f6d7U, 0x3e0e65513dcff666U, 0x3dc019a8bdb3cbc9U,
  0x3d7b384a3dd7f498U, 0xbe13265abd848e44U, 0x3e20a0a4bdfd58a2U, 0xbde4aa083db8c6caU,
  0xbd84f18b3d3d2c24U, 0x3b6b5e003ddab854U, 0xbe0602aabcbd9360U, 0xbe1ab2e5bdef87fdU,
  0xbc81eb16be27d477U, 0x3d8f5cecbb92d000U, 0xbd205f2e3dced79aU, 0x3db08872be1cadc0U,
  0x3e04b948bd969b38U, 0xbda3c6eabe08f97fU, 0xbd9bf704be1c0d68U, 0x3dad6b19bd63b2c5U,
  0xbe124fa73d0c4676U, 0xbd745fb8bbe5965fU, 0x3d1ad63a3dcd5282U, 0xbe2518963cebccacU,
  0x3e058905bdd40910U, 0x3d29fbf43d759828U, 0x3dd20a313ddc18f3U, 0xbe21c6653d687c57U,
  0xbdf40642be1811b8U, 0x3e182da13df5d8c1U, 0xbd09fc153df2b9e2U, 0xbdfd9b183d05f62dU,
  0x3e0feec6bde35c84U, 0xbbfe19fdbe13ad90U, 0xbe2a16e2be1490faU, 0xbe214b3dbe2649bdU,
  0xbd9cd34a3dc43dbdU, 0x3dc2b0333d13e8eeU, 0xbe09d43bbe0c6146U, 0x3e03cb8dbde5da3bU,
  0xbe14e54f3dd7eaaeU, 0xbe06ef02bd2322fdU, 0x3da1dd023de3511dU, 0x3dcc49da3e1bead6U,
  0x3da9d352bdd24b0aU, 0xbe0fe5c43c9fcc12U, 0xbe283d40bdd41dacU, 0x3d3aebad3d1fb896U,
  0x3d48f017bdcc2727U, 0xbd19e38d3dc541d9U, 0xbd7ba8bf3dad57dcU, 0x3e2aebd73e03e8c5U,
  0xbce48cf8bd7e4243U, 0x3e24737a3dd210c6U, 0xbd36038dbd9650fcU, 0x3dd46427bd9b644dU,
  0xbcae66f43c7e0995U, 0x3e27043cbd5941c9U, 0xbe24461fbcf3acf2U, 0xbddc59823e047d49U,
  0xbe0178cebe259597U, 0x3d09d38bbdc93995U, 0xbde82623bce71066U, 0xbc74c6b73e130374U,
  0xbd960a673b8e4b65U, 0x3da043b63d951851U, 0x3ce5dd9d3e2b7d5dU, 0x3cf1ac003e214806U,
  0xbe2f4377be0d72faU, 0xbdb2cb80be195048U, 0xbdb381a03d956fdaU, 0xbd596c063d2c73f0U,
  0x3d0d8215be2104f1U, 0xbc1f93b23e0883ccU, 0x3ab15599bd526279U, 0x3e24e148be06ecf0U,
  0x3e2c52a63cd7fe84U, 0x3e3801abbdf2e457U, 0x3dd1a86e3c898ed6U, 0x3e2d8b323da99611U,
  0x3e2f23243db7df3dU, 0x3e2d09cb3d508b7aU, 0xbe2e1152be096d38U, 0x3df0aaf9bd94ef44U,
  0xbd1768133e03a557U, 0xbe0f2565be04fa69U, 0xbb8d1880bb95dea3U, 0xbe046cb6bded2bb1U,
  0x3d36e7af3b71a696U, 0xbe0afcdb3dbd8528U, 0x3dcaef873d74a3d5U, 0x3ca53ff8bd964425U,
  0xbd6b1d283a804780U, 0xbe1a882bbaebf000U, 0xbe2e99663db99eecU, 0xbdcb4975bdfe381eU,
  0xbda6b1353dc99678U, 0xbe07cce63d3d4708U, 0xbc9080e0bdd44e05U, 0xbe04367a3e2dafe0U,
  0xbd886c2a3dcde56fU, 0x3c93ef6fbe002423U, 0xbd1ae92c3dfffaebU, 0x3dc844843d622d73U,
  0x3daeea593ddf8b3fU, 0xbe09b5d83de8ff19U, 0xbbd98481bd19b0caU, 0xbd9081453d117b26U,
  0xbd3f1bdc3dd0c24cU, 0xbe03ef00bbbb3940U, 0xbe05888b3e28c090U, 0xbe226e93bdc33703U,
  0x3d2cba45bdfdc91eU, 0x3e061bff3d2e82ffU, 0xbc1111573de540d4U, 0x3d3f42603e0c8a84U,
  0x3e0fce9bbde77e54U, 0xbca0f9a83dd35591U, 0xbe068ff63bb62653U, 0xbcfba3e3bc11455cU,
  0x3e13fc8a3daff80aU, 0xbd4bd3c2bdd2596bU, 0xbdae93b0bce8490fU, 0x3d33ca983e0c60a2U,
  0xbc60a0ecbdb4afb4U, 0xbc80ae523c3d7dd5U, 0x3e0dfffd3ddfb776U, 0x3dca1131bdf83993U,
  0x3d4a66df3cc93cbfU, 0xbe03fe963e088a70U, 0xbdc5f0bfbdaa5c07U, 0xbdd90b05bdb613ebU,
  0xbe038c01bdc34f5fU, 0xbdf4b9403e1088baU, 0xbc79ffd03e0786aaU, 0x3de6a8893db08b60U,
  0x3df0119c3e0434efU, 0x3e17cc7dbe081f8dU, 0xbd0a90afbd9cd87eU, 0xbd48ddcbbda84640U,
  0xbcaebbbabe08f315U, 0x3e20cad7bc12b8f9U, 0x3e22672abe23e71bU, 0x3d9b1b44bd5ef8c8U,
  0xbd1a54b8bded62c9U, 0x3e0f6f10be15b85cU, 0x3dc055ba3dd37f4fU, 0x3d80d9c23df5fb65U,
  0xbdeec47cbde241dbU, 0xbdb889babdbeea25U, 0xbdcbe188bd3139f0U, 0xbe0ce96a3ca94a98U,
  0xbde359573ce6d8bbU, 0x3e11a6a63b6d1790U, 0xbd6678f23d8aa897U, 0xbcc40dff3c887335U,
  0x3df2d2423db498c2U, 0xbd3c68293c608c87U, 0x3da8fc5b3d7d8026U, 0x3d49a199be03eb72U,
  0xba51c8793dc943c7U, 0x3c5cded73e0409feU, 0x3dc5dc763e08acf1U, 0xbdbe4ea53d7740c2U,
  0xbc838ee43cdb67c9U, 0x3dfae9c53cf41108U, 0x3e313f263d931402U, 0xbdbf48ca3d288a3bU,
  0x3dc80f083d4a8f65U, 0x3d6207c03da0a097U, 0x3d6bba42be30d589U, 0xbe3077613e032accU,
  0xbb4e0bc03b30af80U, 0xbe0baf903df0e5b0U, 0xbd8391393d36f478U, 0xbdda714abe230cdbU,
  0x3dc700d93e05e7a3U, 0xbda17f94bd1b1a19U, 0xbd1821f6bd28d7c8U, 0xbd0012223e224b03U,
  0xbd7dd522bbd2a133U, 0x3dd7007dbd04987bU, 0x3cc0f5d83daf8598U, 0xbe2d46eabb6c7582U,
  0x3bd6bde03db02f94U, 0xbe031e81bd105128U, 0xbd0fa678bbc16ae0U, 0xbdb1ef4c3dbe9094U,
  0x3e094bc2bd63aebdU, 0xbd21074c3daabfdbU, 0xbe29df8a3d0f4b81U, 0x3d569b423d448ab4U,
  0x3c9e3a563db088a3U, 0x3c9a38b1bc0e030fU, 0x3e0006363d9b46d5U, 0xbe2f9ad1be065309U,
  0xbcf448903d8b6056U, 0xbda4c7ecbc1ff630U, 0x3d93116a3b8dd700U, 0xbd2597b8bc350de0U,
  0xbd33ace8bda2d493U, 0xbe01cfa53b163500U, 0xbdc98bbcbcb09fa0U, 0x3df1efd1bdd1d03dU,
  0xbe1e4802bce68363U, 0xbdc5a8e73dbee20aU, 0xbd80e135be164a84U, 0x3d47ccf7bd9fc1d6U,
  0x3e02dcd8bd88c1f4U, 0xbd350dc83e30e831U, 0xbdf117d8bde22f58U, 0xbd9b8a9d3d14cbaeU,
  0xbe09add0be19efeaU, 0x3e0a9761be226a00U, 0x3d7aa9603c4b44f2U, 0x3d8dd043be2b9349U,
  0x3dc3b7a3be0e20d9U, 0x3c1d83043d98ee54U, 0x3aba8a2bbdb0588eU, 0x3de46df63cd578b2U,
  0x3e31db34be045200U, 0x3dc988cbbe1245b0U, 0x3abf3f8e3e14bdd8U, 0x3d9e8482bdc8b700U,
  0x3e11965fbe3054c5U, 0xbb347a7ebd9f1b2dU, 0x3e26a0463d75e49fU, 0xbd8ca44cbd1618e9U,
  0x3deec42fbe152e92U, 0x3da7e2e73e07d7adU, 0xbd601e203e2a4c49U, 0x3e1dd147be06c9afU,
  0x3ca93f2b3e007615U, 0x3d89012cbdbbac46U, 0x3d620875be11bf03U, 0x3daaf4cbbde68999U,
  0xbb2a90c8bb5cf3c4U, 0xbcf905783dcf9874U, 0xbd5c8891bd0f575eU, 0xbde1e8153dc1c88cU,
  0xbe16dc4a3db73ab6U, 0x3e343d3fbbdd4eb5U, 0x3e1128e7bda0bcf4U, 0x3d3da4e6bc6cba2fU,
  0xbc157a6e3cd38626U, 0xbe1940193e2e0244U, 0x3d3f1d793e1f0ebfU, 0xbd984653bb8e2234U,
  0xbd9a3bb5bcd18ce6U, 0xbbd4fb223dc3547dU, 0x3e2d20ec3c48a7e4U, 0xbd50088abe23ea66U,
  0x3deae984bdf559b1U, 0x3c0f0f26be290150U, 0x3d75156bbd8391d1U, 0x3d8cc50eU,
  0x3c078e24bb7e80aaU, 0x0U, 0xb9d1d969bc3d289eU, 0xbba1f2c7bd1edfb9U,
  0xbcc95bdd00000000U, 0x3aa5ee91bd1cde5bU, 0x3d49227eU, 0x3cff310dbab83334U,
  0xbb50e0de3d232941U, 0xb9a37d1e3b961425U, 0x3d43667aU, 0x3b0957e900000000U,
  0x3cff1cd500000000U, 0x3d712c0800000000U, 0x3d2093403d17ac5eU, 0x3c8f95183c97f9a3U,
  0xbca4aa97ba1e204cU, 0x3b08fba83c7bb75dU, 0xbc8aef9000000000U, 0x3ce07f0eU,
  0x3cb6a9553a56a7bcU, 0x0U, 0x3c5027c83d4ae289U, 0xbaa0ecb0bd0d6e7fU,
  0x3d143437bc226165U, 0x397dc256bc028f44U, 0xbbdc140d3bda8d6bU, 0x3d93092a3cdc67a9U,
  0x3c8cc6153d7e3a95U, 0xbca012473a0eb056U, 0x3ca516e4U, 0x0U,
  0xbd3d448f3c103eacU, 0xbc05ddadU, 0x3c9c4e6b3ab4236aU, 0x3a7f5f8d00000000U,
  0x3ba00fbf3d08de8fU, 0xbcf360063d19f754U, 0xbca131c0ba4fa3c9U, 0x3a1b60b7b9f99008U,
  0x3d58c8ad3c11408dU, 0xbacec3083cbe3ecbU, 0x3cace91abd39821eU, 0x3d1d2c37bbb88b35U,
  0x3da3cca53c2c028dU, 0x3c1818a8bc8dbf59U, 0x3cc4620fbcddd97bU, 0xbc1abebcU,
  0x39ba8bb93cb9dff0U, 0x3ad82a66bc92e29eU, 0x3d29ca6dU, 0x3a35edfb3c1b5d97U,
  0x3d3df7043d0b1aadU, 0xb939f9823cf275c9U, 0xb9abcd3cbcbf21faU, 0xbc7fe0143d375c20U,
  0xbcaf23453c764f59U, 0xbb3390faba1ef8b3U, 0x3d851336bba23268U, 0xbc06c6103cbc14e0U,
  0xbc1d4d13U, 0x3c90d7d2bb9c7688U, 0x3d1a35663cd33a30U, 0x3d8a45393d2aca52U,
  0xbb989242U, 0xbbd85853bc75239eU, 0x3d083dbdbb5a2c51U, 0xbb8fb8933d001770U,
  0xbb28fd443d2d9a8eU, 0x3cba8ff53c5d604bU, 0x3d6cb01d3d758e4bU, 0xbc8345bfb9d767b6U,
  0x3ab3194900000000U, 0xbbc23da53cd7f0b8U, 0x3a3eaa54babb3e19U, 0x0U,
  0xbb6ccc0a3c8a12e6U, 0xbcef86f600000000U, 0x3a47941d3c9a3076U, 0xba4aa3fdbc080fc5U,
  0x3c15ad2200000000U, 0x3c811355baf2450cU, 0x3cde15dd00000000U, 0x3a1f03d53ba5978eU,
  0xbc8b42713ccb275cU, 0x3791600d00000000U, 0x3b2d78b6U, 0x3cce6a273c01ac74U,
  0x0U, 0x3bca88feb9b26f5eU, 0x3af681703be50859U, 0xbcb35b1cbbc9bf08U,
  0xbcacbf333cc420afU, 0x3b79bb2cbb5b5b5cU, 0xb9592c1dba9cc4b8U, 0x3d1e7a70bc71be19U,
  0x3d7f85f3ba3781b3U, 0x3daf9a54bda8f678U, 0x3de3cfc1bdd92579U, 0xbd9ee7f53da35b1dU,
  0xbd9bd2e73d905fdeU, 0x3df1144dbd75200dU, 0xbe03959c3d96ba26U, 0xbe0a4489bdeba959U,
  0xbd3afe73bca87875U, 0xbdb375f93d822f89U, 0x3cb567283cf5c18bU, 0xbc9dd946bdf51f5fU,
  0xbcbf5b14bd66f3bcU, 0xbda8f8d43df293b8U, 0x3dd0cd4b3e10a3f8U, 0xbd83ab683dfa3735U,
  0x3e013457bddeecf4U, 0xbd059665bdb50ddfU, 0xbd1effeb3db7a54eU, 0xbdec179bbdc49bb6U,
  0x3dd7f9433c1ceb59U, 0x3d53710c3d6bc210U, 0x3c742d5a3cad0ebfU, 0x3c83496bbb2044a7U,
  0xbc67d2eebc833031U, 0xbe0d13fe3dbe67caU, 0x3c910fc4bd35f981U, 0x3dfca442be0adee6U,
  0xbe0a66463d3d0559U, 0xbe01368c3d03af67U, 0xbe020abd3c84a299U, 0x3dcce8da3cd0b4f0U,
  0x3e0943e93d94ccceU, 0xbe006ad9bcb324f2U, 0xbca859ffbe1102a6U, 0x3e0f3c5f3e096306U,
  0xbda8d9143dd68ad2U, 0xbcf0b84abd4c1eafU, 0xbe0417893dc5eb47U, 0x3cd84855bdde620bU,
  0x3de76c7d3def3faaU, 0x3d5881fa3e162040U, 0xbd5d630fbc6fedcaU, 0xbdd5bc95be0ddbcfU,
  0xbd06e32ebd05c2beU, 0xbd779e01bde02bfaU, 0x3de5488c3d7b9ee9U, 0xbde80f0dbde2e57bU,
  0x3df377093dc224fdU, 0x3bf234293d3983f9U, 0x3dc74b5cbe0d700cU, 0x3dc4f5c7bc92a88aU,
  0x3d02498cbdcc5ab7U, 0x3c0ac0613e01ab15U, 0x3bf21b92bc574b2fU, 0x3d97bffb3da02403U,
  0xbddd7be13dc9c1ddU, 0xbd0c99ccbe0ba6c4U, 0xbd26de84bdb0f6a9U, 0xbde2bfebbcb8c348U,
  0xbdcaf168bdb635a4U, 0x3d93fd0ebdb17310U, 0x3da98e2d3db10e15U, 0xbd96c69cbdfec7a9U,
  0x3dcd22e63da36be6U, 0xbdb882e4bda81a90U, 0xbb445fef3d366c7aU, 0xbdcf0e373d2b520eU,
  0xbdbb10df3dff3c3cU, 0xbd77c8443dfb0973U, 0x3b6faad03cbcbfc4U, 0xbd94d10abdd382c4U,
  0x3e10aa883dfe53a4U, 0x3d0cc3e3bde552c5U, 0xbe09b9c3bd3669b5U, 0xbd50713cbcc8bc5cU,
  0xbe0185ce3d11d2c5U, 0xbaaee2913cfa4908U, 0x3d8f0b11bd45835bU, 0x3cf4269abd2faefcU,
  0x3da3739d3e019e50U, 0x3cdc73063c02a401U, 0x3dac832e3e09015aU, 0x3ca425523dbc7f9dU,
  0x3de91ec3bdc22597U, 0x3ddc42d2bdced8e8U, 0xbdff91023e0de4b1U, 0xbdb6149b3d867f66U,
  0x3d99b13a3dd0614eU, 0xbd8ee3cf3e075c87U, 0x3d0106323df4ac56U, 0xbc85f516bdb0a18fU,
  0xbc8ad6d93ded914bU, 0x3d63cb17be028fedU, 0xbd346d6d3e086f78U, 0xbd7eddd0be00c5eaU,
  0x3e0d125cbda1f266U, 0xbca2b3483dd0eda4U, 0x3d9a1fc1bdedecf3U, 0x3bf44192be080cabU,
  0xbbb4b060bb4fe680U, 0x3daf8d613d92b52fU, 0xbd8ad4f1bda6b719U, 0x3dc3df09bd86e799U,
  0xbdfad6a7bdd73897U, 0xbdefd4763e0d9e6bU, 0xbdc23b76bc8af896U, 0x3d4531b73da0353aU,
  0x3d0f77b3bd8e17a1U, 0xbdb2c3ff3cc7ec38U, 0x3d0d62aebdf2d3a1U, 0x3e0f4d80be106776U,
  0xbce92c793de71f50U, 0xbdbc2b9a3dc9bc58U, 0x3d9359c73d1b8e30U, 0xbe0e2b673e0313dcU,
  0x3da186f7bd46e89eU, 0x3dfc5d38bd864692U, 0x3d2405b13d8ccf0eU, 0x3d9d29c5bd23a27cU,
  0x3ddd76b0bc6497e2U, 0x3e02d68b3d014b50U, 0xbd6cf9dcbd7342e5U, 0xbdb592dfbd64a1efU,
  0x3def9febbd4263d4U, 0xbcb71af63dd77b3fU, 0xbe04a6d93bc12001U, 0x3ce595183d8ed578U,
  0xbdf55dd63e07e95dU, 0x3cfef8d83d78f692U, 0xbc0503c53c3fed69U, 0x3d5922f6bdd7b980U,
  0x3bdef1343de25834U, 0xbd9a0b5ebcdb0a89U, 0x3e123c1b3ce57645U, 0x3e0b0b1a3dc303c0U,
  0xbd16b5693e12a506U, 0x3ce80fe93dc571d6U, 0xbd84308b3da14f21U, 0xbd8ce9d23d898c77U,
  0xbba375733def2c2bU, 0xbdf8a85e3dd19a1eU, 0x3cbcf8533def1410U, 0xbe00b4bfbdbe7b68U,
  0x3d3575b4bc0fe3dfU, 0xbd7c7ce23d9bc238U, 0xbd0dd3123d57f4c3U, 0xbe11dabbbd849311U,
  0x3df3a01abda219f1U, 0x3c534e213e075bdeU, 0x3dc123643cdd0f15U, 0xbd141118bbc11eb3U,
  0xbd0fa3d03cb5d741U, 0xbde1326d3de76c74U, 0x3d22303abc612e00U, 0x3d0d157a3d92a20aU,
  0x3d3421543c8ded9dU, 0xbcb74b7b3dedcf3aU, 0x3cc32f6a3ca32022U, 0x3d9a92a23dc947c1U,
  0x3dafbf02bdb33577U, 0xbdd5fcea3c00b9f2U, 0xbdb48706bcc8ec82U, 0xbdcc352ebe071031U,
  0x3e0991b3bb1db6c3U, 0x3d2212f8bd9d382bU, 0xbd4028483c76aff7U, 0xbd9845fabe055c10U,
  0x3dc843293d3146b8U, 0xbcc99d513dbce405U, 0x3d89c4053d9fb8f5U, 0x3e05e67a3d72ee30U,
  0x3d35ca8ebdacfbafU, 0xbe13fad9be0400c5U, 0xbdf312ff3d652c24U, 0x3c292caabdc90f37U,
  0x3d01a823be0b19baU, 0x3de3e6273db8cf6dU, 0xbcfca67e3de14654U, 0x3dd602bc391cb292U,
  0x3dcf783c3e0847a1U, 0x3c62a1c6be0f13c9U, 0x3d3536103b94d60bU, 0x3d80b6463de8035aU,
  0xbdf3ccb8bbe97700U, 0xbcf5ad943dc96796U, 0x3ddbb18abd54e5b8U, 0x3d9582743c11c996U,
  0x3d90ae33be068ea3U, 0xba8d2af4bdba1685U, 0xbe137edebd6d3be1U, 0xbe093ede3b532142U,
  0xbdcc9cb6bdc07aacU, 0x3d55e468be084367U, 0x3d7506ff3db9a066U, 0xbc9ffb3a3d98cc1cU,
  0x3ce699b0bc9f6044U, 0x3c7956d0bd96d436U, 0xbdbcfb68bda63ce0U, 0x3cf8b9c03d9f095eU,
  0x3df02110bdfe1551U, 0x3df4d0783da5e824U, 0xbd9c8cb23d33653fU, 0xbcda69d8bd0df1daU,
  0xbcb88a753e0d58a6U, 0xbcac5ee63d311d20U, 0x3d0dcf2cbc82bcf3U, 0x3ccfe5253c56fb9bU,
  0x3d7e63683d497843U, 0x3daef3ea3db60cc2U, 0xbe0c91773d233230U, 0x3e065cb4bdd56aa0U,
  0x3c8603e03d8f0a0dU, 0x3c943f303d98b234U, 0x3da25a4a3ce89b0aU, 0x3d8430c83d2cd4e0U,
  0x3d886a8fbc007390U, 0xbe01b84ebe029cbbU, 0xbcfd1c253d1e4214U, 0x3deca0e3be0d2018U,
  0x3d529ea2bd7a9e77U, 0xbe0e361cbdfe565eU, 0x3dd668c83e0c1e07U, 0xbcf2122c3bdcab20U,
  0xbdb0ece43d244b6cU, 0xbd062036bd6f18f2U, 0x3d9fd4bebce77428U, 0x3d2402343dbca8a6U,
  0xbd37158cbd8967bbU, 0x3ca44583bdd23d47U, 0xbd3ff1d8bd2253deU, 0xbd4a7a003e0c9f81U,
  0x3d2ebacf3e08400aU, 0x3dc6f38c3daf98b8U, 0xbc4a67303c8e9ba8U, 0xbd7357013d594518U,
  0xbb8ac3a53ce991e8U, 0x3d7d50d03d374893U, 0x3d48d2673d7c5c87U, 0x3d59ace8bda11952U,
  0xbe0544acbe0d0a91U, 0x3da2c7babd5a31bcU, 0x3d81b8803ddc270aU, 0xbd59520cbdad6ab8U,
  0xbdc7251fbd4e7173U, 0xbd682c70bd51f12dU, 0x3de0bd1c3e09df63U, 0x3d92fbcabcaffd68U,
  0xbe02941cbb04de61U, 0xbdc9b377bd5283caU, 0xbdb37b56bcd74750U, 0x3de373803dbe8a7bU,
  0xbd9e9f7b3d04d120U, 0xbdea31ad3ddb5acbU, 0xbda46fbe3d27ebd7U, 0x3d413ef23e043bc8U,
  0xbd102c043dd07660U, 0xbdc1fea4bcacd248U, 0x3df53424bcbf8ae4U, 0xbd9e65f1bc0320c0U,
  0x3d8a302e3d8e9214U, 0x3dda5b31bd56abacU, 0xbc84f036bc7fbc8fU, 0xbe03846cbe0ed786U,
  0xbd7ce48ebdf9e379U, 0xbd9d4df2be0b8a5cU, 0x3caca5783d19b398U, 0x3db4bb10bb8b07e0U,
  0x3d0ed6f73e02621cU, 0xba5ad1003c846038U, 0xbd464c2cbda62939U, 0x3dbdf628bdc7892aU,
  0xbcf2b701bd0fb08aU, 0xbdd93be5b9681804U, 0xbdc83fdebcb3b098U, 0x3dd342213ddf1fb0U,
  0x3d6a100cbd0809e7U, 0xbd271f3e3e09ddf8U, 0x3c54e5e03dd8db68U, 0xbdb1eee93e0a001eU,
  0x3e05739abdb48c5fU, 0x3deefebbbc8322e1U, 0x3e077160bd96655bU, 0xbbe6cf80bdff6ae2U,
  0xbbd425003dd5f608U, 0x3e115b2e3d3b899cU, 0x3d040214be015759U, 0xbddbbb2abd955925U,
  0x3dbbb321bdb7cc75U, 0xbd9f20fc3d84f0a6U, 0x3ab42a0a3db6d00bU, 0x3d5916173da6f818U,
  0xbd0971623d4c2924U, 0xbdb169623e071cb5U, 0x3d50fb28bdc0a770U, 0xbdd54d503c8c63dfU,
  0x3d8c950cbceb6989U, 0x3ca4b5e8bdff1982U, 0xbde72b4ebe00b6bdU, 0x3cf804e43de61a90U,
  0x3d857cee3e0ded8aU, 0xbbb30ec93dd95a10U, 0x3df55da93dac7103U, 0xbc532d693aa0d1dbU,
  0xbca48e3c3d9fcf73U, 0x3be45ef73dc27731U, 0x3e0dec6a3e0aca4eU, 0xbd4624bcbdc49528U,
  0x3da244fdbde18411U, 0x3db0c7263d4ec22cU, 0x3b19ed02bcd30cebU, 0xbdf504613d78c17aU,
  0xbdabfa5abe097ce4U, 0x3db5965a3d89883bU, 0xbbd7ae71bd400c47U, 0x3d8405b3bd8c2da6U,
  0xbd8af7f6bbf09195U, 0xbdd362053d884997U, 0x3db1ebfabe11c37cU, 0xba7456003da655a4U,
  0x3ca88b8d3db724a8U, 0xbe01e6a03dcd507aU, 0xbdc21f473e02f3f0U, 0xbc4b81cebde559ecU,
  0x3db2245f3ca1a8d7U, 0x3db2b1d8bbf2f00aU, 0x3dc3c3423cd64ec2U, 0x3e0007fb3d8e0141U,
  0xbe0897bdbdfc4efeU, 0x3d97bffe3e087939U, 0x3c2becbcbd619f86U, 0x3dd7e7bcbd3a2a37U,
  0x3d0a79813cab99ffU, 0xbe0d92d83d3e92e7U, 0xbdc6041cbd340e16U, 0x3da597acbcd65fdfU,
  0xbde44bec3e0ca543U, 0x3cc37f413d3f1d97U, 0x3d9406d2bdf2d5daU, 0xbdc441133d8650b8U,
  0x3cdf7ad23cf8a90cU, 0x3d8b4230bbae139aU, 0x3c296250bda9c39aU, 0x3d72e56c3dfb46e4U,
  0x3dddfcdd3d523527U, 0x3e1284adbe02f2d5U, 0xbd9a7e2c3d03f450U, 0xbdc316ccbcf9c6d7U,
  0x3d7b9c443d78fac9U, 0x3d6f1f81be077039U, 0x3d673b8d3dc56b09U, 0xbdfe97adbd9df6c4U,
  0x3dd69dd23dca0118U, 0xbdb9e5f4bdf676a3U, 0x3c3631913dc9e62cU, 0xbde41b793d0967b0U,
  0xbda77dcdbdc5fd87U, 0xbdc24876bd4e2c3dU, 0x3d19e786bcfd3875U, 0x3ddf34acbd31fea5U,
  0xbdfafefebe07af16U, 0xbbf86216bd7313c3U, 0xbe031fc23d31d227U, 0x3d9ab0a8bdad6414U,
  0xbda2998bbe04daddU, 0xbccf2234bdb6c61cU, 0xbe0346463d6d117bU, 0xbdf91eafbd9d8561U,
  0x3d112557bdfb6758U, 0xbda5f2f43e06ec98U, 0x3dab2f45bd82db25U, 0x3db47c913d805ef0U,
  0xbb5782cbbc6c8c08U, 0x3d84242d3cdaa8c8U, 0x3e110b783de16aceU, 0x3e045ebb3d3f3545U,
  0xbd02f2263da20b92U, 0xbdfc9381bd1efc65U, 0x3d7e70bdbd09abe1U, 0x3c9a39f5bceeb8c2U,
  0xbd854d1c3d2993bdU, 0x3cb612093d70ed6fU, 0x3cfcc2c7bb976af4U, 0xbd367bae3d36f3adU,
  0x3cc78366bd643741U, 0x3e03bd0cbb71b900U, 0xbdf4d4913b6b95d4U, 0x3c967e96bd576387U,
  0x3d9d2b74bd9761a5U, 0xbd512572bd539922U, 0xbc9d8100bd951996U, 0xbb91e5fabcb2bc3fU,
  0xbc8a8f98be0d9179U, 0x3ce84ffb3da8bd7fU, 0xbdb039aa3d7f0f06U, 0x3d9068183d262074U,
  0xbe0ee8dabdd6c028U, 0x3d113c833dca67ecU, 0x3d57921c3dc5860aU, 0x3df038d4bdae4e25U,
  0x3d93879c3d334ec3U, 0x3bc0e6a2bd05de4aU, 0x3e054d3cbe0f433dU, 0xbd7414bebd8349b9U,
  0x3d548291bd2f884bU, 0xbb2dd9003d745634U, 0xbc108092bd60dc3bU, 0x3d3e424fbe100779U,
  0xbcc74586bdda0878U, 0x3d6c83603dc6179dU, 0xbc2c1bf5bd9368a7U, 0xbcf0438dbd2aca18U,
  0xbd3d4c45be05d07dU, 0x3c69e854bbcc941aU, 0xbcec98a83d9c91f1U, 0xbdf0d529bd2bd374U,
  0xbd23ad353e010ee3U, 0xbdd393523d8d9490U, 0x3dcbff20bd8dc6efU, 0xbc55d13cbd230034U,
  0xbdbffbb83da76d8eU, 0x3dbb64293dc527b6U, 0xbc844e87bc9aaadfU, 0xbe0a532fbbc5f0b2U,
  0x3e0d07b8bd6be343U, 0x3ddfd7debdcf365eU, 0xbd8234a73d7b973aU, 0x3e08a5f5bcb9d7f3U,
  0x3d51bfc23daead25U, 0xbd063037bd2637ccU, 0xbe0aafe03c2b98fcU, 0x3bb644e0bdcba4bbU,
  0x3c9fbd9c3d59b44cU, 0x3da3fc643d198a81U, 0x3c98cfe03d487a54U, 0xbc9528a83de5114fU,
  0xbd5823a3bcd0824fU, 0xbd9c6f6e3d4b50b5U, 0xbdb02271bb1d41b4U, 0xbd363e333d44aaacU,
  0x3dda133cbd1f9a8fU, 0x3d8a58da3c7caf50U, 0x3c4537833def72daU, 0x3dba1109be09f54cU,
  0xbb450d803e040641U, 0xbe0cae6e3dfd93e6U, 0x3dead2393dd035adU, 0xbd30237a3dd06fa1U,
  0xbe126e9f3db6f801U, 0xbc90a5c1be0ee241U, 0xbdffe3d83e0d4e71U, 0x3d8dac2abd5fadf8U,
  0xba58db133d81fc07U, 0xba7c4147bd8bf791U, 0x3d8ce6c53cd878c6U, 0x3d1b07c8bd91d202U,
  0x3ccfb2f0bdd53d9aU, 0xbca7187abc9a4253U, 0x3dc5f5e03d5ecf29U, 0xbc4635c0bc6b14d0U,
  0xbd145a2b3d3c1819U, 0x3cf95c753e000ebeU, 0x3d3b70a5be10b7f3U, 0x3e02e1e1bd83871bU,
  0xbd30ceb53d487df0U, 0x3cd82182be0fd693U, 0xbd3bea6b3dc67906U, 0x3c06e71fbb3e325bU,
  0x3de5befc3c32e4a0U, 0x3d8203a23db7b068U, 0x3d811a943e033226U, 0xbd61b9703cb536d1U,
  0x3da5d6ba3dc63a78U, 0x3de558c6be005230U, 0xbdeb66dcbddc5f51U, 0x3ca32cd23e0598ceU,
  0xbdb716d0be0b10feU, 0x3df66b693dbe428eU, 0xbdb749c8bd848bbbU, 0xbc97ab40bce33dfaU,
  0x3c088f513bbb34a6U, 0x3dade10e3e12ad76U, 0x3da1f32e3ccae910U, 0x3d9d1cc03db7370fU,
  0x3cabb24e3d70d044U, 0xbd8a66423db087c8U, 0x3ccb41c0bd9cfadcU, 0x3d12a228bd4500baU,
  0x3d0b7decbd946d91U, 0x3e1168933e066e04U, 0xbdb6336c3dc4bf37U, 0xbdf59318bde5fbbaU,
  0x3cb6d4cbbe0ec8c7U, 0x3d97f76f3d0190ecU, 0xbd9ca3a03df92949U, 0x3cc1973b3df93d04U,
  0x3db457843b557043U, 0x3dd0efecbdde4284U, 0x3dbfe0c9bc9f2528U, 0x3dd191d2bd13ed95U,
  0xbcb88860bdbcd91aU, 0xbd1bab763db5b18aU, 0xbdbd1bd93df39ae7U, 0xbd228c37bcffd511U,
  0xbddef79f3dc1484cU, 0x3def60c03d557ccdU, 0xbc84a2d8bd9dff98U, 0xbdb28bc63dee86fdU,
  0xbde5a8ac3d4cc471U, 0xbc3d3c3e3d65110cU, 0xbb9156803dfeb388U, 0xbcfa2d9cbdc021bcU,
  0x3cb8bed9be0af0c6U, 0x3db0c49abccd9029U, 0xbdacd77bbdc1b424U, 0x3e101b0abc49c660U,
  0xbd6dba22bd734160U, 0xbdcd24d6bdeb4899U, 0xbdcb10a53df0d7ddU, 0x3e109843bda1b7aeU,
  0x3dd40413bbda7495U, 0xbd741b9cbe10c507U, 0xbcc76a28bb92450cU, 0x3c5f82d2bd125af3U,
  0xbd1659b43c5b3072U, 0x3d1e49c0bd8c9c9aU, 0xbdcbad0e3d2bb706U, 0x3e090dca3db9c3feU,
  0x3d0e4d4c3dc0f69bU, 0x3d8d36673d0e5fd8U, 0xbc443070bdee4a79U, 0x3d2b04ab3e0ac809U,
  0x3dc4fc6bbdc26931U, 0x3e101a43be1150d9U, 0x3d50f5873d66830eU, 0xbd72700d3b527c89U,
  0x3d411d4bbb9f5be9U, 0xbd290e493da71ffaU, 0x3e07d3ea3cc76a4bU, 0x3df8d8eb3da71d46U,
  0xbde1abdabdcef425U, 0x3e12b7c0bdb63de4U, 0x3e0fd5b0bd3b1a89U, 0x3de9ce1dbdc43d38U,
  0x3d1bc54cbe0449fbU, 0xbda9f7c7bdb29b1dU, 0x3dbd10c0bde1e90bU, 0x3c24e603bd247b0fU,
  0xbdedad303dfd45f7U, 0xbccbfcd83da114d0U, 0x3c06227e3da5a080U, 0x3d3dcb9e3d589d47U,
  0x3e121280bde807acU, 0xbd007471bd0dd599U, 0xbc56bdda3de9594cU, 0x3e09bb86bb8fc740U,
  0x3d2f73553dee1746U, 0x3d6b3bdf3e00e528U, 0xbcbcbd3a3de4c9daU, 0xbcaf4e75bc79386eU,
  0xbe04b981bd1c1878U, 0xbd1368933d46226dU, 0x3d0a271fbded5aecU, 0xbdf098b0398a0cd0U,
  0xbdbfa694bda4ef12U, 0xbd2a4ffebe023c8dU, 0xbdb94aa63dae2f18U, 0x3d5395433def603aU,
  0x3d9ee4f6bdd72a8eU, 0xbd882ee03d6cf0cdU, 0x3d20fa053df514b9U, 0xbe0e0a6fbde2e2b6U,
  0xbda8dfecbe0d10fcU, 0x3dc5a4d63d643ee4U, 0x3df04815bd197ed5U, 0x3cf47348bddbc963U,
  0x3dc38786bdbfad3fU, 0xbdc56c32be017f0cU, 0x3d6bba3c3d98efedU, 0xbd710424bd60793fU,
  0x3da402103d572574U, 0xbd86d4ec3c3f4657U, 0x3d6b73143d95d8f6U, 0x3d6d8892bde1c214U,
  0x3b98310abd270d0cU, 0x3dd971a03cb2cb5bU, 0xbde014d2398f0fe6U, 0xbda72826bde4e9b4U,
  0xbe00a231bdb1076fU, 0x3dc804c3bcbdd2c8U, 0x3dbf0adfbe0c789fU, 0xbd8b025d3d0dc47bU,
  0x3d44fa233dffd0f4U, 0xbdcd94ef3bdb4300U, 0x3dfc4dd73e0ca2a0U, 0xbe06afe1bcc2a5ccU,
  0x3d87890cbc4d5321U, 0xbd6b4fdcbdddfcf7U, 0xbd67d0adbe0719ebU, 0xbe0a27dabd90a950U,
  0x3ba9a0583dd75fa7U, 0x3d96e80ebd0978bcU, 0xbdaeb4f3be0e3848U, 0xbd18a5edbda91eeaU,
  0xbda027c2bdf28316U, 0x3ba3b0133df5f919U, 0x3d63e8903def8fa7U, 0x3a87ff80ba24b300U,
  0x3c50239f3cf3ea52U, 0x3a921300bddc5eb9U, 0xbb549548bde0ce8cU, 0x3c931a083dbb5e30U,
  0x3e07a96cbd14f74dU, 0xbc084e8c3db60140U, 0x3dd510493cc61579U, 0xbd9edb6a3d34c3ecU,
  0xbd8f3f1b3d5d80dcU, 0xbcf6e81bbd393019U, 0x3cda095f3d52a86bU, 0x3cc8a78c3d677af6U,
  0xbd941b063e0aabfdU, 0xbe074cff3e0d8713U, 0xbc7306303d6a36c7U, 0xbd076b6ebddb0852U,
  0xbd96e24b3e0b441dU, 0xbdad71363d38f247U, 0xbd0fea18bdcd8435U, 0xbd93e702be0ea32bU,
  0xbcf54bd43a3f6accU, 0x3d444d383dfb3414U, 0x3c1a1cf03d9df44aU, 0xbdedce523c39666aU,
  0xbda891a63dab6ba4U, 0xbdc81a153e0c4fd4U, 0x3db0297a3dfd30b4U, 0x3d841e863cedf735U,
  0xbdd44b27bdb5400dU, 0xbc8fda87bdf23a4cU, 0x3daac2a7bdf1ff7fU, 0xbddb6a8bbdad82ffU,
  0x3dd56ea03c277823U, 0x3d480b713d7e984bU, 0xbd3356943d982ba7U, 0xbd8a3447bd0ab7c3U,
  0xbc8b5631bdab1f7fU, 0xbd910499bdb11c78U, 0xba46a931be0325b9U, 0xbd2eec133dcd1edeU,
  0xbceb2ff8bddf1dc4U, 0x3c8c62b8bd769359U, 0xbd98d4c1bd0550dbU, 0x3d20ad5cbd81a081U,
  0x3c1dbb9bbc590630U, 0xbdd72d21bd9a4a07U, 0xbd7ca8243d999346U, 0x3d7f47e53e0f7a6cU,
  0x3e045abf3d7ba158U, 0x3d4ffabfbb6a3223U, 0x3e057e6b3daf321eU, 0x3d72fe4a3aaff29fU,
  0xbc80d7e13cc2bb59U, 0xbda2e5173d13badcU, 0xbd46a0643d54e1e7U, 0x3ccd4691bdc53dc8U,
  0x3c02abd0bcd3ccc4U, 0x3d30fafbbdebb391U, 0xbcc5ed9d3da68119U, 0xbdde55b73d35a447U,
  0xba5eda15bd6b54e8U, 0x3dc63e01bd1b19ecU, 0x3d63c0a0bd44f634U, 0x3d83d580bd2bcdc4U,
  0x3c0aba05bc07c2edU, 0xbd87bf9dbd75c926U, 0x3ddbb7b0bdfe9689U, 0x3d0b8debbdb53fd5U,
  0x3dd2ffd13c6a9dc0U, 0xbdfe3b23bd03d991U, 0x3d9ef4d6bd93ff16U, 0x3c70bf83bdc2f3a5U,
  0x3cee07f63da2d364U, 0x3db85001bcf2c63bU, 0x3de8454c3db1f989U, 0xbcb0e326bd5fa958U,
  0x3cd1cab2bd1f4c32U, 0xbd902e1eba17b300U, 0xbd8bcdc13d1c89e7U, 0x3de98eb9bd3870cbU,
  0x3db91d81bbbcb57aU, 0xbdfbc18d3d3abd5aU, 0x3e0a355cbe0f8491U, 0x3e128adc3def8133U,
  0xbdd0612a3d68467bU, 0x3e08bf20bd5f2120U, 0x3d82de753dccc72aU, 0xbde79cf3bd386c19U,
  0x39aa3bd53bbc79b9U, 0x3db150763e0cc98aU, 0xbd5f0c03bcaf17f0U, 0x3d65ac4f3d5a4706U,
  0xbc6547a63d65f780U, 0x3d9d875f3cec9cadU, 0xbdf738a63d6623b7U, 0xbe0bf730bd63a0caU,
  0xbd6a70893d03b5a7U, 0x3e0741e0bdc34673U, 0x3df9e4743df9b555U, 0x3da8edc23dcf9920U,
  0x3de04de83dc6ff48U, 0xbd4981e43ced97c0U, 0xbd15c7343d8b3bbcU, 0xbba03949bd6faf30U,
  0x3dd36e403cbe920bU, 0x3de4a4bb3b3f2c5fU, 0x3e16e1b33deb2cabU, 0x3debf283bc53fa56U,
  0x3e0fb2dcbd916647U, 0x3e0226d9bdacee10U, 0x3b7bed783d9f6feeU, 0x3e1271223ca55fdeU,
  0x3dcc6aafbc99d25fU, 0x3d9681ef3d06eaedU, 0x3d85d5fc3e172954U, 0x3d8a2cfd3dc17d4eU,
  0x3c1bb25d3ba1135cU, 0xbd51346f3d85e306U, 0xbd409158bc82245aU, 0xbdae44443d5c6bb2U,
  0xbde6067c3d2642efU, 0xbda6f2b83ca55dfaU, 0xbd76a5e6bd9aa416U, 0xbcf281d53e02fe6dU,
  0x3dda0d80bdec8587U, 0xbcf1a065bd9bfa72U, 0x3dc26f11bd9de3dcU, 0xbd987d113d9dcd3dU,
  0x3e139ba0bdf184e8U, 0xbd008c75bd928017U, 0x3dee00d1bd70c3aeU, 0xbde168763dfec2bbU,
  0xbe11b57d3e12a07bU, 0x3e1391353d7ca001U, 0xbd66110f3d33cb6cU, 0xbd025e183d52bc4cU,
  0xbdbe8b6a3d956e0eU, 0x3dc44cca3ddc4100U, 0xbd63b07cbde658c9U, 0x3c747a303ce696b0U,
  0x3d7a9f0c3e114653U, 0x3d158b0d3d9a486cU, 0xbda6effa3e0c7fb3U, 0x3dd22e51bcfbe9d3U,
  0xbdc4744fbc27e930U, 0x3d489fa5bd8b73f8U, 0xbda1d060bd5ce60cU, 0x3e086b5a3c525fbdU,
  0xbd9f1ef7bde6c3a9U, 0x3d3773143b6c8400U, 0xbd6ea0623d95a870U, 0x3e10ed83bd580120U,
  0xbccf674cbda47356U, 0x3d926b83bd15cd92U, 0xbcd0d5263defa6baU, 0x3c4f6cc6bbe1daceU,
  0xbd043d5a3dcdc537U, 0xbd6180f6be0acb26U, 0xbe088a313df31850U, 0xbda8317c3c9a9d85U,
  0x3d44ef04bdd27142U, 0xbe123212bdd15bc0U, 0x3d4fd3f03b25b200U, 0x3bfb72403da72deeU,
  0xbd9729e53e063dbeU, 0x3d3475a8be024ef4U, 0x3dd986d4bdcca4beU, 0x3af69780bd60c8aeU,
  0x3dd70a303dde1a74U, 0x3d5c21f0bd9b670fU, 0xbd99cbb23d36d834U, 0xbba9dea03e052654U,
  0x3c2631f0bd1087b6U, 0x3d0d89b43d0ec298U, 0xbc6d60203dcc4eeaU, 0x3cc726903e075e2cU,
  0x3d55ded0bdb24f50U, 0xbd9b93683c6db1b0U, 0x3cb79be03deb51f8U, 0x3e0ac5863deceaf8U,
  0x3e08c7083d658968U, 0xbd98a56ebdce3e36U, 0xbdbdddb6bda7a0fcU, 0xbce5e264bdafb93dU,
  0x3e10cc3e3ddb0c34U, 0xbcb44d483dde2254U, 0x3e0ad716bd362b00U, 0xbd728fa4bda981b8U,
  0xbe13626b3d041a5cU, 0x3da02d38bc1e4670U, 0x3d406a8c3d1c1628U, 0x3d8370d23d59b7f4U,
  0x3dda2224bd04b4aaU, 0x3cfc3ba83cc2e380U, 0xbe13c10c3da2b9caU, 0xbd35fb1e3d14e908U,
  0xbdb9f672be0dde4aU, 0x3dab32723df44298U, 0xbd467f6a3dd9d130U, 0xbd7eb37cbcf5faa8U,
  0x3dcbda70bd448840U, 0x3c470770bdb9a947U, 0x3e10fd1cbdcda9beU, 0x3c9e7788bc1799a0U,
  0xbd51a4eebd5b3fcaU, 0x3da6580e3d22baa4U, 0x3ca230003dee84c0U, 0xbd29c84c3dcd2452U,
  0xbc27cec03ce38c40U, 0xbc0b8b603d373f1cU, 0x3d0ab264bdfe29d7U, 0xbcd5c064bde539fdU,
  0x3de6f2d8bdfdf298U, 0x3d2efd703cfcd850U, 0x3dee26703dab05e0U, 0x3da200e4be09b5aaU,
  0x3d010690bdb9f4e0U, 0xbd91f13d3c385830U, 0xbdb531223d9b7640U, 0x3d7451d43cabf150U,
  0xbde94a7c3db1a978U, 0xbda4c4f03da0a7baU, 0xbdbcb7f83d40fca0U, 0x3dd036ba3ce7a6d0U,
  0xbdbd37ccbd2e4ddaU, 0xbe13c195bce58f8cU, 0x3db4d0803e0b24faU, 0x3be7f8c03d21347cU,
  0xbce488103db8795cU, 0x3c6c7ba0bd0c7d46U, 0xbbd888003c8d7240U, 0xbdf72bd63bc265a0U,
  0x3d5e97183d3aa42cU, 0xbc8a55b8bdeaf836U, 0x3be87e80bdb79de4U, 0x3dfe7db83cac2958U,
  0xbe12f605bdfd7346U, 0xbe02a5e9bbc471c0U, 0xbca10e64be0b89ecU, 0xbcd39ba0bd514c44U,
  0xbd3d13ac3cc19230U, 0xbd9a2ca3bdb1baf4U, 0xbcc824703d0df4b4U, 0x3cd2e7103e04ead2U,
  0xbdb15f023cf82548U, 0xbdd13f883d0b9140U, 0x3da3319cbdc3200aU, 0x3d9b153c3e05c60aU,
  0x3ddb219cbddd47c0U, 0xbce8a6983d807a3cU, 0x3bd38b203d993ca8U, 0x3c63ee10bde12b3aU,
  0xbdc88575bdb24b05U, 0x3cedab30be0ef48eU, 0x3e02ac6abde31e1cU, 0xbe0e22f83d034cdcU,
  0x3dcf95e53e079bd2U, 0xbd70d61ebd69dcb2U, 0xbca051a03d098690U, 0xbd2c6185bd0f1913U,
  0xbd2e7728bdcde139U, 0xbd719595bd072c2fU, 0x3dc76f8ebe0a7469U, 0x3e0f14c9bc496d85U,
  0xbd3f9b6e3e07a7f5U, 0x3e0d69c6be0fc09eU, 0xbae4ef003d5db002U, 0xbd1ca7933d9e99f0U,
  0xbd84ea953d856f3cU, 0xbbb944cabe080511U, 0xbda9f876bb9ee60cU, 0xbd95166d3c3f3823U,
  0xbd844c383dfed9b8U, 0xbdee085fbe1164bfU, 0xbd818ad33da28cb4U, 0x3c4ffe903b090959U,
  0x3d900e263d3a2bcfU, 0x3d08e210be124fecU, 0x3e0bc4583d72312bU, 0xbd842fd0bcf8319bU,
  0x3e1156083db403bfU, 0x3c955fab3e0f2a69U, 0x3be4bb043dc073d0U, 0x3d85cf60bc81f126U,
  0x3cde22943d86a8a1U, 0xbdefa1d83e0c358cU, 0xbc07d8d0bd27530cU, 0xbe07cadfbd211a1eU,
  0x3cd05e17bd8cafc7U, 0x3e0474c43e00999fU, 0xbde18d76bdadde1eU, 0x3da33c933d94e616U,
  0x3c0900123d766165U, 0xbd8c7c54bdd42f73U, 0xbdb948a8bdec9f65U, 0xbd45ad4f3dd17c9aU,
  0x3dfead773e000c0aU, 0x3b90baad3a7bc172U, 0xbcd7c2be3c31ba40U, 0x3c93ad24bd2bc054U,
  0xbcb58f09bd2676ebU, 0xbbd24e933dd7ea80U, 0xbd0b659cbd92c3f1U, 0x3d8d2828bd50fc9aU,
  0xbdfb3ebb3de5d7d7U, 0xbd3821debe105d24U, 0x3cff89983db7d6dcU, 0xbde6b1b6bd8c8f1eU,
  0xbde3c829bddcf772U, 0xbda95253bdac4575U, 0x3e0e9b40bdc445c6U, 0x3d1468833d3f9a30U,
  0xbe05fe98bd99b29aU, 0x3e0c941f3dbceefdU, 0xbd92dcde3a9c04b2U, 0xbc4fb0c3bda3663eU,
  0xbdaaef743d30cbeaU, 0xbdae5b633d5c787eU, 0xbd2ab8d43d9664caU, 0x3d9ca8783d962f1dU,
  0xbdb8ebbe3d7a55b1U, 0xbe07546abdb1a899U, 0x3db444153cdea3a1U, 0x3d29c400bdadb999U,
  0xbdb9a755bd2bc9ebU, 0xbe059be0bc392c97U, 0x3dc65198bd31e980U, 0xbcd9b23ebb8dc7c7U,
  0xbddda2123d09b3a4U, 0x3bc3b18d3cfecef2U, 0xbdab3c95be103035U, 0xbd44cf0c3dabe104U,
  0xbe0813ae3dbfa1adU, 0xbd3515fe3b7f4240U, 0x3e02d059be0fb6f3U, 0xbd86eacd3d7ee063U,
  0x3d31fcbbbe016e87U, 0x3dcc9cc0bdf4a4feU, 0xba0fd1acbc0f8460U, 0xbde7a3f7bd642085U,
  0xbe0e36973cddc577U, 0xbd5dbc2e3d58b3a4U, 0xbcd8685cbdfa22cbU, 0x3dbdcc3bbcfe7a07U,
  0xbddf3452bc988758U, 0x3bd26f953b4a25c3U, 0xbdabb19c3dd2e402U, 0xbbd6ed8e3dc2303fU,
  0x3c5f5972bd22164fU, 0x3d466f353d8dfdc1U, 0x3bf063c2bc9e603dU, 0xbd058fa83996381dU,
  0x3db40f21bd0bc92cU, 0xb99eca00bdcc47b8U, 0xbd573c5d3d594322U, 0x3d0068edbd81b6aeU,
  0x3c719fad3d97cfe2U, 0x3c74074dbd0d947fU, 0xbdeebf003da5dc46U, 0xbcab99253df978a9U,
  0xbe0978c03de4de38U, 0x3c7c2bc83b9db100U, 0xbc1016a0bdd5e53aU, 0x3d275d88bdfe202cU,
  0xbcbcb705bd9585edU, 0x3d2811623dd7337cU, 0x3e016e3f3d8e80b5U, 0x3d2c8c97bdb1e479U,
  0xbd34996b3e077a78U, 0x3e12c1d13d6676e2U, 0xbdf932433df3e39cU, 0xbd955f353e16f235U,
  0x3db4eb89bd28f740U, 0x3cfdf318bd96f883U, 0x3cf90c0cbb5d2b29U, 0xbd1c80f5bde1bf23U,
  0x3e06763dbdb0b593U, 0x3d8c799bbe0b419bU, 0xbc4a4f5e3dde362eU, 0x3e076eb03c7a8e1dU,
  0x3e0e72353e0efb4aU, 0xbe0eb0863dae2b5dU, 0x3dc48eb63dc66f2eU, 0xbd1ad3f6bc262b50U,
  0x3cdb0940be1219f7U, 0x3d9cde72bdb3c17bU, 0x3e0d6e56bdccdbb0U, 0xbe013becbd6d78e4U,
  0x3d885032bdefcf8dU, 0xbdeb83debaa2fb03U, 0x3d6030813d80e2ddU, 0x3e0380d73deab60bU,
  0xbd88c19e3d23208eU, 0xbcd6acb23ba5ae8eU, 0x3bf7e315be121e90U, 0x3cc9b5d0bd84a5e5U,
  0x3d9aef2dbcf7cf6cU, 0x3dd95a2dbc196d71U, 0xbd217048bdc77b3bU, 0x3d19bb7cbdb98843U,
  0x3dbde4b0bdea27f1U, 0x3da89f95be0654a0U, 0x3d4d9d103d7d72cfU, 0x3d4344943c6a9a10U,
  0xbdd276393e15c01aU, 0x3b64e39c3d723e76U, 0x3d4c2b99bddf1cdfU, 0x3db0f718bd246a1bU,
  0x3c006a76bdfa34b7U, 0x3e0e136fbc14daf5U, 0x3d360835be053863U, 0xbc60756dbe141df4U,
  0x3d2d8a88bd59910eU, 0x3c8fb8a83d8a9f4eU, 0x3cbd8dadbe026ccbU, 0x3db115b73ca52880U,
  0xbde4bed5bdedf12cU, 0xbe068e943d742306U, 0x3df8b061be03bafeU, 0xbdfd5beb3de20eefU,
  0x3d862c14be04db72U, 0x3d82ed6bbd445a7dU, 0x3dc153a8bd1d6eb4U, 0xbd26353c3c248ee4U,
  0x3e068640bd99c6aaU, 0x3e130fe93cab70b6U, 0x3d726280bda7e85cU, 0xbd840a2ebe0f1ac5U,
  0xbdcb7b8fbc4dfddaU, 0x3d43e70abc2ef520U, 0xbd9ace773d29f019U, 0xbd2d09683e06f503U,
  0x3dd3ff9c3d7c3140U, 0xbd54f34ebc1eb54fU, 0xbcec78243da93ec4U, 0x3e0608c63e13114cU,
  0xbc93590c3c6bc3b7U, 0x3d412e2dbe0ad33fU, 0xbd9b85f3bddddddeU, 0x3dafaad2bdd8ef5aU,
  0xbe04b81ebd8e54fdU, 0xbdb751af3c99f5f6U, 0x3e0b4de73dd1328bU, 0x3db0df4f3e0057b6U,
  0x3c42c89e3dcaf4dbU, 0x3dabdc3bbdad7869U, 0x3cea1e8c3d97f7afU, 0x3dc41afc3ceafa52U,
  0x3e1357f9bd7ae705U, 0xbe0388293d51d3c4U, 0x3d8bdb4cbdb0d6a1U, 0xbdfb8e713e0551feU,
  0xbd0d00dc3d427f44U, 0x3dc47f033d999c44U, 0x3dc92d923c36a77eU, 0x3da417d9bd0ac9a2U,
  0x3c4747febda5c903U, 0xbe0b2207bd414ebbU, 0x3dfa8de8bc92fefaU, 0x3d682de43d8a5664U,
  0xbdc30d3dbda5f06cU, 0x3a78119d3d82b7daU, 0x3df4a61abbfa99f9U, 0x3bc33195bc0f8b79U,
  0x3d49aacb3ddcef24U, 0x3cea7b71bd80f009U, 0xbdb595283db5165cU, 0xbd7693debddd6d71U,
  0x3da21edfbd928489U, 0xbdedba21bd862551U, 0xbc7285d4bc554215U, 0xbc9a3ac4bd5aca80U,
  0xbc7148a8bd5f9dd4U, 0x3e117602bdddd891U, 0x3d315ca43d6bd9d2U, 0x3dfb66e3be0a3b50U,
  0x3c102cd23d9e38c1U, 0x3d8cc356bdc2954aU, 0x3df89de43dacb8c0U, 0x3de7ab48be136655U,
  0x3d62045e3e03463aU, 0xbd7c11d43de8d1e4U, 0xbdc5b9883d97155eU, 0x3d5dd353bc1bcc10U,
  0xbcdf42233d205c3fU, 0xbe0d45093b83d775U, 0x3d06426bbccb2710U, 0x3d928991bda48040U,
  0xbdce32253c38d9d4U, 0x3cb00199bdb7c210U, 0xbd65a7c5bd9e4444U, 0xbd90cdbbbdf427ccU,
  0x3cf88204be11e69dU, 0xbdddbd2e3db6ab3eU, 0x3d5b3dbd3ddd363cU, 0x3d85ad163df64e29U,
  0xbd7eb93bbdcb9574U, 0x3dc2c5c3bdb1be7cU, 0xbde72c76bc9b49fbU, 0xbe08c4f73d85a394U,
  0xbe11a3fe3d9e3badU, 0xbdaca905bdc303d4U, 0xbded46dc3d954183U, 0xbcd6b467bd0704c8U,
  0x3d4ea38ebd8dbe15U, 0xbcb58fd4bd175f7fU, 0x3e0971ce3d5e14eeU, 0x3ceb8440bc94ebf5U,
  0xbdc33795bd95d133U, 0x3de5d5b93bfddd92U, 0x3d0d43e3bd898ef7U, 0x3cdb10c2bc134a9eU,
  0x3e1265d43df68ee7U, 0xbded737fbdec750dU, 0xbe000b4fbd06209fU, 0x3d4c3407bd81e78dU,
  0xbbcf0318bc14af0fU, 0xbc0b2fe13d77c1c5U, 0x3e1111fbbb62be91U, 0xbd94e5f43de53283U,
  0x3b4d129cbda898c6U, 0xbdd79987bdd6ed6aU, 0x3e0e397ebda5175fU, 0xbd1a0dca3dd516b4U,
  0x3dc1a267bdf2d343U, 0x3e05534d3d215fb8U, 0x3cb09b5e3e0f461bU, 0x3d9e57b3bdc4322bU,
  0xbdf325aebe0dc039U, 0xba6f2dfb3da35026U, 0xbdc65b7b3c8e0d80U, 0x3cd7bbc63ddec9c7U,
  0xbcbe4af13d728712U, 0xbe0713d53d87834cU, 0xbd93c671bc1fcd05U, 0xbe08d52b3d080a52U,
  0xbd8a5b97bd385e90U, 0x3deca08ebabe724eU, 0xbd9b261ebd4253cdU, 0xbd0bede13e04eb27U,
  0xbdf04aabbdb89c16U, 0x3e0ee874be0d8fe2U, 0xbc63ca7c3d9490c2U, 0x3db8b72c3dcdd48fU,
  0xbdcda931bcc12fb3U, 0x3d843060bd629b4aU, 0x3dd3e260bd5c5bc0U, 0xbcb8ef293dd8473cU,
  0xbe0d9a763d974d26U, 0x3dbe5ce33dd277e7U, 0xbda06cdb3cf3a811U, 0xbdc687f53e035bedU,
  0x3da9dfba3d4a3367U, 0x3dcebab8bc9560e1U, 0x3dcb9dd6be0cd86dU, 0xbd9905d53ddb31a8U,
  0x3dd6c3663e0ac8d2U, 0xbd8f78493d8ba9dcU, 0xbde712aa3d81c884U, 0xbde556223c1d7598U,
  0x3d9773713dd683f5U, 0xbdf28b9fbbdde8c6U, 0xbddf36a13d38e394U, 0x3da5e7303d574abeU,
  0x3dcd99b63c0d3183U, 0x3d653dd0bde1e519U, 0xbc9bc2c73de9b3c7U, 0x3d609b42bc35a7ffU,
  0x3de9d39cbdc9e077U, 0xbd395781bcc697b4U, 0xbe10fc9fbd831d26U, 0x3e01b97dbd881328U,
  0x3bf4bef6bd914a94U, 0x3dbf115fbd220ec0U, 0x3daad988be0801dcU, 0x3d94bcbcbdf24f98U,
  0x3dd78f87be0441ddU, 0x3d3406983d4ae5fdU, 0xbdbd6c63bde9e5e8U, 0x3de5506dbd2714a2U,
  0x3d995eda3d875891U, 0xbdd70b043ded195bU, 0xbccf3d3c3d61337dU, 0xbe04329dbd791f8bU,
  0xbda46329be061a1dU, 0x3d8e7daebdb09b69U, 0x3dd1a375bcb2a4e7U, 0x3df682103e0213daU,
  0x3dd85e6a3ce93e3aU, 0xbe0eee413bf24db5U, 0x3d9e6b36bdfc57a3U, 0xbdf53b2cbe098a24U,
  0x3d68386fbdcd03f6U, 0xbdcc540fbdad7258U, 0xbcbd82e4bc3a86daU, 0x3df149c73d48f8d5U,
  0x3d1cfd483e13b06aU, 0x3ddbbd1fbd769f3aU, 0x3d05d53c3d43c2dcU, 0x3dbbe6c13de60736U,
  0x3e0254fabddd5574U, 0x3e0cc973bd40662bU, 0xbd309d10bdbd2e24U, 0x3d0bf8343ddd7af2U,
  0x3db9db18bdfa61f0U, 0x3cd07ca43db85f7eU, 0x3da7606abdda4c2dU, 0xbda79f0fbcd0dd07U,
  0x3dedcdb03cf9a9acU, 0x3d8908443d8eba8fU, 0xbdacfc77bdea71daU, 0xbe06d726bdbe53a9U,
  0xbddac2ba3d2eec8eU, 0xbd3929bd3de4e79cU, 0x3e0ea4283b99076dU, 0xbdf83f86bcbf759cU,
  0xbe1289803de905ecU, 0xbbf871a1be08fc6eU, 0x3d65b1c6bd1b88dbU, 0xbe0c6476bdb94a4eU,
  0xbe0793813e127a6eU, 0x3d058b8fbd8f7cf4U, 0x3d94212e3de3a994U, 0x3e010627bdf17ab6U,
  0x3db9e9dcbd87cb17U, 0xbb6ae1dc3ddc436aU, 0x3d65092e3d625d94U, 0x3dd45adbbd95d34bU,
  0x3d44ce05bba89179U, 0xbe0c3849bdf215f3U, 0x3dbde1243da3d30aU, 0x3db09a1e3de9399cU,
  0xbdb65dc53e093aeaU, 0x3e0d020cbdd80b70U, 0x3cd383b0bbcb09d5U, 0x3de1d7d9bd4164aaU,
  0x3cab96e53caea192U, 0xbd1025233c61e1c3U, 0xbe09701cbd969984U, 0x3d981b843d500746U,
  0x3df2126ebdb46a81U, 0xbd4f634a3e07752cU, 0x3dcff7efbd5a0e50U, 0xbdb9b488bd238f7cU,
  0x3dfae7e1bc1b5e60U, 0x3c06b3d33dd0d3cfU, 0xbd093f1e3e037efcU, 0xbc82d0c03cd917f5U,
  0xbda3db3a3e0968a9U, 0xbd966ecfbd7aa4cbU, 0x3cafdd10bd85dff1U, 0xbd470d1abd73df8eU,
  0x3d674b4abcc9439cU, 0x3e05c3943d101bc0U, 0x3ae632303dfba08aU, 0xbe079e293dfe0e69U,
  0xbd7a2f28bd38c2e9U, 0x3dea0ec2bcd34a54U, 0xbd3fad59bdb831adU, 0x3cd7e370bb848a89U,
  0x3c53f69d3cb61f53U, 0xbd50974e3c693e00U, 0x3d9c398ebe0de7d6U, 0xbb81e881bdfb401fU,
  0xbb440b653add9ad5U, 0xbdb26e8bbd6461b7U, 0x3e0f19d0bdd270faU, 0xbde30aaebd77b2d2U,
  0x3e01d31dbd2c95b7U, 0xbdf680eabcf10da8U, 0xbd8b9d693d386b60U, 0x3dd91e103e0c31eeU,
  0xbdf48bcebd910b5bU, 0x3cc65848bcded4b1U, 0xbd92f92d3d4d3a52U, 0xbdcaaa453c5440c0U,
  0xbd5255a7bbe74e05U, 0x3e07a5e03ddf68eeU, 0xbd08867d3e0f4d6eU, 0xbd7d4bfc3d48c7ceU,
  0x3d0d94143c5f89d7U, 0xbdca9e063ddffe6dU, 0xbcc2cc5abcf7d7f4U, 0xbd4bbb433de7054eU,
  0x3d0e6dfa3dda008aU, 0xbdf46dbdbe0f686aU, 0x3da49fce3d8cb357U, 0x3d2e58183cc4d342U,
  0x3db8a7ad3dc8ddbeU, 0x3c87083cbd76b047U, 0x3d8911c23da95ed7U, 0xbde70b0ebd900e2cU,
  0x3def40a63de58a8fU, 0x3c44acf83e004c99U, 0xbe01f26bbd66185aU, 0xbd9ab6acbe02e054U,
  0xbdec2900bdeae1fbU, 0xbcb5c3f4bd1a460eU, 0xbe039403bd7a8a2bU, 0x3d5192a53d24885cU,
  0x3e0fede4bda8741cU, 0xbd1b962fbd68e0b7U, 0x3df48f953d95e661U, 0xbd2cd374bdf52296U,
  0x3df44e94bd61240aU, 0x3dc79b2a3d405d18U, 0x3d6f3b4b3b7e04aaU, 0xbd7e4996bca53f22U,
  0x3c3403db3df4c863U, 0xbdc23ca8bdfafa05U, 0x3de928773df1ceafU, 0xbd205b103d82267cU,
  0x3d5b891fbd551d78U, 0xbd5e535d3e0b2cd8U, 0x3dc8b5c6bc1c3883U, 0xbda33fae3e0b1120U,
  0x3de37021bdd9c12aU, 0xbdf27ca73e087fe0U, 0x3dcc9e61bd9f2cd7U, 0x3d45bd7dbdb9e926U,
  0x3d1f2aa9bd866d2eU, 0xbd9495eb3dfe50baU, 0xbc85892ebdbfe16eU, 0xbdb6e84fbd29aa0bU,
  0x3d22244c3cf30b5eU, 0x3e13cb8c3db0a1fcU, 0x3cf66b78bd9f0b19U, 0x3dc697973dee4692U,
  0x3cde2538bdddd520U, 0xbe0b9f3a3df6c800U, 0xbd60952a3e007c2fU, 0x3d205ff43d2c9751U,
  0xbdb2b5933ddd735eU, 0xbdc03621bdbae741U, 0x3d7816d43d071d22U, 0x3cead0e83d4a55ecU,
  0xbd8d1c973d21b5f5U, 0xbd440440bd4a2d5cU, 0xbd0af064bdeac5e4U, 0xbbd709573ca001bfU,
  0xbccf44a63daa43d0U, 0x3db878fc3dd79f17U, 0xbbfa6ec0be037fa1U, 0xbd4ba5f9bd5cc6bbU,
  0xbe0631153da8755aU, 0xbdc4a0b43dc20669U, 0x3dde4ba43d258582U, 0x3dea2a553df885d8U,
  0x3d11bf493db041d2U, 0x3e047e7ebd822db9U, 0xbda23612bd9e0092U, 0x3d7ca7cabdb5bedbU,
  0x3ddc776abcb17331U, 0xbe051281bba8f6ddU, 0x3d3811f0bdb86f6aU, 0xbcd2c47cbd96b89dU,
  0xbdb4f2963d930508U, 0xbe0d6456bc90c7c8U, 0xbd78cd84bd447c5bU, 0x3d615113be0cb6c2U,
  0xbd9c3ccebd31f0ceU, 0xbd63221ab9559512U, 0xbaf8f8083d7838d3U, 0x3d2f531c3df1037fU,
  0xbc44d24cbc890ce3U, 0x3e005727be0b2a66U, 0x3dded6983de13185U, 0x3e0dd6fc3bf860c0U,
  0x3d3d352bbcd62ba5U, 0x3dc3a760bdef6614U, 0x3d88aa30bb8ab34bU, 0xbc0f57efbe053de1U,
  0x3deb07b6bdbd67cbU, 0xbd6466bbbc1c8406U, 0x3d85d5673cfa1cb7U, 0xbd895e14bc6f0523U,
  0xbbfd27093d991281U, 0x3d8716e53d4305e2U, 0xbe004535bca618b7U, 0x3dfee1893e03bc00U,
  0x3bdb384a3d87791cU, 0x3ddd737f3d759c93U, 0xbc2e960abe0b526cU, 0xbd317ff4bd56d878U,
  0xbd55a07fbde57c05U, 0x3cb089cf3d30bdbfU, 0xbc839850bdfe59ceU, 0xbcedcbc2bd9667dbU,
  0xbd8947f1bde17098U, 0x3b19f41fbd7e8e51U, 0x3e07e3f83d32ca86U, 0xbcb417963de6b77dU,
  0xbdb6dff2bd856a5aU, 0x3dd17f9bbdbdc2f2U, 0xbc9b733b3d43b082U, 0x3dd56685bd35d756U,
  0x3e11a10ebe08f8bcU, 0x3c364e4fbe008e17U, 0xbdbd1af23d8c6930U, 0x3ce61d8e3e121935U,
  0x3d992636bd934bd6U, 0x3d9949dd3debd0cfU, 0x3dd032623d541377U, 0xbd8d53d13da58d24U,
  0xbd2c3fcf3da37862U, 0xbc6501433dac6339U, 0xbdb17b7cbddba36eU, 0xbd254c783e0c4604U,
  0x3e0f5e053da4f2eeU, 0x3d941ed0bce447e5U, 0x3d08fb953dad0d35U, 0x3b098480bd9a574aU,
  0xbdba2f7ebc46b9cbU, 0xbde2da26bdddc188U, 0x3d7b9779bc7e8eaeU, 0xbd20de35be036f22U,
  0x3e114771bd0e7598U, 0x3dd6b0a4bd173694U, 0xbd8ef355ba23f100U, 0x3d8938ef3d36b621U,
  0x3d984e0ebe059b30U, 0xbe02fba1bd4a4772U, 0x3b0c61403df9a83aU, 0x3cabf6f13ca00263U,
  0x3e130baa3da48ad8U, 0x3de5d578bd449245U, 0x3d83b37ebdb85d47U, 0x3dcefba8bd34938dU,
  0x3dee2f55bdad620bU, 0x3db8a1f83e0336edU, 0x3c7b8e77be0279b8U, 0xbd8e82703d2a8daeU,
  0x3e0c28783d4e1fa8U, 0xbb7d21c0bdf60e9cU, 0x3e10a5aabdbcb862U, 0x3d8fe35c3db21f12U,
  0x3df382483c992148U, 0xbda666cc3d3fd3f0U, 0xbbbdb540bdd56260U, 0xbac80f80bda9be85U,
  0x3de8fddcbcdd889cU, 0xbde293c4bc368a00U, 0xbd96013a3dc54162U, 0xbdef698e3d808f0aU,
  0x3cd16cb0bbfde700U, 0xbe0f28aebdcb5798U, 0x3e0e9a7abd79ad5eU, 0xbdfd5f723db427b2U,
  0xbca8a110bdc89c4cU, 0x3d1ebfb8bd1b1546U, 0xbdc1fa18bd733deeU, 0xbdca8b9cbc803808U,
  0xbc60f1c0bcb5fa78U, 0xbc5e4190bda9d1f8U, 0x3d13f834bde834e7U, 0xbdb1fc64bd890b85U,
  0x3ddffbd0bdb1d120U, 0xbdfea6e0bc96b4d8U, 0xbd8ed192bad01800U, 0xbd80f933bd55e26cU,
  0xbbffd120bd992fc7U, 0x3df0f08c3d9fbe7eU, 0x3d921906bd96dce8U, 0xbd7c12d6be0d05bdU,
  0x3dc99d74bde7cfa6U, 0xbdcbd092bb296840U, 0x3d5e1f20bd8847b9U, 0x3dd53c583cef2f98U,
  0x3e0a07c6be039c8cU, 0x3deb71cc3caaa0b8U, 0xbc8eb038bdb4a102U, 0x3db17b883defb69cU,
  0xbdf3ec183dfda7b8U, 0xbdcb60993d373f4cU, 0x3dfe30603debb860U, 0x3da5d5eabdbd2caaU,
  0x3a5d5700b9b35600U, 0xbd60786ebe110165U, 0x3e021a58bd3ff472U, 0x3d8bcf3ebd1ab1c0U,
  0x3e09e5ea3d99ccd0U, 0x3d1c60acbdbc488aU, 0xbca04a3cbdcc29eaU, 0xbde6c22c3c737900U,
  0x3df892683d3b9dd8U, 0xbd22a74cbc953250U, 0x3e10451ebd474dfeU, 0x3e03ec7cbd2c2b50U,
  0xbdf36e7cbd9654faU, 0xbd7bf5aebdd94a0eU, 0xbdef0cd23ca8bdc8U, 0x3d9279f6bce8b0b0U,
  0x3dd5a1983e00dde2U, 0xbc66fc30bd3bce68U, 0xbd217708bde5b4e9U, 0x3cc35eb0399f7000U,
  0xbd8934f1bd2918c0U, 0xbe03cad8bda5ce45U, 0xbd90ab733d6a377cU, 0xbc1802903bd28140U,
  0x3bb2e160bd2d83daU, 0x3c9950303daf6df8U, 0x3d74f090bc929068U, 0xbdb8c73abc577eb0U,
  0x3b3c24c0bbffc500U, 0x3c719bb0bd5499c4U, 0xbd807a623d17353cU, 0x3d23e7e03b839620U,
  0x3d3dceec3be851c0U, 0xbc31c0903bb84d20U, 0xbd8e8a173cc96b60U, 0xbc3f6ba03d02589cU,
  0xbd856c343e00b5c4U, 0x3d4bd600bcd5588cU, 0xbbcff0e0bd441a32U, 0xbda56a55bda63b88U,
  0xbd9d5398bd24ef2eU, 0x3db7e8b63cbad4b8U, 0x3cafc5403ccb2cd8U, 0xbdcb8fbebdb647b8U,
  0xbd9b31343c9ac920U, 0xbdf4c0a1bd86f770U, 0x3d903e10bddb4334U, 0xbcf7d754bddcd7faU,
  0x3d7f91683df30884U, 0xbe04d5923dab2ce8U, 0x3e0cfdb63d601bd8U, 0x3d4717e03df68250U,
  0xbd43ffc8be10773cU, 0xbddabfd6bdec47b5U, 0x3dae242cbdd4e226U, 0x3d8922463db7db40U,
  0x3d2c9f083dcdc3daU, 0x3e0df7063dae1324U, 0x3c22dcc0bd87a0d6U, 0x3b2248803dd790baU,
  0x3e0419dcbdbe763eU, 0x3e029d80bd096fc2U, 0xbdce9f2c3d2429d4U, 0xbe0793fdbde82620U,
  0xbd351e90bdf5425aU, 0x3d2632483d189af4U, 0xbd72661cbda62b50U, 0xbdb9defd3cfd9da0U,
  0x3db2584c3d947070U, 0x3e0c0ce6bd54811eU, 0x3e09886abbba7f20U, 0x3d6fac6cbe08bcf2U,
  0x3de4a9603d90c372U, 0xbd9370c33c56c8f0U, 0x3d7baae8bd6b51b4U, 0x3dd5d54e3c1fbc40U,
  0xbd2cb58e3ca32f30U, 0xbd07022cbe074e0eU, 0xbe11e4743d8eff90U, 0x3da36f22bb33c800U,
  0xbd427ac0bd03255aU, 0x3d586fc43dfd49ccU, 0x3de08510bc8bf620U, 0x3ba1f9a03d7f13dcU,
  0xbc5c2f90bdb4155dU, 0x3dbd2f643ccb7d00U, 0x3d106b2c3e089ddcU, 0x3ca8ff98bd775e32U,
  0x3d802e7a3d91a6f0U, 0xbcc511603d380a44U, 0xbdbb9816bdcf094cU, 0x3d45bce03d464ed0U,
  0x3d81a6c43dbf9a7cU, 0xbdf0bcadbe12dc33U, 0x3d007ad0bd51702cU, 0xbcddaf843cd3a208U,
  0xbd9765ab3db26844U, 0xbdd4bdfe3c09c8a0U, 0x3d82bd6e3ca77ac0U, 0x3d7bfae0bdad8b9cU,
  0xbdfa7968bda1499aU, 0xbe051d6e3d3ad9f0U, 0xbd935e93bdb5866bU, 0xbd3161f83d3b7524U,
  0x3ce550a0bca561e4U, 0x3d9f8cd43dd94ce8U, 0xbc2aa480be083df7U, 0xbc21c0503d716b48U,
  0x3dd87bc0bdbc367aU, 0xbdd66980bddb671bU, 0x388d28003e0f755eU, 0x3dd11f20bd03f934U,
  0x3d2dd76c3e0c22aeU, 0x3e014da4bd58d9daU, 0x3c824a30be03bd77U, 0x3c61e950bd41e9c4U,
  0xbbc818e03da83edaU, 0xbde155c6bd56d998U, 0x3a7d7a00bcd51cecU, 0x3e001ab83d74b858U,
  0x3de8747cbdf60724U, 0x3d7a06503d0bc46cU, 0xbcafa0a43d94d976U, 0x3e0db4d63de8a778U,
  0xbda79eacbd4c16e0U, 0xbd1572d6bd86b79fU, 0xbe0342333dc4672aU, 0xbcafa5fc3ddc6e18U,
  0x3dc2ae44bc9295c0U, 0xbd67634e3dab178aU, 0xbd32344e3d0b8da4U, 0xbd9c0a53bdfe81b5U,
  0x378f20003d294bbcU, 0xbd6fd2623d3fdf20U, 0xbd08f4223daf7f6eU, 0x3dbdcdec3e0b1160U,
  0x3d4a02603e11865aU, 0xbd00db4e3c812ce8U, 0x3bd155a03c2086a0U, 0xbc53eee0bc0dd030U,
  0xbd75560abd9803e6U, 0x3dc73b323d8094b0U, 0xbd716aeebde3c722U, 0xbe103c873baa84e0U,
  0xbdcd3cfc3d142b60U, 0xbd7aa15e3d7ebb58U, 0xbccf5f10bd82935aU, 0x3d8b34183d77782cU,
  0x3d43c3a13cb13123U, 0xbe0b1909bd970abcU, 0x3ddf597ebd32a672U, 0xbdd63faabd1f980dU,
  0xbe0690943e1346f0U, 0xbc6fb963bdbaaa6aU, 0x3d19101c3dd304a2U, 0xbdb102d2bcdc9b31U,
  0x3d6366b3bdc292b5U, 0xbb8f6aafbdd50da9U, 0xbdec2b333d8ff50dU, 0x3c7511023d5dcbbcU,
  0x3dad9a6ebe11bca5U, 0x3b938f083d898850U, 0x3df56023be0cd85cU, 0x3be5dbafbe0f873cU,
  0xbd59cd513da23334U, 0x3e08cc153e12e176U, 0xbcb132da3deb8054U, 0xbe068991bd7ee310U,
  0x3ceb53ad3d1760daU, 0xbdde1cc63c26a1d0U, 0x3d386ed5be073853U, 0x3e11ed1a3df0307cU,
  0xbdf24859bdb36c1eU, 0xbde0ec25bd0bb33fU, 0x3d98f9cdbe042acdU, 0x3df5deeb3da6e638U,
  0x3d20bc2b3d13756bU, 0xbe11c974bd8be422U, 0xbc2027f0bddde0dcU, 0x3d78b5ccbd90d0faU,
  0xbd9533d1bd6825e4U, 0xbdbbc36c3db8d956U, 0x3d4451e23de75bd9U, 0x3e00d5323dd51e56U,
  0x3e111fcdbe0183b9U, 0x3ba11339bcbedc79U, 0xbd505ab33deddba9U, 0xbdbebe93bdd04940U,
  0x3dbe93d73d30dcaeU, 0x3db6cae33d8ed4efU, 0xbca591e9bd158c8cU, 0x3d6ae43cbcde05adU,
  0x3dfe14563d634628U, 0xbd06d9afbd9f99ebU, 0xbc0d304f3cec68c4U, 0x3d199aa43d846922U,
  0xbd1d3b793d726e3fU, 0x3a3ea4a3bd83add1U, 0x3d82b290bdb05668U, 0x3de31700bce76890U,
  0xbd8226443d32ba7cU, 0xbcc9c7af3e0319f1U, 0x3d52025abd1fd632U, 0xbdf7d40139840973U,
  0xbe12dea4bdcdba7cU, 0xbd780345bd00b08aU, 0x3e1bc3babe04f49aU, 0x3d16786a3dd4ea0dU,
  0xbe115b613d6ed144U, 0xbdf02456bda0f148U, 0xbcbea2403d1a833aU, 0x3e01e901bcd3afc2U,
  0x3d837ecebda4c138U, 0xbdfe0574bd29ff55U, 0x3e0a03123d767c56U, 0x3e1139713cc312deU,
  0x3dab6fc2bdaecba4U, 0xbda60221be0f466dU, 0x3d673c953d536d9dU, 0xbdce6fe0bdd63febU,
  0xbdbb7c723d27fe08U, 0x3d40bb11bdd749f5U, 0xbd547d703aef23f1U, 0xbd5fea4a3dd81666U,
  0xbd545fe83d82e560U, 0x3b42df3abd0ef2c4U, 0x3d1b9ba3bd8ec733U, 0xbdbead42bded9fb5U,
  0x3e1b3cb9bdfb888fU, 0x3d9d44e63c80a6fbU, 0x3e18d9dd3dd9d378U, 0xbd8a439c3dce970cU,
  0xbd9c01483dfa0014U, 0x3dd0b7cb3dc2a1feU, 0x3c18d490bc8aebe2U, 0xbd581a843d5002e7U,
  0x3df68ff0bda342a8U, 0xbd8804853df2c774U, 0x3df0cfe2bd7b5c30U, 0x3dc28a0bbcd55016U,
  0x3dc66c093d92b99bU, 0xbcf20a41be0251acU, 0xbdeb17ab3daf651cU, 0xbc9a30b8bdb2385eU,
  0xbc3c89123c6af54aU, 0x3dee9e943dd14148U, 0xbdb6b3b93dd7ff52U, 0xbbc0ad2839f89662U,
  0x3c61ccf0bde260f0U, 0x3d4c68f83de2af08U, 0x3deb14d8bdd406b1U, 0xbdb4350f3da69b1eU,
  0x3de8eca0bcdd02a8U, 0xbd7bb65a3da308e2U, 0xbdb923eebd7bfd95U, 0xbe0266493e10d104U,
  0xbc3c1cd4be00c022U, 0x3dc67e4abdad97fcU, 0x3d044db6bd6c3793U, 0xbd6f9f393d6b7600U,
  0xbd47b7b8bd8027d5U, 0x3d0b39b4bd8888b2U, 0x3c0e70b4bdd0284bU, 0x3d29ca40be0b7afaU,
  0xbd9c4b16bda8af5eU, 0x3e04f212bd644e80U, 0x3df3dfe7bd9c16aeU, 0x3df00ae53dba6cb8U,
  0x3db0a657be0bf1d2U, 0xbdf31deb3d57abc2U, 0x3dabdba63d597bc4U, 0xbd98db51bdea6892U,
  0x3d51748c3c8040bfU, 0x3de025903d0b952dU, 0xbcdda814be0081a3U, 0xbe04c6adbcce806cU,
  0xbd5feb1ebce99ec8U, 0x3de4e954bdd33801U, 0x3df944743de476c4U, 0x3d24f5b63da67d62U,
  0x3e0a86443e08955aU, 0x3c0bc0b6bd7f3ec8U, 0xbd8725723d6b1134U, 0x3d920e403ddb2270U,
  0xbdfac0c6bd846b2bU, 0xbc5f9a90be015a8aU, 0x3da2e0a93de19452U, 0x3d4c2fc6be047666U,
  0x3c984a123e12cde7U, 0x3d84d189bd932071U, 0x3cebd6113df0bca6U, 0x3e0e8f74be0d368bU,
  0xbdf1f644bccfd5a0U, 0x3cb0c491bd2eb9b2U, 0x3dc24570bda26fd5U, 0x3cdb6e60bdbbac8dU,
  0x3cc4ce44bd2c0b69U, 0xbda9b9c1bd969975U, 0x3d8d363e3da5cb1bU, 0x3e08e0c13d8d3aecU,
  0x3d95cc51be0fcdebU, 0xbd805b023dc56446U, 0x3d1daf993dae6607U, 0xbd92ec873da41105U,
  0xbdc96c94bdec2814U, 0x3ddb38a2bdc3da2dU, 0x3e10daf5bdd227dcU, 0x3df8baea3e0e4649U,
  0xbdae8d7c3c455790U, 0xbd59b9e63cd78518U, 0xbd4a7f883dc443d2U, 0xbcff8562bcafc2e8U,
  0x3dfbd350bcf8c5e6U, 0x3d2cd085bd8d7f2dU, 0x3d80d378bd37c4e0U, 0x3e088830be07ddd6U,
  0x3d9965fabdac38b8U, 0xbdedfd1e3d8f1877U, 0x3d2e9a58bd2e23dfU, 0x3d84ac98be08b184U,
  0x3de853afbc4723e0U, 0xbcfd29f4bc8e3748U, 0x3c92d3d43d937cf4U, 0x3d993873bde3843fU,
  0xbd8109e8bca697dcU, 0xbd4cfec5bd8ddc5eU, 0x3cc2f1eebd78dd4eU, 0xbd975283bab860cdU,
  0xbcfdbaaf3dfccb10U, 0xbcdc345a3b8856e0U, 0x3d65b450bdc5bd34U, 0xbe02aefb3d63efd1U,
  0xb93ce800bd5d11f8U, 0x3d6de996bc191dc0U, 0x3e0d9bafbd56ad36U, 0xbde6584c3c8b669eU,
  0xbcf703d2bcea1638U, 0xbe03249abe09b905U, 0x3b04d4c0bda46ce5U, 0xbde18788bdbe8443U,
  0x3d46b8a93d9f9bd4U, 0xbd9611243dffcaa4U, 0xbd9e556f3e082f6dU, 0x3d979a74bd8078c8U,
  0xbd251341bc5a4f80U, 0xbcf4b130bd6f46c5U, 0x3e0fe3ee3dd58f2dU, 0xbde1aa253de80e94U,
  0xbdacc8c0bd433d4dU, 0xbe1049293d0bb17aU, 0x3cdafe28bd99e1d4U, 0x3caaa7b7bdff78deU,
  0x3d7fff653e006080U, 0xb9e448443c4c3db0U, 0x3d1e9d16bcfd1a58U, 0xbdcea3cfbd7496c0U,
  0x3c013f1cbd8944ddU, 0x3d1dfceabdcdc307U, 0xbd5e8e45bdd841f4U, 0x3cc726683c8bfd30U,
  0x3b220d7ebdd0d98eU, 0x3db7e802bcc33648U, 0x3b720da6bdee807bU, 0x3d8626503db6dff2U,
  0x3d0f9a3c3daf8244U, 0xbd91a61bbd855a37U, 0x3b76b6593d70b9a4U, 0x3c9f5500be0e91b8U,
  0xbe130c74bc1caba8U, 0x3d426bffbd1cf778U, 0x3df346943d69cd0aU, 0xbe0c33cdbdb45c09U,
  0x3dbc7a34bb9341a8U, 0x3d6ea5703da3fbceU, 0x3db39ebb3da9d803U, 0x3d8237b8bc1e09b0U,
  0x3dde054a3cb14c9aU, 0x3cb53e163d7f6e40U, 0x3be4de4fbe0f32b8U, 0x3df11cebbc6291cdU,
  0x3d93921cbbe0b4a3U, 0xbe1237e03d0a5d5cU, 0xbcace2dfbdf373edU, 0x3c35078e3ca7cde3U,
  0x3dd2f699be06813aU, 0x3d2bdc33bd81877dU, 0x3b67ef6d3cefe4adU, 0xbe062f0d3deecb0fU,
  0xbdd433073d28c987U, 0xbd72ecab3e043529U, 0x3d1835a03dcd3b70U, 0xbce7ee463d815279U,
  0x3ddcc6903da63525U, 0x3dfdc16c3e028f35U, 0x3c3b3686bd3f28acU, 0xbe0d04bdbcd98bb8U,
  0xbdfb34ec3dd8b525U, 0xbde3cf603d7fc120U, 0x3e04fb83bcc54469U, 0x3d4dfceabdbd39d1U,
  0xbdd12bf0bd73e326U, 0x3dfa32353ce1e8e5U, 0x3bd23c9a3e10a548U, 0x3d9fe31fbdd8075cU,
  0xbd227de8bccee15fU, 0xbdbd3e13bd9659e4U, 0xbe03a2083d2e0928U, 0x3e086f4ebe0fcb15U,
  0x3c36e67d3dc4df21U, 0xbc3c3f7a3df6c378U, 0x3d99de7b3e052904U, 0xbd45389bbc4cee6cU,
  0x3c0885e53aafcf00U, 0xbde8cce6bd89e2b7U, 0xbdfe697d3dd28054U, 0xbcb871703e1050bcU,
  0xbd174d51be0ada39U, 0x3d9074163ced88d8U, 0x3dfc95f9bc21bb29U, 0xbd5f9d593e09bdd4U,
  0x3dd798c9be06e2ecU, 0xbd99a8bfbd97ecabU, 0xbe121cb9bde90250U, 0x3c83d5763dac4f1eU,
  0x3d3f90b2bbdb3bb9U, 0xbd7692fabd3611beU, 0x3cbf1040be0f9188U, 0x3e13ac993d869a47U,
  0xbc3864c03c13a0f0U, 0xbdde0bd33e111027U, 0xbd4dc09c3da6c2feU, 0x3d99d288bb38c640U,
  0xbdebc09cbdc4e038U, 0x3c73111abe1199c0U, 0x3d9620a13dc8d8b3U, 0x3c9be180be06aa21U,
  0xbd5bbc483c6585b0U, 0x3d6624e4bd9627e8U, 0x3dfccba43d1ad6f4U, 0x3d96bbe03c833ac8U,
  0x3d7a4fe43d351894U, 0x3da46008bd9d98e9U, 0xbc06ce40bd878ceaU, 0x3e007382be05d81bU,
  0x3e0c6bdc3bcfd160U, 0x3d7dd468be0e476cU, 0xbdf81c5c3d9b98b2U, 0x3da8f5eebdec6bd8U,
  0xbcad2cc8bde8b6caU, 0x3d6934b83d0efe48U, 0xbde2e37ebdbc533cU, 0x3dc229583d042a50U,
  0x3e00ce6a3de67768U, 0x3d8a5a2a3cd61bc0U, 0xbd9bbb5fbd25fe22U, 0x3dbd98dcbdc93174U,
  0x3d01d6203cd165d0U, 0xbdeca9753d4e182cU, 0x3dfa7660bd48f2aaU, 0xbc01f680bd75d83aU,
  0xbd6446623d08a03cU, 0xbe11f5a83d8c55baU, 0xbd8b71833c8fc128U, 0xbda7e4483dd3e8c0U,
  0x3d9978663d8087e6U, 0xbca2b320bdeba35cU, 0xbdb95dfdbdbdc847U, 0xbd837c063daf01b2U,
  0xbd7e0b823dae17feU, 0x3d950058bde6a200U, 0x3e01529cbd1b61d8U, 0xbdebc37a3ca97d60U,
  0xbce1ad10be0cec3fU, 0xbcc026e43d2374b0U, 0x3d8473dabe0f4456U, 0xbdcdfc853dd89738U,
  0x3df3d84c3da9b912U, 0x3d6bd350be0fc261U, 0xbd909c9e3d289c0cU, 0xbe0fe1bbbdc37136U,
  0xbd323cf83dda9ae8U, 0xbccd68583e0e1d90U, 0xbe0a5246bc9f714cU, 0x3df74c103de19890U,
  0x3d93736e3d9066d2U, 0x3da245863da82c86U, 0x3ca75608bdaeca8aU, 0xbe1367073d877f46U,
  0x3cd3c8f0bd6745b8U, 0x3e10c9903c467fc0U, 0xbccea0d4be064dd7U, 0x3c57edb03da2a86eU,
  0xbd0a8450bdbcaf98U, 0xbdc1c8c4be0da7f2U, 0xbc5dd780bd534c46U, 0xbe01d5bfbcac591cU,
  0x3ddae5cc3e05f9d2U, 0xbd4793f63d988314U, 0xbdbc794ebd571aa0U, 0x3ccea8b03dedb280U,
  0x3da68c4abd92df85U, 0x3c1cd3f0bdd04c78U, 0xbe084146bdf12f30U, 0x3dfc0540bd9ee15fU,
  0xbd3050d03de7cd18U, 0xbd875915bd134a7eU, 0xbe0124623d22a510U, 0x3d4097a0bd4b9658U,
  0xbc1e1000bdf2661cU, 0xbd60d976bcd411b0U, 0x3d6b16183cf94410U, 0xbdd67dbabdd6df15U,
  0x3cc5f4483d956d84U, 0x3ded6164bdd022aeU, 0xbde76fd8bcb76824U, 0xbd4eb27abd6f47e4U,
  0xbcad9490bdbd4d28U, 0xbd7f25e83b211400U, 0xbc33d350bdd3355cU, 0xbbb0ac80bd0a5a0eU,
  0x3cc4c390bdbea83cU, 0xbde13edc3e0fab60U, 0x3da2f91ebdf5774aU, 0xbcc2195c3dc3bea6U,
  0xbdfd88bebe09e40bU, 0xbdca5dd6bdcf2751U, 0x3dff61303cc45688U, 0xbd9d395cbdaecc2aU,
  0xbdcdcae3bd8982ecU, 0xbb7ea6403d9b84a6U, 0xbdef41e63d582a3cU, 0x3cc63c603d398a88U,
  0xbba1365a3d4d94e9U, 0xbddd0ce0bd1fa8b8U, 0xbd9cac993d8b757dU, 0xbe1213f93d6bd87bU,
  0x3ddb38f43d9fb05aU, 0xbe0195003dfc0feaU, 0x3db554f63e0b9733U, 0xbd0adbfcbde7ad00U,
  0x3e0af405bd20c2e4U, 0xbdd4acd9bdb7df65U, 0x3de8d1883dd4733fU, 0x3e134e273d010c0cU,
  0xbd4637a13de439e4U, 0xbc28f1983dbde836U, 0xbd6a4066be02f267U, 0x3d9db36bbddcd006U,
  0x3d91eb593e087ad2U, 0xbe10ef1ebdd235caU, 0x3d368d4bbde8a7d0U, 0xbda0ccf23de7e555U,
  0xbddab165bc95e9feU, 0x3dfdc6b0bcfeebc8U, 0x3cd58780bd9688feU, 0x3daaf9babdfdfdfdU,
  0x3e020aa93d60e63fU, 0xbdaec817be11b87bU, 0x3b537c5b3e0829ceU, 0xbd25d5fc3d9b471aU,
  0x3d7803b63ddf79c8U, 0xbd628b313da39ae3U, 0x3d59a24c3cf3ca9fU, 0x3d18edf0be021f10U,
  0xbdaaf630be123526U, 0xbd5241b83bd263a4U, 0x3d86d176bdb39243U, 0x3d4492483d3f0be0U,
  0xbdd2db9abcffe77eU, 0x3df46e29bd52595dU, 0x3d0c71973d4bb035U, 0x3dd60bbd3dce164eU,
  0x3dc1073e39dfe2a3U, 0xbcfc99b73e019476U, 0xbdf45b12bda32af3U, 0x3deced5cbd3e01c5U,
  0x3c3b09633bc4d669U, 0xbc0ff33dbd1dc568U, 0xbc45ba7d3d037b25U, 0xbd5604e23ba572a7U,
  0x3ce94c3cbc0dcb15U, 0x3df2227a3e0700d9U, 0xbda1217a3e141f93U, 0xbbad31bfbd9539f8U,
  0xbd0e63043e13cf77U, 0x3dd6cf1abdc23b3dU, 0x3c99bd343cb2faebU, 0x3d011eeebd3be6baU,
  0x3d7cfe93bd923ba0U, 0xbd69c4343db1001aU, 0xbd78584bbde37bf6U, 0xbd679484bc45974fU,
  0x3c87a088bc616d04U, 0xbbe5725ebba6212dU, 0xbd509c08bdee37a5U, 0x3db85fe5bde8d59fU,
  0xbd929fe33ca1589aU, 0xbe01f59a3dfa5febU, 0x3b1e465fbe0203aaU, 0xbca7ac8e3ddcf5c5U,
  0xbe05cb2c3dbba1c1U, 0xbdd890713dc0aba2U, 0x3df24f48bd8e547fU, 0x3ca6aac8bc13688bU,
  0xbdf51e233d488eb8U, 0xbcaf299abca9dcb8U, 0xbb6c23e13dc52296U, 0xbcec3b20bda554bcU,
  0x3d9929713d72398fU, 0x3c150de13b3bcc00U, 0x3dbc9d5dbdf9443fU, 0xbd55316fbd678f46U,
  0x3d0e2621bd8c1343U, 0x3ad918403c525b69U, 0x3df8eedb3dfb217cU, 0xbdb6123a3df766c7U,
  0x3d7178a33d3a6968U, 0x3e0af568bd529aa0U, 0xbd87f65bbdf9e110U, 0xbd142c05bc741a64U,
  0x3da46c223d79bfc4U, 0x3ce3c9b23dcd3c28U, 0x3c3955ccbddf3f88U, 0xbde5d033bc6a27bfU,
  0x3db60eebbdebf29dU, 0xbdc3900abd8b78aaU, 0x3e120fa73d01d2e3U, 0xbe1264f1bdad7bf3U,
  0xbd2d5d80bdfca603U, 0x3e0d33643debafa0U, 0x3c850ac1bd449ad2U, 0xbd9298883cd98d51U,
  0x3b28e8ab3df4df78U, 0xba8a78e13d174848U, 0xbe0d85883d99b880U, 0x3caa6c22bd457dd2U,
  0xbdea979c3e0d966fU, 0xbd89b53bba2ae80bU, 0xbd28bed43d7c8fb5U, 0x3cfc675bbdb0a765U,
  0xbde029d5bda257b1U, 0x3cc72d6cbd895612U, 0x3d4fb0a0bdf1c629U, 0x3c9b8bba3cfd2a00U,
  0xbe0e8bf13db35e39U, 0x3cc504e23c4b0ff5U, 0x3db41d8f3defab9cU, 0xbe04b7fb3e11adabU,
  0x3dc4900f3d5fbb37U, 0x3c6ad8d03d678f68U, 0x3d670add3d76277bU, 0xbe04ef40bdcac2bfU,
  0xbd3cd606bc05a715U, 0x3dafa3bc3dba607eU, 0xbdd311993d9c552bU, 0x3d062b7c3d8469faU,
  0x3d58f8543d738993U, 0xbdf698d73ddea6f2U, 0xbdcf2c55bda088b6U, 0x3c448f40be032c19U,
  0xbdf0bd8a3bc5be5aU, 0xbdf90adc3db80727U, 0xbd00d2f63dff6995U, 0xbd22632c3d23487cU,
  0xbd3a7d453d81eae4U, 0xbc9641a9bdc587f5U, 0x3cf6b12abdcc339bU, 0xbb2ab078bd9ffbc0U,
  0xbde29209bdbdb5d8U, 0x3ddea6abbb8ea215U, 0x3da43cf83dc27447U, 0xbcba8d23be0525f4U,
  0xbdea8d52bda27f83U, 0x3da112fd3e0b0b79U, 0xbd4c60ac3db3b4a0U, 0xbd6cf9543dec6dc0U,
  0xbd0e7736bd78721fU, 0xbdba0a143c3eadffU, 0x3da875d0bdec4ba5U, 0x3d216db7bdd9364cU,
  0xbda37e40bd3b42a9U, 0xbd8b0dd73df08bf0U, 0xbce024e63d86f57aU, 0x3d8c1d6cbda17459U,
  0x3daebbb63c32eeadU, 0x3e028d0dbdf5ccfaU, 0x3d294d1f3db02a05U, 0x3d303f9bbdf7b9c7U,
  0xb984a000be01665fU, 0x3dc8821fbc43affaU, 0x3e0c91953d44aa77U, 0x3d9bff2b3d92ae6aU,
  0xba8b6a80bcc789d8U, 0xbd348eb23e131c19U, 0x3db551e03c974b66U, 0xbe109f113d3ef8d6U,
  0x3d897768bceb5f4eU, 0x3cffead2bdd8da8fU, 0xbc9be5d0bde43a6bU, 0xbdf88c89be0b3d66U,
  0x3d347364be0b3e23U, 0xbc5d02b3bdba0cd4U, 0x3d039728bdc22db9U, 0xbdead2febcb3ce8cU,
  0x3e0cd7b43d694266U, 0xbdaf543abb948440U, 0xbdac1e013c039e17U, 0xbc69447d3e014ff7U,
  0xbde33191be0f820bU, 0x3b1b01963c990f78U, 0xbdb6b12abe03e917U, 0xbcd3148abe0d4d80U,
  0xbded8e52bdf98147U, 0x3d5ce0e1bd902e90U, 0xbd522a3a3dbba097U, 0x3d8739c3bc24a75fU,
  0x3dd43676bd79ea0eU, 0x3bb884343e090818U, 0xbce3b797bd6c371eU, 0xbd88bbe33dc0cd70U,
  0x3e0b6d23bc5d939fU, 0x3e0c143abdc425aeU, 0xbdfe5b48bd83b99aU, 0x3d552724be13816fU,
  0xbce6b114bd51073eU, 0xbdc3acb23be5c180U, 0xbcb94a84be136f25U, 0x3dcf0de03a207500U,
  0x3e0eb4063c4162a0U, 0xbd3129483df7b6d0U, 0x3d85bdd8bcacce88U, 0x3dbb16c2be12d84eU,
  0x3d8fa66ebdcccc0fU, 0xbe01f80cbc0aee10U, 0x3dca4fa43dfec380U, 0x3d34a848bdcd729bU,
  0xbe0150ea3d8ff3a8U, 0x38fa709cbd09997aU, 0xbdd1b05e3cac85b8U, 0x3de3650c3cd09460U,
  0x3ca930503dc1b1a8U, 0x3c2606a03d379a74U, 0x3e005bbe3d4842dcU, 0xbcdca3e83cbe3378U,
  0x3e13bace3e0edfa0U, 0x3dfefb70bcc49f34U, 0x3d4f6cd0bdda0a30U, 0x3d454a18be039f58U,
  0x3cd685c83e0eaa20U, 0x3de4db883daea15aU, 0xbcd28dc83d659afcU, 0x3dd4c2d83d7eed30U,
  0x3d73c42c3dc9ed70U, 0x3ce2d9b8bcc36a40U, 0xbde57e3abe0865aaU, 0x3dcbc2643de02c34U,
  0x3ba11be0bdee51ebU, 0xbd8bc0163e12d99cU, 0xbe088fe23e043104U, 0xbd51b612bc4d73c0U,
  0xbd5b2ba83d5b2a10U, 0xbd83b7cd3d8a62caU, 0xbd4f18e23d82b788U, 0xbdef968dbd240404U,
  0x3da565a0bdc24386U, 0xbddaf43bbd4e4016U, 0xbd125412bde28e71U, 0xbd5887b03db6a8a0U,
  0xbdcfb04bbcfdb27cU, 0xbd86e213bd574c90U, 0x3ddb52803d8a5534U, 0x3e1159b43e0989a2U,
  0xbc872d103db8c154U, 0x3dd9763c3e063034U, 0xbddce6ca3d548eb0U, 0x3ccbb300bbaae820U,
  0xbdd60796bdc3995fU, 0x3dfc8c0cbd0c44d8U, 0x3bb96520bdbf18d2U, 0xbd6421ccbda0bbefU,
  0xbd9ea54abe12c30aU, 0xbe0209e6bd217826U, 0x3db86ae83d2e80e0U, 0x3e0c1678bda6c5cfU,
  0x3d237e00bbbadf40U, 0xbde6b51cbd4aac6aU, 0x3d919b40bdb60554U, 0x3e0c757a3cdcad10U,
  0x3cf029083d9ff8c6U, 0x3d38a07c3d0b0550U, 0xbdff3bf93c123830U, 0x3dee5b64bde3f0e2U,
  0x3caccf88bddf6c0dU, 0xbd187b963e025628U, 0x3c86b908bdab4264U, 0x3df08eb43d562e18U,
  0x3d5333e0bc93e7a0U, 0x3e0dffbe3cf2a620U, 0x3dc99ad6bdab3ff4U, 0x3dee5f00be0c30ecU,
  0x3da6c0943dc75380U, 0x3d64b2dc3d323a5cU, 0x3d36d0e0bd9dd576U, 0xbcab3cc4bd16e850U,
  0xbe0c4917bd441a44U, 0xbd978f0a3dabf248U, 0xbd86a6bc3de9fd0cU, 0x3df81ce03d2454c4U,
  0x3dc761cabc6b7360U, 0xbd4ea58ebdf15bcaU, 0x3b5da740bd803f06U, 0x3b502ec0bd9c8b8fU,
  0xbcd33108bd9fe69fU, 0xbd89dbac3d8c8356U, 0xba85b600bd0f9d56U, 0x3de30314bda8d17cU,
  0xbdbbc0b2bd51b6c2U, 0x3e042b223d993f42U, 0xbd922fc6be085589U, 0xbc3595d03c370500U,
  0x3dca9b053ded6149U, 0x3d2df7e43cae3188U, 0xbd9d4522bda7f3a5U, 0xbdd65f38bda45996U,
  0x3c1c2f153dcfc178U, 0xbd08eddbba847739U, 0x3db128b83de6e150U, 0xbd19486cbddb7f57U,
  0xbd9b3c2dbd1a84efU, 0x3db9421b3dcb6b92U, 0x3dc1d8403df59e97U, 0x3e0212673cf6a558U,
  0xbcb204d73db01eb6U, 0xbd2118ec3ca10fb0U, 0x3dcae3313baa1d97U, 0xbd1af7773db4bf6fU,
  0xbc0476ea3ce6dd6eU, 0x3dfc6b4c3e00148bU, 0x3d22e916bdc39a46U, 0xbdc92d7cbe017e8dU,
  0xbdf4fd23bdd2bcf5U, 0xbdf3d40bbdb8148eU, 0xbda5237e3d40eab4U, 0xbdfc9d4bbdd3cf1fU,
  0xbe095e92bd8e22abU, 0x3c7504d5bcc25e99U, 0x3c87fdc5be0c0dfbU, 0xbd8ee8a73dfad687U,
  0x3d2fd1c3bda13b5bU, 0x3d944e923d864840U, 0xbd10b020bcd27b62U, 0x3dce6fd43ce46350U,
  0x3cac395cbcfbc234U, 0x3d315ff43d92b79cU, 0x3e0082bdbdcd0595U, 0x3dca8ce73c258960U,
  0x3ded14ec3da57c3dU, 0xbd3a1d6e3dfd3a3eU, 0xbc40dc3bbd3bf90bU, 0xbdace780bd10125eU,
  0xbd13141e3cf8eb5aU, 0xbddbe58e3daf80f7U, 0x3dbea5b8bd92c20eU, 0x3d3d952b3af58f3eU,
  0x3dbd2d2dbdd44f3dU, 0x3e0063c5bd681258U, 0xbce5644c3dc8ed4fU, 0x3e122b6ebcad8fb4U,
  0xbd1be3afbdd9ffa0U, 0x3e0263703ce3637bU, 0xbd328a5ebe06d5e7U, 0x3dd3ba88bc30b87cU,
  0xbd848d483db64f16U, 0x3d99367ebd08256dU, 0xbd389ac2bc1d4113U, 0xbdfb0d103ded52e1U,
  0xbe1076d23d64ca21U, 0x3d23fb34bd9166c0U, 0xbd2cd01b3dff69a2U, 0xbc994b8dbd8a3eacU,
  0xbd890f6fbd63ef69U, 0xbca2d89d3d31b2a2U, 0x3e1837e93dc035caU, 0x3cc41fddbdc411c7U,
  0xbd4f46d23dfceb30U, 0x3e0b22f6bd5a325dU, 0x3de66b5ebca6388fU, 0xbdc782d03e16109aU,
  0x3d3283f8bdaa63f6U, 0x3c47f31fbdc4baa2U, 0x3dab8489bd5b211bU, 0xbce390d83e129701U,
  0x3cd373a1bdf57848U, 0x3bb0d40a3db57b12U, 0x3be5a809bd9924e8U, 0xbbf525203cdfdda8U,
  0x3d82ef51bdd10943U, 0x3d896c12bd89b2aeU, 0x3d7d0c09bcd793e5U, 0x3b5299ccbd802bb5U,
  0xbe08ca703da34320U, 0xbdb7744c3dbcbfefU, 0x3e082508bdae498aU, 0xbda525793d8da02eU,
  0x3d4a6d8c3d55cbfbU, 0xbc2211573d784a00U, 0xbd2cc19cbdce384fU, 0x3e0e4ac53d968932U,
  0x3d2cbe143d337e28U, 0x3d91faac3d18dadaU, 0xbe07b88bbdb8d02dU, 0xbc4628443c18c57fU,
  0xbdc6e1f4bdadde8aU, 0x3ce52beebd965f58U, 0x3b4dfedfbdab915fU, 0xbcff414cbc483f35U,
  0x3defac063caa11c8U, 0x3d713f4cbdb848c5U, 0xbdc7e01f3dd427a0U, 0xbdb8f200bd4694d6U,
  0xbd47fbfdbdd32b1cU, 0x3d84247e3c376ce0U, 0xbc7460f03e156ae9U, 0xbca5b0bf3e090875U,
  0x3c48cc6a3dc52a13U, 0xbde420db3ddc698aU, 0x3ceed5083c6dbdbcU, 0xbc3e96a33dbeee50U,
  0x3d7dfb55bdff3db9U, 0x3dcd3528bd655ee8U, 0x3d0c15b9be0435d2U, 0x3dd72a0a3dfd0ffaU,
  0x3d6c3514bdf8be78U, 0xba93c9b43b63809aU, 0xbd5075f5bd280580U, 0x3d0e2f703d11aa21U,
  0x3dc02120bc35775fU, 0x3d05d8a83d3f0dc4U, 0x3c1bd4483d543443U, 0xbd3994b23d43da0fU,
  0x3e0eb36fbca6a833U, 0xbb81a1b1bda0833dU, 0x3db3d7273d10b4a0U, 0xbe0e05023c18b4dfU,
  0xba4d17ff3deaaf5bU, 0xbcfe28ccb9e0798fU, 0x3d0e5bf0bdf86e58U, 0xbdd6bbbdbdc7376cU,
  0x3d9534a0bdd70857U, 0xbdd941e63d7d8541U, 0xbdecd7e1bd55979bU, 0x3e0b7a89baa23e80U,
  0xbd7a05733defaf59U, 0xbda6dc25bd46fb4aU, 0x3d919c22be098a59U, 0xbdf77c31bdcb0474U,
  0x3c375329bd4a2525U, 0x3bc64027bdafe25fU, 0xbe054b393d3ece91U, 0x3db0d7033dfc12beU,
  0xbe0b467abc58bb92U, 0x3c8907a3bde28b14U, 0xbe0c5a5c3d82e2aeU, 0x3dc0d7da3e07461aU,
  0xbdabbb903d2119dfU, 0xbdb508433ddd53b9U, 0xbba68b40be0a530aU, 0xbb0e2f293dc9d79bU,
  0x3dcec6243d6200efU, 0x3cddda733d8d8c6dU, 0xbd72361e3d2e7608U, 0xbdc8061e3d253ae3U,
  0x3d2531f73db02c46U, 0x3d88c2733d991213U, 0x3da799ff3dd6269dU, 0x3de8c6783d70b01aU,
  0x3b0a16803d6cc407U, 0x3dcbd7a1bde80045U, 0x3cbf215e3dd9f095U, 0x3d96922d3d85cd4dU,
  0xbd6b99543dbcff47U, 0xbdda6bbdbde9a567U, 0xbdb82cd7bd572a51U, 0xbdb7b8103c66e21aU,
  0x3dde351f3d89b115U, 0x3d6b3e7c3dcc1de6U, 0x3d00e565bd840877U, 0xbc7b4991bdf31b3dU,
  0xbdc383ddbd4129d6U, 0xba9725d93e0682f0U, 0x3ca30f203d429ee8U, 0xbcbbe604be026defU,
  0x3ca940693ca59513U, 0xbddf5a1bbdab8366U, 0x3ce7f746be09fec7U, 0x3ddf015fbd26536fU,
  0x3d9f791d3ce16d78U, 0xbdc49408bdd874bfU, 0xbdd0b0dcbde360d0U, 0xbd031149bdec30d7U,
  0x3d3c68c0bdd2c599U, 0xbd9338cebd062b54U, 0x3d5450303b321680U, 0xbbeab3b83dd29561U,
  0xbd9cefc93d32fe18U, 0x3df694c53c59e872U, 0xbdc38f1f3d4ec77eU, 0xbd812fe53da22ecdU,
  0xbdc4e0d63ddf08c7U, 0xbda6888d3da4d80fU, 0x3d6de6d2bdc4caa3U, 0xbc9b59c0bda5d4a8U,
  0xbca16f1ebc2c5ae1U, 0xbe09e285bc2e82f0U, 0x3da65c8cbdc95acfU, 0x3e01ca943d6ec0a7U,
  0xbd85d150bdba6e0cU, 0x3e087f06bb9a34e6U, 0xbda95bb43c3a4ecaU, 0xbe005c883a86d83cU,
  0x3dc5d38bbd10bc57U, 0xbdd8420b3cbda174U, 0x3de0126cbd7d21bdU, 0x3ce38b193cf31a98U,
  0xbe0b54e7bc001470U, 0x3ae94053bd4489a8U, 0xbdbef0933e117f5bU, 0xbc0dc4bb3e10a3feU,
  0x3c91cab83d9a4ce3U, 0xbd5422abbdb9d0f2U, 0xbcd12df13da6f49cU, 0xbbdde980bdf0bfdbU,
  0xbdd626debdf6e7efU, 0x3d95bfa03d436e24U, 0xbda4dd0cbd6dc8e5U, 0xbe05ef513d086130U,
  0x3de792403d7dcae2U, 0xbcae51483ce8dc74U, 0x3d297688bd9d5a0bU, 0xbd73d4883d757cc2U,
  0xbd38e5da3d94e473U, 0xbd93ca023d200073U, 0x3d45adb03deff9c8U, 0xbde2a4f63d997c4cU,
  0x3d51557abe133db6U, 0xbdde5f503ddfbe6aU, 0xbdf0dc023d3452e1U, 0x3c5574103cea87c0U,
  0x3dc658103dfc6072U, 0xbd89a7f3bd8c0af5U, 0x3b915c8ebdf33266U, 0x3dd8bb983d264626U,
  0xbdcd9c043d1eb201U, 0x3c922c30bdc5667cU, 0xbdf7622fbd8ae130U, 0x3dc6393abade84f8U,
  0xbe0833b1bca67d0aU, 0xbd9b2512bdc24eb0U, 0xbdd120d03d501b96U, 0xbe13a910be0771caU,
  0x3dc0b2803dc05eb5U, 0xbdaa034dbc1a53aeU, 0xbd1283aabcfa3411U, 0xbd9ac32fbceef5a9U,
  0x3db87e383dd9951aU, 0x3dba7c1e3da97dc4U, 0x3e0efeb03d126e4eU, 0x3d5fc36ebda4f1a2U,
  0x3db223163d239ce3U, 0x3c21c305bdda21aeU, 0x3da8c6603d9745fdU, 0xbd222d763ccfa42fU,
  0x3d49e5fc3c6cd7d0U, 0xbdf8c799bda60ba3U, 0xbd4da69bbde18567U, 0xbcab9cf4bdf6df39U,
  0x3dcaaa5a3e0133f5U, 0x3db84b313dd33b33U, 0x3e03aa73bc793098U, 0xbd8e190f3daf2c3dU,
  0x3d59f0be3d4b5f56U, 0x3da28f5f3d889628U, 0xbdb0655b3e01dff7U, 0x3d9619763d6082feU,
  0x3ba2f680bd2e0d14U, 0x3be92f2cb9db08dcU, 0x3dcb58bcbcb48529U, 0x3d9e4bac3c1bf580U,
  0xbd1d45c7bdedaa6bU, 0x3dadfdda3de182fcU, 0xbdd584a8bdf3700dU, 0xbdc710a2be0ae70dU,
  0x3e018312bd74d4b6U, 0xbd1827383d2024adU, 0xbdabc3b53d21cdf4U, 0x3e0076a03d23da32U,
  0x3dd4ed41bd3cd763U, 0xbd7e4a963d59f878U, 0xbc624ea03d04538dU, 0xbd3d54fa3d300839U,
  0xbd68d2523d25d150U, 0xbe04a7823d8a2525U, 0x3d10ddf13cd9dd20U, 0x3ddc84393d852057U,
  0xbd21e3be3cdcde56U, 0x3d70ce59be0eef4aU, 0x3d0974583dff276fU, 0xbc7667b0bbfbdd72U,
  0xbd3c22d03d51b8e4U, 0xbd2f29a4bdc5e13cU, 0x3d2f9ac43da5f1aaU, 0x3c0e1de03d8165b0U,
  0xbd619510bc23e0e0U, 0xbe12d7f4bcc55908U, 0x3d29296cbda8aea4U, 0xbdf82f5cbdf17b06U,
  0x3d997c7ebc0841c0U, 0xbd1ffee4bd4fb858U, 0x3dc33d9cbd9aa0abU, 0x3d54f96cbd6afb1aU,
  0x3a6d1a00bd3e9608U, 0xbe10d05b3e05401aU, 0xbddc386ebe0f04cbU, 0x3d166ab4bdfc2d98U,
  0xbdb0c79a3d17c508U, 0x3d9e439cbd6125daU, 0xbdd9d3f83e0b555aU, 0xbe10afd33db8ed22U,
  0xbc767790bde95c6aU, 0x3b0c3280bdaacc4eU, 0x3dd82ceabdde4e0cU, 0x3dc87d52be03f731U,
  0xbcf112b4bdad918bU, 0x3d0da8e4bdec93dcU, 0x3d7c6a843ca8f568U, 0xbc120030bcc57238U,
  0x3d43e8d4bd01f336U, 0xbda5091a3e0ca82eU, 0xbc3ecaf0bd8fa5bfU, 0xbde04b7c3dca7b96U,
  0xbddcb44fbda4c7efU, 0x3d1e76f03d3ef20cU, 0x3dfb4f443dd56e02U, 0xbe103986bd8db10fU,
  0x3d346e00be032776U, 0x3d4404383e1033f0U, 0xbd4ea884bd8a797cU, 0x3bf264c0bd72f02cU,
  0x3d828146bd86cb5cU, 0xbe0acce8bd3b1466U, 0x3ce223e8bdb5b78cU, 0x3cf0fa70bdedf2d2U,
  0x3ba1bc603c102100U, 0x3d8735803e058c0eU, 0x3b8ee6a03d124900U, 0x3ddd88e8bdd6af78U,
  0xbe0ceecfbdd3e76aU, 0xbdc343bebccf2f5cU, 0xbd934535bdcf6eb6U, 0xbd98121dbc6083f0U,
  0xbd8de8083e0aa1a2U, 0xbd1b13263cb11e58U, 0xbdf34a4abe03ac07U, 0x3e0eda503dfe87acU,
  0x3bfed680bdc391a6U, 0xbcefbc68bde17518U, 0xbd150d02be033bb7U, 0xbde0583abd0aa448U,
  0xbdf5764c3b561180U, 0xbdd23f2cbd43f56cU, 0x3d2312543b9b27a0U, 0xbe0b90d13d649918U,
  0x3dfcb33cbdfbe4cbU, 0xbd71cbfe3d8727b8U, 0xbdf52abcbdbb0b8eU, 0xbe0f764abce3a1c4U,
  0xbc77de903dea496cU, 0x3e0d399c3d162548U, 0x3e10ada43c5dc090U, 0x3c6394b03d216760U,
  0x3d9b25483d5c0be4U, 0xbbcd5ca03d4b2658U, 0x3db43c283d22d8bcU, 0xbde778003d0dfbecU,
  0xbd140c723d19dd80U, 0xbd7a36443ded9da4U, 0x3e0975a2bc23b830U, 0x3e0c84823d92ea66U,
  0xbdc60c60bd549524U, 0x3dd144b6bdf99e4dU, 0x3e0d1d34be0f1986U, 0x3d1585583d5b4338U,
  0xbd61e3963da3f15cU, 0x3d4ad36c3e0ae196U, 0x3d491534bde5658bU, 0x3dfd7dec3d95315cU,
  0x3da9bff6bd10e6f0U, 0xbd91e1173e0964caU, 0x3d11bef83e1375c8U, 0x3d9db988bdc4a1daU,
  0x3d349e00bd999c76U, 0xbd615b4a3d1b67bcU, 0xbd70568e3c9cb370U, 0xbd11ff3c3df2d93cU,
  0xbd9efb6e3e06ff08U, 0xbe02cf6f3de091d8U, 0x3de1c52a3d7f7e01U, 0x3da7f94fbe012fffU,
  0xbe0ac65d3d1c6b24U, 0xbe094bf13d715fc6U, 0xbd175c5c3db06ed4U, 0x3e10b17cbd3ee236U,
  0xbcd6f4db3de82352U, 0x3e0378893e00a7bdU, 0x3d60a174bc35a62aU, 0x3de1a2563dd913e0U,
  0xbdbed60ebd422fe0U, 0x3d542f53bd002c68U, 0x3d2764f53d49a0c9U, 0x3d0c24abbbd0f15eU,
  0x3ca7a4023d76b682U, 0xbdb031aebbebc93dU, 0x3d621eb7bdc715e6U, 0x3dace9d8bdd9d388U,
  0x3c103487bd89c731U, 0x3d886b32bd11e8f0U, 0x3d2a837dbd8eba5bU, 0xbe03a3a1bd0a03f6U,
  0xbdca25eb3d23877bU, 0xbd9a683fbdeb3edfU, 0xbda02ddcbde37aa7U, 0xbc61ec193db54195U,
  0xbd9b6cd03d1bc455U, 0xbb49b8c93df8bcc9U, 0xbdf01babbd8ad4c0U, 0xbda0faabbdae1426U,
  0x3da4c54bbd2611f7U, 0x3d2180a03e12a61cU, 0xbdee8a0e3d954358U, 0x3dd01369bd6f2e6aU,
  0xbdef9f91bdb6cafcU, 0xbd1932263e09b060U, 0x3dd3efd7bcd6dbb7U, 0xbb55ea88bde895a3U,
  0xbe0ed326bd88a402U, 0xbd2f58fc3d298518U, 0xbd2bf42e3d336c7cU, 0x3e0376233d257e16U,
  0x3d8cc3673c811d0bU, 0x3dc3b92d3d56016eU, 0xbc4cf8e7bdd1f8faU, 0xbdbffca3bdc3ef34U,
  0xbd757e513d9687eaU, 0x3ce0a9fdbd43845eU, 0x3e0c55c43ddb51e8U, 0x3cfce832bdafd8f3U,
  0x3d4c5fa13cc7a1c6U, 0xbd61f548be036e49U, 0x3d41d4c63dabb46aU, 0xbd8d53813dcb0a97U,
  0xbe138a9f3d91b257U, 0xbd90c83d3e119ce4U, 0xbdf37635bdea3e69U, 0xbd53d0053db94527U,
  0xbd992b9cbe08402fU, 0x3d850c88bd1b695fU, 0xbcd79841bdb5e297U, 0x3d8894cfbd790382U,
  0x3dc4215c3de4540dU, 0x3dbecffcbdb56db5U, 0x3d44683abd52de28U, 0xbe0f70a33d8464f5U,
  0x3d69ce773dbf3a50U, 0x3d9c6c493d64c87dU, 0x3d13a8973deceb22U, 0xbd2e1c2ebe0c0439U,
  0x3e07f1e6bd66d458U, 0x3dd245fa3d5f287dU, 0x3d9923bdbde490acU, 0x3d4718a03dc60286U,
  0xbd8e261cbce26dc4U, 0xbd0b51533d9acfe2U, 0x3cba9aa53da82523U, 0x3c8cdf3dbd110f54U,
  0x3cba6fc9be0f1878U, 0x3d81e806bcc3da54U, 0x3e0e6e93bdd1218cU, 0x3e09f685be0f4463U,
  0x3e110da33d86a3d9U, 0x3dce3d2d3d8f261aU, 0xbd753e8c3e0b0f16U, 0xbdfb3c23bd8d2287U,
  0x3d87004cbd35c95aU, 0x3caa663cbd18fef5U, 0xbdfbf7a0bdc646b2U, 0xbcf4fe08bcc6927cU,
  0x3e0c6cd4bcaad5bcU, 0x3d8aa5febb715d78U, 0x3d905f523df57774U, 0x3e04cea0be0f0509U,
  0xbe11ed03be0ef29dU, 0xbd8dfababdb29ceeU, 0xbd4fc91ebdc265c7U, 0x3d3f1ae33d084012U,
  0xbaa7d0463e138418U, 0xbdd77dd1bd928a45U, 0x3d4908c03e0cfbffU, 0xbdfc68653df76108U,
  0x3dfaaaaf3dd80b2eU, 0xbdb888bf3dc33a68U, 0x3defe1e43d146701U, 0xbc377dc93daae9c4U,
  0xbb7c82e43e03d5ccU, 0xbda5ea0fbda80678U, 0xbde4e0193db1ad09U, 0xbe05baf8bd9f0656U,
  0x3c10f64cbdd3948fU, 0x3cf81e54be10f0e8U, 0xbd484d42bdd57400U, 0x3d15efb83db1d538U,
  0xbda98352bd96e74fU, 0x3dbc41f43d94f012U, 0x3de9488cbe085556U, 0x3d130cd43d80ca42U,
  0x3c3d1569bd6d8730U, 0xbc0d2bf03d858f05U, 0xbdc36d68bd8bde80U, 0x3bfe46a8bc38a69eU,
  0x3dc23410baaf5ea7U, 0xbd839d35bc7bd64bU, 0xbe130d4d3dd6de2aU, 0x3dc0524e3dfd89c0U,
  0xbd0ad1fd3df8e244U, 0xbe097f30bc903d3eU, 0xbd894dd3be0ce113U, 0xbc34eac0bdc5488bU,
  0xbdb2201d3d9ed181U, 0x3dc55aa9be00c5e8U, 0xbcb311ff3cb8a389U, 0x3da95162bdd7cce6U,
  0x3d48fa5abdfd397bU, 0xbce4983b3e068cd2U, 0x3c26c7ec3e0be3b0U, 0x3d4223353df47d38U,
  0xbe0d8f023dd4326aU, 0x3ddbdbce3deb8e54U, 0x3c535e4a3d23f90aU, 0xbe0a30993d929385U,
  0x3c19b960bcafacc7U, 0xbdf34ff73cb4f03dU, 0x3d70e5acbd3f250fU, 0x3dc09e0abd0fcdf7U,
  0x3e068d46be035508U, 0xbdb89ab8be0e46cbU, 0x3de585f4bdaf81a6U, 0xbb2094d43deb4b54U,
  0x3b9b640e3de2678aU, 0x3c2bbe253e045aacU, 0xbd8f0911be07af72U, 0xbc0d631dbddbf1d6U,
  0xbd4b55aebda763b0U, 0x3e0224ad3dd1c4b5U, 0x3d992ac4bd3b9a4fU, 0xbd83c4d63d60f63fU,
  0x3d77d47cbdb5b462U, 0x3d0cb08abd997640U, 0x3e0e871e3e05af15U, 0xbe0610603d3d5a47U,
  0xbdc550153d18f86bU, 0xbdecfaf23bc5775bU, 0x3e0175d4bd1ab921U, 0x3ce43c7fbdaee2a5U,
  0xbc3138c03db84090U, 0x3cc23f5cbc4e8a3bU, 0x3dece0b83d5f1e89U, 0xbd3b9af4bdc003d2U,
  0x3e0b5c4dbdba1330U, 0xbde00f47bca20700U, 0xbd1f4124bc528f5eU, 0xbdaa3efcbdc5fa9bU,
  0x3d7331eb3cd2be38U, 0x3b22b29cbd19ac13U, 0x3dbef52f3d390420U, 0xbdf669abbddbe061U,
  0x3d94b599be0738c7U, 0x3c879fe8bd09bb80U, 0xbe12bf883d5f4509U, 0xbdd27856bd4e96cfU,
  0x3cbf7b803e12a00aU, 0x3dfb7c093dadce22U, 0x3e0cc94c3c0821a2U, 0x3ddbcc2a3e07fc5fU,
  0x3da50bc5bdc4de73U, 0x3de2b5e03de2c2d3U, 0xbd0293483e0c032fU, 0x3df06f30bdc0ccb4U,
  0x3d9859313dce0e31U, 0xbd2e7b3e3d37f160U, 0x3de07e4c3ccc4ee0U, 0xbdf951f33da16296U,
  0x3d9ea6753dd98794U, 0xbc2c3e20bcf9053aU, 0x3d7cce40bdff8c5dU, 0x3df0661cbc192740U,
  0xbd802436bdf0fd5eU, 0xbcaba350bdea0048U, 0xbd1ef41ebe05ec85U, 0xbd9602b53d043ff8U,
  0x3d8c01ed3d9d06fcU, 0xbe043b5abe134515U, 0xbdce130e3c142129U, 0xbdcc56e1bd8f938bU,
  0xbb9e04d9bd363809U, 0xbd510ccc3dfa1638U, 0xbd9dcceabe048361U, 0x3bd286c03dae6f88U,
  0x3d94da59bdce66f8U, 0x3dd77a8ebe0ae19cU, 0xbd8c3553bde0e096U, 0xbcb99d483e0c8ae2U,
  0x3d55b5103d378ef6U, 0xbdd0b97f3e12194fU, 0x3d4cc39e3ab6252dU, 0x3db01ef63ce64776U,
  0xbd9752d5bd709290U, 0xbd0b4787bd837072U, 0x3c75f3d03ddbff50U, 0x3ccaad783bea3380U,
  0x3d1fc753be013b33U, 0x3b4c6e00bb986420U, 0x3dd70f78bd507940U, 0x3a3b5e00bd319e4eU,
  0x3df84ebc3c1f1525U, 0x3ca91facbdba4efdU, 0x3e0fda6abd28b244U, 0xbdee826abc4e6d30U,
  0x3dc39a42bcbe48a5U, 0x3d4a1d1dbe07cb98U, 0xbca98f023d10db9bU, 0xbd4d50273d65e3a0U,
  0x3d6cb8753dacf037U, 0x3d77dd50bd8b195aU, 0xbd9fe5c3bcd2f1b2U, 0xbdf21ac0bc5810a0U,
  0xbdf5778bb980c6adU, 0xbd95d1ab3dd0b53eU, 0x3d3e74783cb64cb8U, 0x3df58b043db8c8bbU,
  0x3c0a5635bdaface6U, 0x3d52142cbe02013cU, 0x3dc61fa4be075392U, 0x3dda02f43dcfcfdfU,
  0x3bd470b6be0306c1U, 0xbd46c590bb53cf80U, 0x3d8b7f903e046024U, 0x3dd4cf263dd3c6a4U,
  0xbc9680c0bdb384ebU, 0xbd7bce72bde9e883U, 0x3cc3a6533d263fabU, 0x3d81ff843e1217fdU,
  0xbd78713abcd44660U, 0xbe121e77be099144U, 0x3a89a880be051345U, 0x3d4b32383c17c159U,
  0xbdbfa7bd3d516198U, 0x3df5dad7bcf7f40cU, 0xbd9d7aa1bd909b03U, 0xbdb16414bdfa0009U,
  0xbdbdc7ef3b081000U, 0xb814ab41bdb77e8eU, 0x3d83b6c6bcea3bb3U, 0xbd70fdeabe0c756bU,
  0xbc384f133d8e9e96U, 0x3d4ee310bdb2955fU, 0xbdc50b4a3d897662U, 0xbdafdf65bde0ff7bU,
  0xbda84edcbc76feb0U, 0x3d540a703db18766U, 0x3ce3ba003caac9a8U, 0xbdb6a1e5bcbb4d80U,
  0x3c8beb5e3e01f683U, 0xbd7adc4cbd363b4eU, 0x3d181bd4bdef73eeU, 0x3d88a754bd6c2138U,
  0x3d84e668bda72d9fU, 0x3de89e5fbe051ca3U, 0xbd5e3a6ebdaa30daU, 0x3dbf13d6bdb4cecaU,
  0x3d897c3dbd8c9dbfU, 0x3d9937a03dc0778fU, 0xbd903006bb561b83U, 0x3d477b10bdd271ebU,
  0x39e3f256bcd01cc4U, 0x3d66635c3c80be88U, 0xbdb540f03dcdff12U, 0xbd5835e0bbc553cdU,
  0xbdf127b7bdffd3ccU, 0x3bd4aec7bca3e1eeU, 0xbe1209303dc170bfU, 0xbe0de3dc3e08090fU,
  0x3daeb896bb6632b6U, 0x3e0330d43db06a9fU, 0xbe1346713c42d016U, 0x3d0b3b443d22620cU,
  0x3d80f6bd3dc48ce4U, 0x3d544daa3df33614U, 0xbca87b2b3c945f5eU, 0x3c55e8afbd8de712U,
  0x3da453093d944ac6U, 0x3c22a5d93ddd9341U, 0x3d42eb96bdf72509U, 0x3e0a6f36bdbe35ecU,
  0xbd11f601bdd7eb97U, 0x3dfed468bcc9f2e8U, 0x3d41864dbdbcab2dU, 0x3c8d4b5ebd3cf74eU,
  0x3d9d8b2cbd9a47a1U, 0x3d4afcebbcd8260aU, 0x3bc676f6bd3904dcU, 0xbd04c8153d61cfdbU,
  0xbacbaf0c3dd6b2b4U, 0x3d60dd10bd38ea9fU, 0x3cb04668bde84493U, 0x3d685894bdcf88e8U,
  0xbdf6560dbd9107bcU, 0x3e020934bddc0d50U, 0xbd2ef0033d135190U, 0xbdf63c2abc6b7ea0U,
  0x3de8620e3dcf11b2U, 0x3c8f83753c207a6eU, 0xbdcbe0a8bdcebf5fU, 0xbe128525bdd505b4U,
  0x3d4db741bcf58ca3U, 0xbdd83bfdbd5085d8U, 0xbd251521be0900f7U, 0xbb3659c6bd56629dU,
  0x3dcb1a43be087e11U, 0xbd16e3d3be00bf28U, 0x3c500695bda60da0U, 0xbdaf4c843d62e289U,
  0xbdaa4543bc14e262U, 0x3dfe283bbe0f38a5U, 0xbde2d2f8bddaed67U, 0xbdf015a93e0e64f1U,
  0x3da7c6593b228ef0U, 0x3d503cf43c9fc626U, 0x3df6ded0bd7a8f6dU, 0xbd719c663ddd0a60U,
  0xbd9f4b47bd54d56fU, 0xbc6cc6a1bdbb6158U, 0xbdbcdfd0bcd95337U, 0x3dabe356bd3e60ddU,
  0x3dee16d8bd36f928U, 0xbdc03a263c6b48faU, 0x3d3d961abbfc0271U, 0xba92ab403d863ad0U,
  0x3da39000bdb946c6U, 0xbc91926cbc2c31b6U, 0x3e0b41c0bdc5eacbU, 0xbe0851a1bdea8224U,
  0x3d568d013d525e7cU, 0x3d2b0f1ebd4931c7U, 0x3dff3c08bd9dabd8U, 0x3d20a5d0bdaee7b7U,
  0x3e0085563dbb1666U, 0xbda15adfbdd777cfU, 0xbda6defe3acb8b77U, 0x3d8cc7283e052b84U,
  0xbde0c3bbbd9d45cbU, 0x3dd579adb93d8c00U, 0xbcd81cdbbdeec39bU, 0xbd91a4d03e06e0a2U,
  0x3da85b2c3d8c7eecU, 0x3c34734b3d8cd073U, 0x3deb883e3d1d1144U, 0x3d924f41be0e8052U,
  0xbd06deefbdafcf70U, 0x3d3f54123d093de4U, 0xbdf238bcbd4a7c20U, 0x3c67ba74bcc1d314U,
  0x3d176f68bdd44eacU, 0x3e040c843dc4e084U, 0xbe028679b9b9a343U, 0x3de8903cbd40290aU,
  0xbe0d8ddebdf443a8U, 0xbdda40d53dc196e4U, 0xbcc0b04c3d78193dU, 0x3e13c73c3d24fc50U,
  0xbdf460323dfb8a00U, 0xbcc146343c80f190U, 0x3d57913c3d20b46cU, 0x3de547d03dc1d94cU,
  0x3e0c3ae93cbc6bd0U, 0xbd5d5d62bdda0d51U, 0x3e0a59483e07c630U, 0x3ca290173d2011f0U,
  0xbd6d4d40bdf13a60U, 0xbdb9b866bde00656U, 0x3d02cbc03c75dab4U, 0xbdafba1ebd7b12ecU,
  0x39ccdbc1bc958f68U, 0xbde1701c3d881bb8U, 0x3a978fc6be0323c9U, 0x3da974333d055b59U,
  0xbd9209d4be0b83f7U, 0xbe1391c0ba8c3700U, 0x3e09d788bd71adcaU, 0xbd2cce18bdc86703U,
  0x3dd1bd80bdb6d3adU, 0x3ca797783d733b30U, 0x3e122c81bda45a9aU, 0xbcd67ada3dff5315U,
  0xbe0310f6bda79cffU, 0x3dc329663da8e868U, 0xbdac43e73d05f8edU, 0xbd6bd6b93d6c73c0U,
  0x3e03b8803bcc905fU, 0xbc9f04e13dd6f0ecU, 0x3d308b7c3cb13b74U, 0xbdc542763cd1d540U,
  0x3d40665fbde4f2feU, 0xbaea5d00bddafe63U, 0x3dac00163e01a27aU, 0x3e020d82bdbef32aU,
  0xbd4f35903c7c15afU, 0x3b797585bba703caU, 0x3db6bfb63e0e42c8U, 0xbdf2df36bdfbbeb4U,
  0xbe05a10b3e0e63a3U, 0xbd176c72bbb00b99U, 0x3ba7dda1bc007154U, 0x3d719f85bd9d5483U,
  0xbcd4bf50bddde4bcU, 0xbda11ecebdc3a69aU, 0xbd195ce13da565edU, 0x3c9be0583d9182d6U,
  0x3cad887c3d409869U, 0x3cb25657bbaeb753U, 0xbd06f8483ced4849U, 0x3ddead08bdff56cdU,
  0x3c9987353db72473U, 0xbca693f43de5539dU, 0xbd14f4c23d20269fU, 0x3e0fa965bde883f1U,
  0xba838ecabd849e69U, 0x3e071ec43b034000U, 0x3e0fae50bdcc358aU, 0xbd506698bdcdf845U,
  0xbd8d6f47bcf660b4U, 0x3c04bcb8bd643706U, 0xbd90808ebe027ec6U, 0x3d12b1babc824f58U,
  0xbd3607e43e1108c4U, 0x3dd8fbbbbd73bf28U, 0xbd884e4cbdc5fdfbU, 0xbdcfc47d3c58f1f7U,
  0xbdd00c723db7858eU, 0x3dae69f3bdc69ca2U, 0xbda4eb0bbbdca97cU, 0xbe0d1da83dd69ee4U,
  0x3d944076bdb1454dU, 0x3d574b333da6adaeU, 0x3ceaf750bda7fff1U, 0xbe075c80bde77baeU,
  0xbd3454da3d034ab4U, 0xbe041838be12894aU, 0xbdd29b8d3cc96ba8U, 0xbd2d17f2bd9383edU,
  0xbe0eab46bdbe3a0dU, 0x3d2f9811bdf94e17U, 0x3d128d1e3e0c1122U, 0x3cbf8d8f3dff51a4U,
  0xbda4e1533c847b41U, 0x3bd722e0bde6f3dcU, 0xbe03e783bd6d9f57U, 0x3df06da33dcd7633U,
  0x3e0f61c83d5ed7fcU, 0xbe0041893d7f7aa1U, 0x3ce5cd19bde78228U, 0x3e0bce343dab94b3U,
  0x3d2099debd9bcdc6U, 0xbc93b4d6bd2b51cfU, 0xbd2abcf4bc2ecdfbU, 0xbca4ad543c9ea427U,
  0xbde6e9a13d8e76c4U, 0xbd840cb5bd93a216U, 0x3de967c03df14d2bU, 0x3cf6cda23dfa45d9U,
  0xbd15a351bdee6f0eU, 0x3dd126003de99672U, 0x3b3fd900bdce512eU, 0x3dbd9406bd3fe418U,
  0x3e026aa8bd6cf32fU, 0xbd5285d33dd900d3U, 0x3cb546c03e00b50eU, 0x3ccad23cbdbf9b36U,
  0x3d8a33a6bd8967ceU, 0x3c93b284bddc0396U, 0xbcb965ef3cba1ad0U, 0x3d80907b3dc49a5fU,
  0x3bf9519bbd22b6feU, 0x3d31212b3d9c226dU, 0xbcdb7e7e3c8f44e8U, 0x3e0984a2bda8845bU,
  0x3de86c4f3db98310U, 0xbdac43edbc0d3cb0U, 0xbd825c6bbde21532U, 0x3d383af43d632aadU,
  0xbdc28d863b22e4d1U, 0xbdeb30febd01eb55U, 0xbd792e64bc79ca8eU, 0xbc8195c03a8d1497U,
  0xbe00fc77bd357576U, 0x3dc4f4743de1e508U, 0xbd838945bd611c7fU, 0xbdef62d3bdd76728U,
  0x3d79ae813c31717dU, 0xbe13446cbde7ef10U, 0xbd1d4cfe3dec28f8U, 0x3d0b0f18bc682970U,
  0x3df76bf4bc87b926U, 0x3c9d7d713dfa0ed8U, 0xbdb0b4203d42ec88U, 0xbd91a6abbdeddd06U,
  0x3d840bc5be0cf1abU, 0x3dd5ac603d554f2cU, 0x3d33b2cf3de33718U, 0xbd4ba5113db3b3ceU,
  0x3d971985be059d56U, 0x3dc00b0abd645396U, 0x3d03bd14bdc53525U, 0x3db5adaebccca9c1U,
  0xbde1240cbc911c00U, 0x3dbcc2febdc0246cU, 0x3dba6166be0c9673U, 0xbdc973b43d02c292U,
  0x3dfcfdbcbd553eefU, 0xbd715aa8bdc1d15dU, 0x3e0105683e0ce851U, 0x3d94af5bbe06655cU,
  0xbe02e367bdebba6cU, 0xbdd2eb97bdaa3c74U, 0xbdf2e8d4bd4981d4U, 0x3d4470713de41404U,
  0xbe0579423c7aa82fU, 0x3d0d57ff3dbebbeeU, 0x3d8e280e3c91eb0eU, 0x3ced99bb3e03c520U,
  0x3c72da403dd8de54U, 0x3d9543063e12f511U, 0xbdae67e83dd5be7aU, 0xbd94b388bdbcdf88U,
  0xbc9947e83d0b989fU, 0x3cd647f03cad8218U, 0xbe01fdd2bc29d532U, 0xbdbad6a73deb9c68U,
  0xbd97024fbc308960U, 0xbbe71ed23c9b6c17U, 0x3d6ee3cc3c5b44c0U, 0x3db476b83d933d3cU,
  0x3d6801103ce29542U, 0xbe0812e83d7d8224U, 0xbde7ad23bdad00d6U, 0x3ddedc1cbd62a2bfU,
  0x3d4bc1953ce07548U, 0xbdded1bf3c779121U, 0x3e10df2d3d06426cU, 0xbd2741b8bdf3e1d8U,
  0x3dc8982e3cf7d379U, 0x3d8b016a3db1b50eU, 0x3d5a86903db7d7efU, 0x3d8daa373ba86680U,
  0xbde4bf773e009b2cU, 0x3da1f6c6bdcb3367U, 0xbd9a6ee73deb62f7U, 0x3dfab035bd433d7fU,
  0x3c0a37b83dfdca7eU, 0xbd6c5fc63d9522fcU, 0x3df22da03da2d724U, 0x3dc86c783e002c20U,
  0x3cc2350c3d1adab1U, 0xbc2aace03d076adcU, 0x3ac60580bd80cda9U, 0xbc1c2a313e108a92U,
  0xbcd8fc333d66f058U, 0x3da019603de628a7U, 0x3c41e3403d98eb84U, 0xbd74124dbd887d9eU,
  0xbde44f55bd8e0a0eU, 0x3ccbde503d5732f1U, 0xbe0b6e893e125e0aU, 0xbda660c7bdfa9a7aU,
  0xbde6324d3d9c2af2U, 0xbd69df80bdd5007eU, 0x3d9be2283d1db49aU, 0x3d2a99bdbdcc5a17U,
  0xbcde005f3d06b6b1U, 0x3dbc9220be0ce452U, 0x3de9c5c33de1d0a8U, 0xbcae22bcbb0b1e3cU,
  0x3dc46b3dbd9d6895U, 0xbcf4f2bc3dd29d02U, 0xbda6fcb13e0ebc51U, 0xbd241909be12544dU,
  0x3df362a4bcc6f8ecU, 0xbd3d24043cf98afcU, 0x3e00aeb13d795eeeU, 0xbd834e203c221cbdU,
  0xbd986ba23d00687fU, 0x3e007a70bd037938U, 0xbce2fe74bde2ed81U, 0xbc43f7b03d9d4c24U,
  0x3de416c53dc0ee6cU, 0xbdecea773dd7e54fU, 0xbe00b0183df779d2U, 0x3de66c20bb8f00a0U,
  0xbe136b4fbd8fefb1U, 0xbcfbdba13b915210U, 0x3dfaf091be10aaafU, 0xbd289a453dc518ceU,
  0xbd8714febda9abaeU, 0xbc4a0bf13e05a2a7U, 0x3d714d95bdaa119aU, 0xbdf1bea3be07e14fU,
  0x3d9615183d935501U, 0xbcc9b2aebdb57e89U, 0xbdfda43abdcde2d6U, 0xbd5be5ac3ce69a00U,
  0xbd578f023dbb834dU, 0xbc432f03bbbc503eU, 0x3de364743d86c3c2U, 0xbdcaf294bdf81134U,
  0x3d3c07673d83ed67U, 0x3dc986403bac9c79U, 0x3db365d43e117466U, 0xbd6dd388bbe75d97U,
  0x3dd6b8923e0ea05eU, 0x3dc364bb3c86a4e8U, 0xbd5df9d03de6d530U, 0xbe0a4676bd9552ccU,
  0x3ddb144c3d5bc364U, 0x3db3f9e3bb59804fU, 0xbd7e25203dd6d450U, 0xbe04b01b3df49e27U,
  0xbe066667bdaccb1cU, 0xbd692adabe063b2bU, 0x3da3fcdf3e0fd155U, 0xbd9ad2143d76275dU,
  0x3deb6e81bdf1a5b7U, 0x3c250f393dcd9af8U, 0xbd6a94d43d59b707U, 0xbdadac7dbdfd85dbU,
  0xbe11703abc00c670U, 0xbc3dd328bd78245fU, 0x3db9cb94bda8bfdfU, 0xbdc2580fbd07cc9aU,
  0xbde7579c3dbc697cU, 0x3d759fedbd292094U, 0xbde55167bdf801f8U, 0x3d2b9dbabd258f98U,
  0xbdbe67ef3dbe690eU, 0xbe0bf47cbe02cd37U, 0x3dda0db83987ce00U, 0x3d895317bd7b14ffU,
  0xbd3ffbeebd9119c5U, 0xbd0d2490bd44d164U, 0xbdd4c1fa3e0edf37U, 0x3de438ea3ccfdeb0U,
  0x3d27d2b83e13915aU, 0xbda9a1163e04e232U, 0xbc188696be01fd2bU, 0xbe0352a8bda19df5U,
  0x3bf82ac33ded35e1U, 0xbdd425b83da16b6fU, 0x3bc4e8cdbcfc229aU, 0x3ddc5fcc3de683a7U,
  0x3e16879a3d034d4fU, 0x3e0741dc3d5589d4U, 0xbdfed73d3d9246e0U, 0xbce5ce1abd54cf58U,
  0xbd88dcb63d2b5e2cU, 0x3d953cfc3c943479U, 0x3de9cb903df621e6U, 0x3d5377abbd9f0031U,
  0xbda5e3c63a801573U, 0xbbef97bdbe0f4605U, 0xbd2f44fe3c915193U, 0x3d8aeed1bd5162b6U,
  0xbded76b63d3cca24U, 0xbd7762cdbbbe13a0U, 0x3d93208c3dd64b97U, 0xbd9526d2bd86b2a4U,
  0xbcc57d85be0ea9d8U, 0xbd57f36fbdb649ebU, 0x3bcfd24ebd98b72aU, 0xbd8e1240be0dbc6eU,
  0x3cc6d2993de67da5U, 0xbdfb3f183da41978U, 0xbdb874df3ddad5cfU, 0xbd882f8ebe0b6320U,
  0x3e07819abd9b0ef8U, 0x3cac35813cb397fdU, 0xbe0f7c403d2aa876U, 0x3b719f4a3c90dc55U,
  0xbdaed098bdb5279cU, 0xbcc61624bde04590U, 0xbdc958433ded227dU, 0x3cbcf3803d2e1e14U,
  0xbdb21c983dfd1e85U, 0xbdc3cdeebdd3efa1U, 0x3e03681dbe050bcaU, 0xbdf140fdbdb08fe2U,
  0xbcb5cd7e3dc8d374U, 0xbddc86ebbd56c7a8U, 0x3df0d4c2bdaa306fU, 0xbc949de23d25b988U,
  0xbd02ec61bde7de9cU, 0xbcd255a0bc3549ebU, 0xbd919a363c03f232U, 0x3dee0bf53db4a1d2U,
  0x3dfa6c5c3d3c22edU, 0xbdbf88733d961b49U, 0xbd549c533ddbef62U, 0x3d61f23cbd47e695U,
  0xbda39e1fbe068439U, 0xbd53a3ad3dec7339U, 0x3da81c123e010c01U, 0x3b329548bde7c025U,
  0x3e1085363d04de48U, 0x3db957113de1fc72U, 0x3de3480c3dd01aa4U, 0x3cef0611bd5be4f4U,
  0x3d99d3f2bdc8d386U, 0xbdc0240dbda05da5U, 0xbd9d29ebbdbc8704U, 0xbe08fbc7bd74a392U,
  0xbcde9130bdc411e4U, 0xbc4378ac3dc0a8f9U, 0x3ca819833d430b48U, 0xbd6feb5ebd8c8d23U,
  0xbd1d6558bdeff067U, 0x3b6b277a3bb3582dU, 0xbd1d8fe5bdb90ff7U, 0x3c9944f4bd2f12edU,
  0x3dfc0c54bcec131aU, 0xbd7e14a03d63833dU, 0x3d2de5473dc07ac6U, 0x3d509e093deca2f3U,
  0xbca220cd3db8e2e2U, 0x3ce204d6bdeb3709U, 0x3c522492bdf84eaaU, 0x3d2a0aa8bde52a99U,
  0x3ddd79debe0ce9cfU, 0x3dbeeebabd3d6d86U, 0x3db2dd073dac8bdbU, 0xbd8af9d43dbb7c82U,
  0x39c652ebbd4e928aU, 0x3dd6dc60bd120946U, 0x3dec2db5bdde3ce8U, 0xbc9f7fd6bbc9bcf1U,
  0xbd88b1383e138509U, 0xbe08c50bbdc308edU, 0x3d143f8cbdec1b2bU, 0x3d72d64b3d90535aU,
  0x3dd0da6c3df1373cU, 0xbcb6c9c73d0b5ddbU, 0xbc3db566bd5d2249U, 0xbc562c79bd0c22e9U,
  0xbd2bad64bc26ff24U, 0x3c1c47863d8d6141U, 0x3d08a23abd76f486U, 0x3dfad98cbd0dc53fU,
  0xbaeabd563c8cab22U, 0xbde87befbd863d95U, 0xbccb9307bc16dda6U, 0xbd99cb303de1077bU,
  0x3dbbd1c53dda32a8U, 0xbb5505803d07efb6U, 0xbdc502813d37126bU, 0x3d89f2e5bc6984b3U,
  0x3ddf79f53a20a1ebU, 0x3de633133cfd45dbU, 0xbd257a24bdb5e185U, 0x3c953a5ebdccc181U,
  0x3e097f3a3e00661eU, 0x3c7c01643cb872c0U, 0xbbdc0d5abda8426bU, 0xbd19c6203d57a51bU,
  0xbde2da90bdaec86dU, 0x3df99472bd8f87cbU, 0x3e10695c3de0a4f4U, 0xbc63b1003db2e040U,
  0x3ddd40c3bde86f4cU, 0x3c3682303d3fe4acU, 0x3def91803d305a92U, 0x3dc9229cbe0ff27aU,
  0xbd71605cbd836063U, 0xbda84084bdc9af05U, 0x3da2ea31bcf68ef3U, 0x3def178d3cd9e978U,
  0xbde9edae38c0c64fU, 0x3d99d1eb3d380e53U, 0x3d4626b83d8d6cbfU, 0xbd29afd63dac0008U,
  0xba8f08693d261fb3U, 0xbd8e32ac3defdd5fU, 0x3d2e00b03c7373d9U, 0x3de96d0c3d64feb4U,
  0x3d502aeabd64c7f3U, 0x3d9b55ddbbf70c7aU, 0xbdf204533da35672U, 0x3db611383995d29fU,
  0xbe0c10c33c2feac2U, 0x3e01a353bca5547dU, 0xbce5b53fbd9391dcU, 0xbdb250f0bc0db736U,
  0x3dc0700b3de32637U, 0x3c610ab03d267a0bU, 0xbdde34bf3e050239U, 0xbc6e3af03d114fdcU,
  0xbe01bcfe3daa5b57U, 0x3e12431c3e0c4d28U, 0xbb1231803d31f666U, 0x3def3ca3bd52e2deU,
  0xbdb784fabdfa2c19U, 0xbd31b220bb35ef11U, 0xbd94bf5abca4364fU, 0x3dfee2fabe0f9c62U,
  0xbdd5656bbd596d06U, 0x3d6190fe3dc406eaU, 0xbde145553e069148U, 0xbd1ea3f23d270ea9U,
  0xbddf23febdbbd407U, 0x3c8e31303dcbafdbU, 0xbd9effb83d2668fdU, 0xbdd54b1a3ba1c34fU,
  0x3bce56203d917f60U, 0x3cbe45a1bdcd512eU, 0xbc1da1f4bd16351cU, 0xbdabaa803d8dadf3U,
  0x3df53d143cb38fcdU, 0x3d6c16c53d25f17dU, 0xbd9876193deeb017U, 0xbb1881ee3db7d0e8U,
  0x3dd37bbc3dd2759aU, 0x3dd15a1cbe03c97aU, 0xbdf8df01bdf0d1b3U, 0x3c110e303b2df4c0U,
  0xbe0e6440bd81e41dU, 0xbcfc0d18bc9f39f0U, 0xbd842d22bd35988bU, 0x3e000cbb3cff8964U,
  0xbdb8a23c3df53140U, 0xbb72ce4bbddf0ff0U, 0xbdd470b1bdc02ad3U, 0x3d3677db3c95a99dU,
  0x3d21989abcd9685aU, 0x3daae149bdad2b2cU, 0x3ce2abf83d826e9aU, 0x3e0a85f03d07a8d1U,
  0x3d78e43cbd708090U, 0x3e12a4723d622cc6U, 0x3df65e02be05d223U, 0xbd957e3b3e0a4b3bU,
  0xbd6822213d68d578U, 0xbdc55d1ebc56383cU, 0xbd5de3de3d94331dU, 0xbd8658c1bdfbc2d1U,
  0x3dd358e23dd81b39U, 0x3d6453a0bdadd612U, 0xbd97e671bd3fd5c7U, 0xbceb6d143d3de193U,
  0xbdbbb6c03d1e09ecU, 0x3de63f3bbe031623U, 0xbd3807183ddbd7e9U, 0x3bc8a007bd0d4f40U,
  0x3db3b628bdf418abU, 0xbdfa33df3dabc1dcU, 0x3cb411603d8311a8U, 0xbd0397b8bd1bef54U,
  0x3def1406bde0279eU, 0x3dd98d63bdf0e50eU, 0xbdb0a5163cc001c2U, 0xbe0a0d553dae505aU,
  0x3d43cb253c87a123U, 0x3d6d12bebd7d7d63U, 0x3daf79433e106d5cU, 0xbdcf317e3d5c860fU,
  0x3d4be6f6bcad75c5U, 0xbd6a12083d22ea0cU, 0x3d7dba983dc0c7e8U, 0xbdbfa1253c92a384U,
  0xbd49dca63cd82b13U, 0x3d827d10bc381392U, 0xbd5266183dc5e927U, 0x3d414c943e097a29U,
  0xbdc70f76be0d2b81U, 0xbcb79baa3dfe7be3U, 0x3deb7e503cd89fa8U, 0xbe08fb2c3c502520U,
  0x3d5eecd83e0fce8fU, 0x3e11ba9e3d90db14U, 0x3e04141ebdbc0d01U, 0x3d4ca1b93d40df2cU,
  0x3d8fbeeebd051b32U, 0x3c8a4a333c73ca62U, 0x3cd5cd47bde1ce75U, 0x3d2c14593e086e5bU,
  0x3cfcf8bd3de6a9faU, 0xbc96f6d7bd9e44caU, 0x3d69611f3cd9af26U, 0xbdd902183d8a21f6U,
  0x3dd1b9c3be0c249eU, 0x3defdbf2be0a8713U, 0x3cd47df33c886064U, 0xbd9e1f133db84454U,
  0x3d937d52bd3c4ba1U, 0x3a86cb3fbd9d3f9fU, 0x3dbe10b2bd4c6a19U, 0x3d8026b5bc1e032eU,
  0x3d352dd13d8fed83U, 0x3abf9a1f3deeea46U, 0xbce456893e0c1678U, 0xbd09f1c2bd84f757U,
